<unk>	0
<s>	0
</s>	0
ານ	-0
▁ເ	-1
ອງ	-2
ັນ	-3
ທີ	-4
ການ	-5
▁ແ	-6
້າ	-7
ລະ	-8
ທີ່	-9
່າ	-10
ັບ	-11
ໍາ	-12
▁ສ	-13
າມ	-14
ດ້	-15
ຂອງ	-16
ັດ	-17
▁ໃ	-18
▁ຄ	-19
▁ຫ	-20
ໄດ້	-21
່ງ	-22
າຍ	-23
▁ກ	-24
້ນ	-25
ື່	-26
ິດ	-27
ົນ	-28
າດ	-29
ໍ່	-30
▁ພ	-31
▁ແລະ	-32
ົາ	-33
ປະ	-34
▁ຈ	-35
▁ມ	-36
ອນ	-37
▁ນ	-38
ັງ	-39
▁ຕ	-40
▁ທີ່	-41
ວ່າ	-42
ົ້າ	-43
ວາມ	-44
▁ອ	-45
າກ	-46
▁ບ	-47
▁ທ	-48
ັກ	-49
່ນ	-50
▁ລ	-51
ປັນ	-52
ສະ	-53
▁ການ	-54
ວກ	-55
ໃນ	-56
▁ໄດ້	-57
ູ້	-58
ຫນ	-59
▁ຂ	-60
ຫ້	-61
▁ໃນ	-62
າງ	-63
▁ຊ	-64
▁ຂອງ	-65
ີ້	-66
່ານ	-67
່ວ	-68
▁ຮ	-69
▁ເຮ	-70
▁2	-71
in	-72
ັ້ນ	-73
▁ໂ	-74
ອກ	-75
er	-76
ຈົ້າ	-77
ື່ອ	-78
ູ່	-79
▁1	-80
ມີ	-81
ົດ	-82
ິນ	-83
າວ	-84
ົງ	-85
▁ໄ	-86
ຸດ	-87
▁ຄວາມ	-88
ເຮ	-89
▁ຜ	-90
້ອ	-91
້ອງ	-92
ຫຼ	-93
່າງ	-94
ິ່ງ	-95
▁ຢ	-96
ແລະ	-97
ະນ	-98
ມ່ນ	-99
ິງ	-100
ຄວາມ	-101
00	-102
▁ເປັນ	-103
▁ຈະ	-104
an	-105
▁ມີ	-106
▁ສະ	-107
▁C	-108
ົວ	-109
ເປັນ	-110
▁ດ	-111
ຈະ	-112
ອບ	-113
ຫລ	-114
▁ປ	-115
▁S	-116
ພາ	-117
ຫມ	-118
▁ຫນ	-119
ຖື	-120
on	-121
▁ຍ	-122
່ຽ	-123
▁ປະ	-124
▁ວ	-125
▁ເຮົາ	-126
ຂົາ	-127
້ງ	-128
▁ພວກ	-129
▁ເຈົ້າ	-130
▁ໃຫ້	-131
ົບ	-132
ຕ່	-133
ໃຫ້	-134
▁ບໍ່	-135
ໍາລ	-136
▁P	-137
ເລ	-138
ະລ	-139
ດຍ	-140
▁ຄົນ	-141
ກັບ	-142
້ອຍ	-143
ື່ອງ	-144
ຈາກ	-145
ບໍ່	-146
ີດ	-147
ົມ	-148
▁ເພ	-149
▁(	-150
ar	-151
ີນ	-152
ຖືກ	-153
ເພ	-154
▁ວ່າ	-155
ຸກ	-156
en	-157
ພະ	-158
່ມ	-159
ຶ່ງ	-160
▁ຜູ້	-161
es	-162
▁M	-163
ວນ	-164
ລິ	-165
່າວ	-166
ງານ	-167
or	-168
▁ກັບ	-169
ຊ້	-170
at	-171
ັ້ງ	-172
ລາ	-173
▁ຫລ	-174
ພວກ	-175
ເວ	-176
01	-177
ົກ	-178
ແມ່ນ	-179
ມື	-180
▁A	-181
ສາ	-182
ູນ	-183
▁B	-184
້າງ	-185
ຫຍ	-186
▁T	-187
ເຮົາ	-188
ຢູ່	-189
ມາ	-190
າມາດ	-191
▁ໄປ	-192
້ວ	-193
▁ເລ	-194
ເຊ	-195
al	-196
ເທ	-197
ໄປ	-198
ຮັບ	-199
▁/	-200
▁-	-201
ເສ	-202
▁ທ່ານ	-203
▁ແຕ່	-204
▁ຫຼ	-205
▁ຖ	-206
▁ຂ້າ	-207
▁ນີ້	-208
ັ່ງ	-209
▁ເຂົາ	-210
ໍ້	-211
ຶກ	-212
ບັນ	-213
ຜູ້	-214
▁"	-215
ic	-216
ຄົນ	-217
..	-218
▁D	-219
ຂົ້າ	-220
ຽງ	-221
ໍາລັບ	-222
st	-223
ວຍ	-224
ເຈົ້າ	-225
▁ເຊ	-226
ຽນ	-227
▁ຢູ່	-228
ຖິງ	-229
ເຄ	-230
ອດ	-231
ຕິ	-232
້ານ	-233
▁L	-234
▁3	-235
▁ແມ່ນ	-236
▁ເຮັດ	-237
ຊີ	-238
່ອນ	-239
ຕະ	-240
▁201	-241
ນີ້	-242
ຫັນ	-243
ເຮັດ	-244
▁R	-245
▁ນັ້ນ	-246
ທາງ	-247
ີກ	-248
ທ່ານ	-249
ເກ	-250
ຶ້ນ	-251
▁ຈາກ	-252
▁F	-253
ຸນ	-254
le	-255
ing	-256
▁,	-257
ພາບ	-258
ro	-259
ຕໍ່	-260
▁H	-261
▁ມັນ	-262
ດ້ວຍ	-263
ື່ນ	-264
່ວນ	-265
▁ເວ	-266
ືອນ	-267
ໍານ	-268
ດີ	-269
▁ຫມ	-270
ac	-271
ໃຊ້	-272
▁ໃຈ	-273
it	-274
ຢ່າງ	-275
ະລິດ	-276
ຸມ	-277
ອາ	-278
ບບ	-279
▁ມາ	-280
ູກ	-281
ຕີ	-282
ໍລິ	-283
ົ້ນ	-284
ສາມາດ	-285
▁ກໍ	-286
▁ເມ	-287
ື້ນ	-288
ໃຈ	-289
້າຍ	-290
▁G	-291
▁ລະ	-292
▁ເພື່ອ	-293
▁E	-294
▁ຂ້າພະ	-295
ກະ	-296
▁ພະ	-297
ຮງ	-298
ິກ	-299
ເນ	-300
ລ້ວ	-301
▁ເຄ	-302
▁ໂດຍ	-303
ຫາ	-304
et	-305
ກັນ	-306
▁ລາວ	-307
ົ່ງ	-308
ວິດ	-309
ສະຫນ	-310
ຖານ	-311
ol	-312
ພວກເຮົາ	-313
ີ່ມ	-314
່າຍ	-315
ໂດຍ	-316
ຖະ	-317
ອອກ	-318
ເມ	-319
ເຂົາ	-320
ທະ	-321
ສຸດ	-322
ວັນ	-323
ເທດ	-324
om	-325
▁ເກ	-326
ພັນ	-327
ືນ	-328
ຍາ	-329
ວຽ	-330
ວກັບ	-331
el	-332
ລກ	-333
▁5	-334
ູບ	-335
▁4	-336
▁W	-337
as	-338
ເອ	-339
▁ຕໍ່	-340
▁ເຖິງ	-341
ມັນ	-342
ed	-343
ູງ	-344
ວດ	-345
▁ຮູ້	-346
▁ຄໍາ	-347
ຕ້ອງ	-348
ະນະ	-349
ປີ	-350
່ຽວກັບ	-351
ືອ	-352
▁ສໍາ	-353
້ມ	-354
ເດ	-355
ກິດ	-356
ທໍາ	-357
▁I	-358
ou	-359
ນັ້ນ	-360
ຜະລິດ	-361
ທິ	-362
ວິ	-363
▁N	-364
▁ເອ	-365
▁c	-366
ກ່າວ	-367
່ວຍ	-368
▁ສິ່ງ	-369
▁ອາ	-370
ຫນ້າ	-371
ຣະ	-372
ຂະ	-373
▁ຢ່າງ	-374
ເບ	-375
ຕັ້ງ	-376
ົ່າ	-377
▁ກັນ	-378
ິ່ນ	-379
ເຂົ້າ	-380
re	-381
▁ໃດ	-382
່ຽວ	-383
▁ເສ	-384
am	-385
▁ຮັບ	-386
້ໍາ	-387
ຫຼາຍ	-388
ບໍລິ	-389
ສໍາລັບ	-390
ພິ	-391
່ວມ	-392
ໄດ້ຮັບ	-393
il	-394
ແນ	-395
ົ່ວ	-396
ປະກ	-397
ຂໍ້	-398
▁ທາງ	-399
▁ເມື່ອ	-400
ດງ	-401
▁ຖືກ	-402
ຫານ	-403
▁ເດ	-404
ກໍາ	-405
▁ປີ	-406
ຫຍ່	-407
▁ຫນ້າ	-408
ຕົວ	-409
ot	-410
▁ຫນຶ່ງ	-411
ຫດ	-412
ວງ	-413
ເພື່ອ	-414
ຫະ	-415
ີຍ	-416
ມືອງ	-417
ທີ່ມີ	-418
ຸ່ມ	-419
▁ບັນ	-420
▁p	-421
ນະ	-422
▁t	-423
▁s	-424
ັ່ນ	-425
ບັດ	-426
ລົງ	-427
ປະເທດ	-428
ະນາ	-429
▁ຂຶ້ນ	-430
ພາະ	-431
ແບບ	-432
້ອນ	-433
ການສ	-434
ອຍ	-435
ສັດ	-436
id	-437
ຊາ	-438
▁ແລ້ວ	-439
ທັງ	-440
ຍັງ	-441
ຮູ້	-442
ຜົນ	-443
ທີ່ຈະ	-444
▁ຫລາຍ	-445
ຕາ	-446
▁ວິ	-447
."	-448
is	-449
ໄລ	-450
ຕາມ	-451
ລັດ	-452
▁ເທ	-453
▁ນໍາ	-454
ລາວ	-455
ter	-456
▁ຊີ	-457
ດາ	-458
▁ດ້ວຍ	-459
▁ຕົວ	-460
▁ແນ	-461
ແຕ່	-462
ສ່ວນ	-463
ແດງ	-464
້ອມ	-465
ad	-466
▁6	-467
ເຫັນ	-468
▁ຕາມ	-469
ໃນການ	-470
▁V	-471
ion	-472
▁ເຄື່ອງ	-473
▁ດີ	-474
ີ່	-475
▁ເບ	-476
ເວລາ	-477
▁ພຣະ	-478
▁ສໍາລັບ	-479
ື່ອນ	-480
▁ກະ	-481
ສູງ	-482
ສໍາ	-483
▁U	-484
▁ຕ້ອງ	-485
▁ທໍາ	-486
ເຕ	-487
▁ລູກ	-488
ອມ	-489
ເງ	-490
▁ເຂົ້າ	-491
ດນ	-492
ມູນ	-493
ແກ	-494
oo	-495
ch	-496
▁O	-497
ur	-498
ສ້າງ	-499
ືອກ	-500
ຮ່ວມ	-501
ກໍ່	-502
▁ໃຊ້	-503
▁m	-504
ວ້	-505
ສິ່ງ	-506
ອົງ	-507
ຊົນ	-508
...	-509
ຫມາຍ	-510
▁ທັງ	-511
▁ເຫັນ	-512
ນໍາ	-513
ຫລາຍ	-514
ກ່ຽວກັບ	-515
ag	-516
ສານ	-517
່ຽນ	-518
ແຂ	-519
ຈັດ	-520
▁ຖ້າ	-521
▁b	-522
ມະ	-523
ຫ່ງ	-524
▁8	-525
▁K	-526
ລາຍ	-527
ສຶກ	-528
▁ທຸກ	-529
▁J	-530
ື້	-531
ເຂ	-532
ຫມ່	-533
ໍາລັງ	-534
ວມ	-535
ຂຶ້ນ	-536
ຄໍາ	-537
ສິດ	-538
he	-539
ໃດ	-540
ນາ	-541
▁ຫຼື	-542
ເປ	-543
ວ່າງ	-544
ອິດ	-545
ເພດ	-546
ມ່	-547
ຫວ	-548
ັດທ	-549
ອື່ນ	-550
ຂ້າ	-551
ສ່	-552
000	-553
▁ຫາ	-554
ໃຫຍ່	-555
▁7	-556
ເຄື່ອງ	-557
ຕ່າງ	-558
ເຈ	-559
▁ພາ	-560
ດ້ານ	-561
▁ຟ	-562
ang	-563
ໂຄ	-564
ig	-565
ສອງ	-566
ຕະພັນ	-567
▁_	-568
▁ອອກ	-569
▁“	-570
ຂ້ອຍ	-571
່ອງ	-572
▁ຄື	-573
່ອຍ	-574
▁ສາ	-575
ຄິດ	-576
▁ສຸດ	-577
ຜ່ານ	-578
ຽມ	-579
ເສດ	-580
ກາ	-581
ຄື	-582
ພວກເຂົາ	-583
▁ນາງ	-584
ຽວ	-585
ຈໍາ	-586
and	-587
ເຕີ	-588
ວຽກ	-589
ສົ່ງ	-590
ຄ້າ	-591
ຸ່ນ	-592
ຫນຶ່ງ	-593
ຈັກ	-594
ຢູ່ໃນ	-595
ທີ່ສຸດ	-596
ຫນາດ	-597
▁ຫຼາຍ	-598
ສົມ	-599
▁ອາດ	-600
ຊາດ	-601
▁ສາມາດ	-602
mm	-603
us	-604
ເຖິງ	-605
ໂນ	-606
▁ເລື່ອງ	-607
ແຕ	-608
ຮູບ	-609
▁ເຊິ່ງ	-610
ເກີດ	-611
▁ລາ	-612
ສິນ	-613
▁ບາງ	-614
▁ເພາະ	-615
ບານ	-616
ມານ	-617
▁10	-618
ປະຕິ	-619
ct	-620
▁d	-621
ິວ	-622
ໂລກ	-623
ການປ	-624
ດັບ	-625
ow	-626
ເຫຼ	-627
ດນາມ	-628
ຊີວິດ	-629
ກົດ	-630
ວຽດນາມ	-631
ess	-632
▁ແຜ	-633
ໍານວນ	-634
ຫວ່າງ	-635
ໄຟ	-636
ສາດ	-637
ເມືອງ	-638
ent	-639
▁...	-640
ັງຈາກ	-641
ລະບ	-642
com	-643
20	-644
▁9	-645
▁ເບິ່ງ	-646
▁ກໍາ	-647
▁ເພິ່ນ	-648
ack	-649
▁ຫລື	-650
ຊຸມ	-651
▁ເກີດ	-652
ຄະ	-653
▁$	-654
ື້ອ	-655
▁ວັນ	-656
▁ກ່າວ	-657
ir	-658
▁ອີກ	-659
ຽກ	-660
▁ຮັກ	-661
ໂລ	-662
▁200	-663
▁ດັ່ງ	-664
▁ຍັງ	-665
▁ຂະ	-666
ທຸກ	-667
▁ເອົາ	-668
ເຮັດໃຫ້	-669
▁20	-670
un	-671
▁ທີ	-672
ຄັນ	-673
▁ສ່ວນ	-674
ຕົ້ນ	-675
ຫມົດ	-676
ລີ	-677
▁ຊີວິດ	-678
ຕິດ	-679
ຄາ	-680
▁ແທ	-681
ຕອນ	-682
ອາດ	-683
ເສຍ	-684
ທິດ	-685
▁0	-686
▁f	-687
ຂໍ້ມູນ	-688
ຮຽນ	-689
ເງິນ	-690
▁ຂ້າພະເຈົ້າ	-691
ແທ	-692
ແປ	-693
າະ	-694
▁19	-695
ຍະ	-696
▁ຝ	-697
ຕ້	-698
▁ອັນ	-699
ຽບ	-700
ຂື້ນ	-701
▁St	-702
▁ລັບ	-703
ທານ	-704
ທລະ	-705
ູດ	-706
▁ຂໍ້	-707
▁ພວກເຮົາ	-708
ລັດຖະ	-709
▁ຂ້ອຍ	-710
um	-711
▁ແກ	-712
▁ເວົ້າ	-713
▁h	-714
ຊ່ວຍ	-715
ul	-716
ທະຍາ	-717
▁ຈໍາ	-718
▁ແນວ	-719
ri	-720
ສະແດງ	-721
ດັ່ງ	-722
op	-723
ຂອງທ່ານ	-724
▁ນັກ	-725
▁ເວລາ	-726
ອບຄ	-727
ດິນ	-728
ຂອງພວກເຮົາ	-729
ສະເ	-730
ra	-731
▁ຕອນ	-732
ine	-733
ເຫດ	-734
າກາດ	-735
os	-736
▁ເຕ	-737
ນ້ໍາ	-738
ສາຫະ	-739
ລົດ	-740
ແຮງ	-741
▁ງ	-742
ທໍາອິດ	-743
ພະຍ	-744
ສັບ	-745
50	-746
ຂອງການ	-747
ັດທະນາ	-748
າລະ	-749
▁ເຫດ	-750
ພື້ນ	-751
ຄ່າ	-752
ຈຸ	-753
▁ຄິດ	-754
▁ອື່ນ	-755
ງການ	-756
ຄວ	-757
▁ເຫລ	-758
ອື່ນໆ	-759
▁ໂລກ	-760
ແຜ	-761
▁ໄວ້	-762
▁ແບບ	-763
▁ກ່ຽວ	-764
▁ເອງ	-765
ຄັ້ງ	-766
ພາກ	-767
ກວ່າ	-768
ສັນ	-769
▁ເດືອນ	-770
ນ້ອຍ	-771
ong	-772
ຮັກ	-773
ເຂດ	-774
ໄວ	-775
ື່ງ	-776
▁.	-777
ົ່ານ	-778
▁ງານ	-779
▁ອົງ	-780
ນັກ	-781
ut	-782
of	-783
▁*	-784
ເພີ່ມ	-785
ay	-786
▁ອີ	-787
ເລືອກ	-788
▁ຈິງ	-789
▁ແມ່	-790
ໄຂ	-791
▁w	-792
ສະຫ	-793
ຕ້ອງການ	-794
lo	-795
ຄົມ	-796
ິ້ນ	-797
▁2018	-798
ແລ	-799
ມີຄວາມ	-800
ບາຍ	-801
ມ້	-802
ຂ້າພະ	-803
ab	-804
ອບຄົວ	-805
ໄຊ	-806
ພຽງ	-807
ັມ	-808
ໃສ່	-809
ໂຕ	-810
ເຊື່ອ	-811
ແລ້ວ	-812
▁ຮູບ	-813
ຽດ	-814
▁Ch	-815
ິບ	-816
▁ລາຍ	-817
ສີ	-818
ປະກອນ	-819
ຄົ້ນ	-820
ໄພ	-821
▁&	-822
ve	-823
▁X	-824
ຍິງ	-825
ຸປະກອນ	-826
ໃຫມ່	-827
ຸງ	-828
ຕັດ	-829
ມັດ	-830
ະລັດ	-831
▁ລັດ	-832
ia	-833
▁ພິ	-834
▁ອະ	-835
ຊາຍ	-836
ອີກ	-837
າຍາມ	-838
▁–	-839
ປະຕິບັດ	-840
ີມ	-841
ສົບ	-842
ທົ່ວ	-843
ບັນດາ	-844
pp	-845
▁ຊຶ່ງ	-846
▁ຫມາຍ	-847
ວາງ	-848
ໍາເນ	-849
ມີການ	-850
em	-851
ers	-852
▁ຫມົດ	-853
ກອງ	-854
ຟ້າ	-855
▁ຊາຍ	-856
ອາກາດ	-857
ທັງຫມົດ	-858
▁ຈີນ	-859
ກໍາລັງ	-860
-1	-861
▁Sh	-862
▁+	-863
ຂ້າພະເຈົ້າ	-864
ໍາເນີນ	-865
▁ສ້າງ	-866
▁ຫວຽດນາມ	-867
▁12	-868
ລູກ	-869
ເອົາ	-870
▁ດາວ	-871
ເຮັດວຽກ	-872
ປະຊາ	-873
▁ຮູ້ສຶກ	-874
th	-875
▁ຕາ	-876
▁ພໍ່	-877
ທລະສັບ	-878
າຍຸ	-879
▁In	-880
▁ລົງ	-881
▁ຊື່	-882
ຂ່າວ	-883
ອັນ	-884
ສະຖານ	-885
ບິນ	-886
▁ແຜ່ນ	-887
ແຫ່ງ	-888
ຜິດ	-889
▁ເນ	-890
ໂອ	-891
ຫລດ	-892
▁ຜົນ	-893
ະລັງ	-894
▁ເມືອງ	-895
ຜະລິດຕະພັນ	-896
ເວົ້າ	-897
▁15	-898
ດັ່ງກ່າວ	-899
ທົບ	-900
▁ພັນ	-901
ຫນີ	-902
▁ເປ	-903
ໂມ	-904
ແຂ່ງ	-905
ເບິ່ງ	-906
ບໍລິສັດ	-907
▁ສາດ	-908
ກາຍ	-909
ລະກິດ	-910
ນໍາໃຊ້	-911
ສື	-912
ຶນ	-913
່ວງ	-914
ຫັດ	-915
▁ນະ	-916
▁ຕ່າງ	-917
▁Co	-918
ສຽງ	-919
ໄດ້ຮັບການ	-920
▁g	-921
▁ຕົນ	-922
▁ຈຶ່ງ	-923
qu	-924
ຈິງ	-925
ບໍລິການ	-926
ກໍ	-927
▁ຊາວ	-928
▁ວຽກ	-929
ຊິກ	-930
ust	-931
▁ທະ	-932
ຮ້ອງ	-933
ສາມ	-934
ພັດທະນາ	-935
im	-936
ບາງ	-937
ພົບ	-938
ເດືອນ	-939
pe	-940
ໂຮງ	-941
▁ພະຍ	-942
ຊື່	-943
▁11	-944
ck	-945
ຈໍານວນ	-946
ເລີ່ມ	-947
ກາງ	-948
▁ຂໍ	-949
▁ຄຸນ	-950
▁ເຈ	-951
▁ໄຟ	-952
▁ວິທີ	-953
ຄືນ	-954
ພິມ	-955
ວັດ	-956
▁ຫົວ	-957
▁ນ້ອຍ	-958
▁ກວ່າ	-959
ແລະການ	-960
▁ຕິດ	-961
▁ບໍລິ	-962
ພາຍ	-963
▁ບໍ	-964
▁ແຫ່ງ	-965
ໂຫລດ	-966
ກ້	-967
ນີ	-968
▁Y	-969
ຸດສາຫະ	-970
▁ແຕ	-971
▁ສີ	-972
ຫຼື	-973
ຄຸນ	-974
▁ຕັ້ງ	-975
ຂັນ	-976
▁ໂຄ	-977
▁ມື	-978
ມົນ	-979
▁ຕະ	-980
est	-981
▁ບ່ອນ	-982
▁ແທ້	-983
▁ກ່ອນ	-984
▁l	-985
▁>	-986
ລະຫວ່າງ	-987
ຸ້ນ	-988
ທີ່ບໍ່	-989
igh	-990
ແປງ	-991
▁ນ້ໍາ	-992
ໄດ້ຖືກ	-993
ະນໍາ	-994
ປະກອບ	-995
ສັງ	-996
▁ສອງ	-997
▁Z	-998
ໄສ	-999
.0	-1000
▁ເງ	-1001
ປ່ຽນ	-1002
ian	-1003
ໍ້າ	-1004
▁ໃຫຍ່	-1005
▁ພຽງ	-1006
ທຸ	-1007
one	-1008
▁ມາດ	-1009
ືອບ	-1010
ຶດ	-1011
ີ້ນ	-1012
ຄາດ	-1013
ທຶນ	-1014
ພັກ	-1015
ric	-1016
ດໍາເນີນ	-1017
ກ່າວວ່າ	-1018
ເລື່ອງ	-1019
ທົດ	-1020
ມາຊິກ	-1021
ນ໌	-1022
ັບສະຫນ	-1023
▁ກ່ຽວກັບ	-1024
eb	-1025
ast	-1026
▁ເຊື່ອ	-1027
ຂະຫນາດ	-1028
ະນຸດ	-1029
▁ເສຍ	-1030
▁ຈັກ	-1031
▁ປະເພດ	-1032
ຂອງລາວ	-1033
ຣີ	-1034
ເມື່ອ	-1035
▁ເຊັ່ນ	-1036
ເອງ	-1037
▁in	-1038
ສະພາ	-1039
ສະຫນາ	-1040
ຄຸມ	-1041
▁ຜະລິດ	-1042
ອີ	-1043
201	-1044
att	-1045
ເມລິ	-1046
ໄລຍະ	-1047
.1	-1048
▁ເຂ	-1049
ຕົກ	-1050
▁ມະ	-1051
ແຂ່ງຂັນ	-1052
▁ຊ່ວຍ	-1053
ຸດສາຫະກໍາ	-1054
ສະຫນອງ	-1055
▁ວິນ	-1056
ຜ່ານມາ	-1057
▁'	-1058
ປົກ	-1059
▁ສະຫ	-1060
ip	-1061
ສົງ	-1062
od	-1063
ລະບົບ	-1064
art	-1065
▁ໂຮງ	-1066
▁ສັນ	-1067
▁ຄອບຄົວ	-1068
ຕໍາ	-1069
ກ່ອນ	-1070
ຈຸບັນ	-1071
ທີ່ດີ	-1072
ໂທ	-1073
ສົນ	-1074
ark	-1075
ັບໄຊ	-1076
▁ຜິດ	-1077
ver	-1078
ຂາຍ	-1079
ວິທີ	-1080
ຄອນ	-1081
▁ຂະຫນາດ	-1082
▁ລິ	-1083
ສອບ	-1084
ສາຍ	-1085
▁ນາ	-1086
ຫົວ	-1087
ປະຊຸມ	-1088
ູມ	-1089
ໃຕ້	-1090
▁ມື້	-1091
▁ແຂ	-1092
ation	-1093
ຮັກສາ	-1094
ຄອງ	-1095
ain	-1096
if	-1097
ໂດ	-1098
ລວມ	-1099
▁ຮຽນ	-1100
▁ກົດ	-1101
ທຸລະກິດ	-1102
ສຸກ	-1103
ard	-1104
30	-1105
▁ບັດ	-1106
▁ສົມ	-1107
▁ຄວນ	-1108
ັກງານ	-1109
ຸ້ມ	-1110
ລາຍງານ	-1111
ຊາວ	-1112
ະລັງງານ	-1113
▁ຕິ	-1114
ຶກສາ	-1115
▁ຫຍັງ	-1116
ສໍາຄັນ	-1117
ate	-1118
ເມລິກາ	-1119
ເວັນ	-1120
ສິ່ງທີ່	-1121
ເກັບ	-1122
▁ຜ່ານ	-1123
▁ໄລ	-1124
ap	-1125
້າວ	-1126
ລະດັບ	-1127
ight	-1128
▁ປົກ	-1129
ບົດ	-1130
ໄວ້	-1131
ຈ້ງ	-1132
ໂຍ	-1133
▁ໃຫມ່	-1134
ak	-1135
ie	-1136
,000	-1137
▁2017	-1138
ັກນ້ອຍ	-1139
ຖາມ	-1140
ub	-1141
▁2019	-1142
ລັກ	-1143
▁ປະເທດ	-1144
ຕົນ	-1145
ບໍ່ໄດ້	-1146
▁ແກ່	-1147
).	-1148
ib	-1149
ເລັດ	-1150
▁ກໍາລັງ	-1151
▁100	-1152
ເຫລ	-1153
▁An	-1154
▁18	-1155
▁ນອກ	-1156
ຕອບ	-1157
▁ບັງ	-1158
ສິດທິ	-1159
iz	-1160
ຂີ້	-1161
▁ຊົ່ວ	-1162
co	-1163
ເຜ	-1164
່ຽງ	-1165
ສໍາລັບການ	-1166
ແຫນ	-1167
ເປີດ	-1168
▁ລັງ	-1169
ຄານ	-1170
ຢາ	-1171
▁ໂທລະສັບ	-1172
▁30	-1173
ຫຍດ	-1174
▁ກອງ	-1175
.5	-1176
ບຄຸມ	-1177
▁ສັດ	-1178
ເຊັ່ນ	-1179
▁ບ້ານ	-1180
▁ອິດ	-1181
ເຂົາເຈົ້າ	-1182
ex	-1183
ນິ	-1184
▁ຍານ	-1185
ແນນ	-1186
ຢືນ	-1187
▁ຈົ່ງ	-1188
ອະ	-1189
ist	-1190
ly	-1191
▁Pro	-1192
▁16	-1193
ce	-1194
ຫນັກ	-1195
ສະຫະລັດ	-1196
▁:	-1197
▁US	-1198
▁ຜະລິດຕະພັນ	-1199
▁Q	-1200
▁ແປ	-1201
▁ຈົນ	-1202
ວາ	-1203
▁ຖະ	-1204
ວັນທີ	-1205
ສູນ	-1206
ຸຍ	-1207
ປະມານ	-1208
▁ພາບ	-1209
▁ເຫຼ	-1210
▁n	-1211
ື່ມ	-1212
ຫນ້າທີ່	-1213
ຫຍັງ	-1214
10	-1215
og	-1216
ົາມ	-1217
▁ເທົ່າ	-1218
▁ຮ່ວມ	-1219
▁ເທື່ອ	-1220
ສະນະ	-1221
▁ສາຍ	-1222
້ຽງ	-1223
▁ພ້ອມ	-1224
▁ຈັດ	-1225
ພຽງແຕ່	-1226
▁ເລີ່ມ	-1227
ບໍ່ມີ	-1228
ເອກ	-1229
▁ສອນ	-1230
▁ປ່ຽນ	-1231
ອັດ	-1232
ແທນ	-1233
ລັດຖະບານ	-1234
ແນວ	-1235
ແລນ	-1236
▁ເຫດການ	-1237
ແກ້	-1238
ຝຸ່ນ	-1239
▁ຢາກ	-1240
ຖະກິດ	-1241
ກຸ່ມ	-1242
້ອງກັນ	-1243
ສະຫມ	-1244
.2	-1245
ity	-1246
▁ຣ	-1247
ັບສະຫນູນ	-1248
ວ່າຈະ	-1249
ປະຊາຊົນ	-1250
ກ່ຽວ	-1251
▁ຂ່າວ	-1252
eng	-1253
▁ສົ່ງ	-1254
▁ນ້ອງ	-1255
ປອດ	-1256
ອາຫານ	-1257
້ຽມ	-1258
▁ລົດ	-1259
ຈຸດ	-1260
ທະຍາໄລ	-1261
ສງ	-1262
ບໍ	-1263
ວກັນ	-1264
ress	-1265
ອກາດ	-1266
ຫາກ	-1267
▁st	-1268
▁ດຽວ	-1269
ໂຄງການ	-1270
ັ້ມ	-1271
pt	-1272
▁24	-1273
ມົນຕີ	-1274
ຍົກ	-1275
lu	-1276
▁ວິດ	-1277
ກຕ່າງ	-1278
▁ສູງ	-1279
ົ່ານີ້	-1280
▁ສະແດງ	-1281
ກອນ	-1282
▁ພາຍ	-1283
▁25	-1284
າບ	-1285
▁ຕັດ	-1286
▁ບົດ	-1287
ຕູ	-1288
ບາດ	-1289
ຈ່າຍ	-1290
▁ນັບ	-1291
▁ຕ່າງໆ	-1292
ກວດ	-1293
▁ລວມ	-1294
▁ເງິນ	-1295
ານາ	-1296
ໂຫຍດ	-1297
▁ພາກ	-1298
▁ສາມ	-1299
ຫ້ອງ	-1300
ທັບ	-1301
ຄວບຄຸມ	-1302
ry	-1303
ປະເພດ	-1304
ໂນໂລ	-1305
▁ຄືນ	-1306
▁ເລືອກ	-1307
ແຍ	-1308
▁ຕາຍ	-1309
ill	-1310
▁ຫວ	-1311
▁ບັນດາ	-1312
ອຽດ	-1313
ເຄື່ອນ	-1314
ແພ	-1315
▁ກໍ່	-1316
ຽວກັນ	-1317
▁13	-1318
ກົດຫມາຍ	-1319
▁ທີ່ຢູ່	-1320
ຈີນ	-1321
ຕ່າງໆ	-1322
ັກໂນໂລ	-1323
ປະທານ	-1324
▁ແຜ່ນດິນ	-1325
ຮ້າຍ	-1326
ບ່ອນ	-1327
ລອງ	-1328
▁v	-1329
ຂໍ	-1330
▁ປະກ	-1331
▁ລ້ານ	-1332
ສາກ	-1333
▁ນິ	-1334
ໃນປີ	-1335
ຂະສິດ	-1336
ທີມ	-1337
ກັດ	-1338
່ວາ	-1339
ປອດໄພ	-1340
ເຊຍ	-1341
▁14	-1342
ອາເມລິກາ	-1343
ແມ່	-1344
av	-1345
ຍານ	-1346
ໍານົດ	-1347
ຄວນ	-1348
ອອກແບບ	-1349
▁ພະອົງ	-1350
oft	-1351
td	-1352
ຖ້າ	-1353
ພຣະ	-1354
▁ຮ້າຍ	-1355
se	-1356
▁ເພີ່ມ	-1357
ບຸກ	-1358
ຫຍາຍ	-1359
ant	-1360
▁ໃສ່	-1361
ລ໌	-1362
ຍາກ	-1363
ຈາລະ	-1364
ຫຼາດ	-1365
▁ຈໍານວນ	-1366
ອົບ	-1367
▁ຫ້ອງ	-1368
ort	-1369
▁50	-1370
▁ສໍາຄັນ	-1371
▁ປະຕິ	-1372
ພະຍາຍາມ	-1373
ind	-1374
ຕະລ	-1375
ທັນ	-1376
ຊະນະ	-1377
ຫນືອ	-1378
ອຸປະກອນ	-1379
ອັງ	-1380
ເຂົ້າຮ່ວມ	-1381
▁ຫາກ	-1382
ຂ້ອງ	-1383
ເບີດ	-1384
ເຊື່ອມ	-1385
▁ເສັ້ນ	-1386
▁ບອກ	-1387
86	-1388
XL	-1389
ທ້າຍ	-1390
▁17	-1391
ື້ອຍ	-1392
ຄະແນນ	-1393
ເສຍຊີວິດ	-1394
all	-1395
ທີ່ເປັນ	-1396
ເສດຖະກິດ	-1397
ັບປ	-1398
▁ຕົ້ນ	-1399
ອະນ	-1400
ide	-1401
-2	-1402
ຄົງ	-1403
ກະຕິ	-1404
ຸຍາດ	-1405
ies	-1406
ສະເຫນີ	-1407
▁ພຣະອົງ	-1408
attoo	-1409
ປະສົບ	-1410
ິລາ	-1411
ໂກ	-1412
ph	-1413
▁[	-1414
ບ່ງ	-1415
ົ່ມ	-1416
ຂະນະ	-1417
.”	-1418
ູ້ນ	-1419
ຊອບ	-1420
ນະພາບ	-1421
ີບ	-1422
ບັບ	-1423
▁ຍາ	-1424
ຕ້ານ	-1425
ມື້ນ	-1426
ລະອຽດ	-1427
▁ດັ່ງນັ້ນ	-1428
80	-1429
ສູ່	-1430
▁ເຮືອນ	-1431
ປາ	-1432
ໂປ	-1433
ບັນຫາ	-1434
ະນັກງານ	-1435
▁ລະບ	-1436
▁ທັນ	-1437
▁ແຮງ	-1438
ເວລາທີ່	-1439
▁ເພື່ອນ	-1440
▁ເຄີຍ	-1441
▁ຈຸດ	-1442
ເວັບໄຊ	-1443
ົ່ານັ້ນ	-1444
ຈາກການ	-1445
11	-1446
▁ກາຍ	-1447
ຕັດສິນ	-1448
▁ຄັ້ງ	-1449
▁ຕອບ	-1450
sh	-1451
ກະທົບ	-1452
▁Ltd	-1453
60	-1454
ob	-1455
ຊະ	-1456
ment	-1457
zh	-1458
ແກ່	-1459
ແກ້ໄຂ	-1460
ທີ່ຖືກ	-1461
▁ບໍລິສັດ	-1462
▁ພົບ	-1463
ທາງການ	-1464
▁ຫນ້າທໍາອິດ	-1465
),	-1466
▁ໂມ	-1467
▁ກຸ່ມ	-1468
▁ຊ່ອຍ	-1469
ທະຍາສາດ	-1470
ກ່ຽວຂ້ອງ	-1471
ໂຈ	-1472
rin	-1473
▁ພວກເຂົາ	-1474
ຮ້ອນ	-1475
te	-1476
ກວ	-1477
ດູ	-1478
ພາຍໃນ	-1479
ອິນ	-1480
ຸນາ	-1481
ແຜນ	-1482
ຫມາະ	-1483
▁ແລ	-1484
ສະດ	-1485
ຫນາ	-1486
▁ໄວ	-1487
▁ຫນຸ່ມ	-1488
ລົມ	-1489
ໄຟຟ້າ	-1490
ແຕກຕ່າງ	-1491
ຫາຍ	-1492
ຫວຽດນາມ	-1493
99	-1494
້ອງຖ	-1495
ໍານາດ	-1496
▁ກິດ	-1497
▁ຄ່າ	-1498
▁ຍົກ	-1499
▁ລັດຖະ	-1500
ອິ	-1501
ຕາລີ	-1502
ຊວງ	-1503
ໄຫວ	-1504
▁ສັງ	-1505
ຈາລະນາ	-1506
ໂຣ	-1507
ຊານ	-1508
ທຶກ	-1509
ຢັນ	-1510
ຄວ້າ	-1511
ຶງ	-1512
age	-1513
ອາດຈະ	-1514
are	-1515
ຄະນະ	-1516
່ນອນ	-1517
▁ດົນ	-1518
▁ໃນການ	-1519
per	-1520
ພາດ	-1521
ກ່ວາ	-1522
ົາມີ	-1523
▁and	-1524
▁ຊອບ	-1525
▁#	-1526
ດຽວກັນ	-1527
▁ອຸປະກອນ	-1528
ai	-1529
ຣາ	-1530
ປັດ	-1531
▁ສົນ	-1532
ພະລັງງານ	-1533
ດັນ	-1534
▁Re	-1535
ແຈ້ງ	-1536
▁ສານ	-1537
ກັບການ	-1538
ມື້ນີ້	-1539
▁ພະຍາຍາມ	-1540
ອຸດສາຫະກໍາ	-1541
act	-1542
ell	-1543
lect	-1544
ພູມ	-1545
▁(1	-1546
ສາກົນ	-1547
ອາທິດ	-1548
ລາຄາ	-1549
ach	-1550
▁ຍິນ	-1551
ນາງ	-1552
ຮອງ	-1553
ໃຫ້ເຫັນ	-1554
ເລກ	-1555
▁ໂຕ	-1556
ຮ່າງ	-1557
ຂະຫຍາຍ	-1558
ລົງທຶນ	-1559
ຫນົນ	-1560
າວິ	-1561
ຊື້	-1562
ໄມ້	-1563
ສະພາບ	-1564
40	-1565
ສິ	-1566
ຕັນ	-1567
ຸ້ງ	-1568
ມາດ	-1569
ບ້ານ	-1570
ຂອງພວກເຂົາ	-1571
▁ເປີດ	-1572
▁ປະທານ	-1573
ເຟ	-1574
▁ສິດ	-1575
ເສັ້ນ	-1576
ຊີບ	-1577
ແນະນໍາ	-1578
▁ຫຼັງຈາກ	-1579
ມັກ	-1580
ແທ້	-1581
▁ຖານ	-1582
ົ້ມ	-1583
ອາຍຸ	-1584
▁ຖື	-1585
ຫວັດ	-1586
▁ຟັງ	-1587
▁ອີເມ	-1588
iv	-1589
▁ໂທ	-1590
ຫນັງ	-1591
▁ເນື່ອງ	-1592
▁ສຽງ	-1593
bo	-1594
ບູນ	-1595
ຮມ	-1596
▁ຍິງ	-1597
▁ທົ່ວ	-1598
ຫຼວດ	-1599
▁ສິນ	-1600
▁ຫນາ	-1601
ຫນ້ອຍ	-1602
ຮູ້ສຶກ	-1603
ສອນ	-1604
▁Al	-1605
ມື້	-1606
ໍາລາຍ	-1607
▁£	-1608
▁ສະຫນ	-1609
ຄົ້ນຄວ້າ	-1610
▁r	-1611
ສໍາເລັດ	-1612
ord	-1613
ເກດ	-1614
ປະກາດ	-1615
▁En	-1616
ແຄ	-1617
ຈັນ	-1618
ish	-1619
ຖົງ	-1620
ປົວ	-1621
ແຂງ	-1622
▁ເລີຍ	-1623
▁No	-1624
▁ນີ	-1625
ເຫຼືອ	-1626
ນ໌ໂຫລດ	-1627
ຮ່ວມມື	-1628
ຂະນະທີ່	-1629
45	-1630
ບອກ	-1631
ຫມີ	-1632
ໂຍບາຍ	-1633
ຂັ້ນ	-1634
ເຈັບ	-1635
▁ສາດສະຫນາ	-1636
oh	-1637
▁2016	-1638
ລັດຖະມົນຕີ	-1639
ລູກຄ້າ	-1640
ຊອກ	-1641
▁ປາ	-1642
ຂ້າງ	-1643
ຫມັ້ນ	-1644
ສະເພາະ	-1645
uro	-1646
▁ໄດ້ຮັບ	-1647
ive	-1648
ຄູ່	-1649
▁ອາທິດ	-1650
="	-1651
ຸ່ງ	-1652
ຄຸນນະພາບ	-1653
ທ໌	-1654
▁21	-1655
ີໂອ	-1656
▁ຊາ	-1657
ຕໍ່ໄປ	-1658
າງວັນ	-1659
▁ສະພາບ	-1660
ass	-1661
ne	-1662
ash	-1663
ໄຫມ	-1664
▁ໄມ້	-1665
ໃກ້	-1666
ແຕ່ງ	-1667
ໂມງ	-1668
▁ແຕ່ງ	-1669
ອັງກິດ	-1670
ກໍາມະ	-1671
ປະກັນ	-1672
ສະຫນັບສະຫນູນ	-1673
ທະນາ	-1674
▁ຫລັງ	-1675
ລະເບີດ	-1676
ີນທາງ	-1677
ການຄ້າ	-1678
▁ສຸກ	-1679
▁ຕົກ	-1680
25	-1681
້ຍ	-1682
ເຕີມ	-1683
▁ມັກ	-1684
ພື້ນຖານ	-1685
ວະ	-1686
▁k	-1687
ສະຫມັກ	-1688
ະນັ້ນ	-1689
ວິທີການ	-1690
▁ດາວນ໌ໂຫລດ	-1691
ເຣ	-1692
ໃບ	-1693
ເສີມ	-1694
ທົ່ວໄປ	-1695
old	-1696
ປ້ອງກັນ	-1697
ຂຽນ	-1698
ເລືອກຕັ້ງ	-1699
ຈັດຕັ້ງ	-1700
▁40	-1701
ຕາເວັນ	-1702
▁ອື່ນໆ	-1703
oun	-1704
ຕອງ	-1705
▁ມະນຸດ	-1706
້ອງຖິ່ນ	-1707
ສະມາຊິກ	-1708
▁ເກມ	-1709
▁ລາຄາ	-1710
ວ່າການ	-1711
ືດ	-1712
ງົບ	-1713
ew	-1714
ສວນ	-1715
▁ໂລ	-1716
ເປັນການ	-1717
ກ່ຽວກັບການ	-1718
ທີ່ທ່ານ	-1719
ງານຜະລິດ	-1720
.3	-1721
▁ລໍາ	-1722
ຕະຖານ	-1723
ເຫດການ	-1724
ເກີດຂື້ນ	-1725
▁Pl	-1726
ກໍານົດ	-1727
ປະໂຫຍດ	-1728
ino	-1729
ook	-1730
ບວນ	-1731
▁ລະບົບ	-1732
▁ຄູ່	-1733
ສັນຍາ	-1734
▁ເຮັດໃຫ້	-1735
ເພາະ	-1736
ູ້ນໍາ	-1737
▁ຄາ	-1738
ທະຫານ	-1739
ິ່ນປົວ	-1740
ການປ່ຽນ	-1741
ໂອກາດ	-1742
▁ຍ້ອນ	-1743
ຫຼັງຈາກ	-1744
ເຮືອ	-1745
ຄວາມຄິດ	-1746
ຮ່	-1747
▁ພັກ	-1748
▁ວັດ	-1749
ສະຖານທີ່	-1750
ເຮືອນ	-1751
ວ່າມັນ	-1752
▁ປະຕິບັດ	-1753
ງ່າຍ	-1754
oc	-1755
ran	-1756
▁ລະຫັດ	-1757
ຝຶກ	-1758
▁ຫນັງ	-1759
▁ຫມູ່	-1760
ຕະຫຼາດ	-1761
ທົດລອງ	-1762
ຫນື່ງ	-1763
▁ສະຖານ	-1764
້ານີ້	-1765
▁ເຕີ	-1766
ຍົມ	-1767
▁22	-1768
▁ຂະນະ	-1769
ເຄາະ	-1770
▁ຂຽນ	-1771
ບໍ່ສາມາດ	-1772
ເມີ	-1773
ໂຈມ	-1774
▁ສູນ	-1775
▁ພື້ນ	-1776
▁ສະມາຊິກ	-1777
ik	-1778
ຈັບ	-1779
▁ອິນ	-1780
ຂອງຜູ້	-1781
ກົງ	-1782
▁e	-1783
▁ຍອມ	-1784
ອອນ	-1785
ພໍ	-1786
▁ຊອກ	-1787
▁ປະກາດ	-1788
▁ສະນັ້ນ	-1789
▁Cas	-1790
ຮູບແບບ	-1791
ແຫຼ	-1792
ຕິດຕໍ່	-1793
▁ອີເມລ໌	-1794
ເວົ້າວ່າ	-1795
ທາລະ	-1796
ລ້ອມ	-1797
▁a	-1798
let	-1799
ດອນ	-1800
▁ທິ	-1801
ຢັ້ງ	-1802
ົດສະ	-1803
▁ເຕັມ	-1804
▁ເຂດ	-1805
▁ອະທິ	-1806
▁ອຸ	-1807
ັບປຸງ	-1808
ເຫນືອ	-1809
SO	-1810
ຢາກ	-1811
ືອງ	-1812
▁USD	-1813
▁ຊື່ງ	-1814
ກອງປະຊຸມ	-1815
ຫ້າ	-1816
ເອກະ	-1817
ເຮົາມີ	-1818
12	-1819
ມາຈາກ	-1820
▁ເຫລົ່າ	-1821
ຍາວ	-1822
ເກມ	-1823
▁Col	-1824
ເຫຼົ່ານີ້	-1825
ອຸ	-1826
ໍລະ	-1827
▁Su	-1828
▁re	-1829
ເຜີຍ	-1830
ພິເສດ	-1831
ເຊິ່ງ	-1832
ຂັບ	-1833
ສັງຄົມ	-1834
15	-1835
▁ປະສົບ	-1836
ຂີ້ຝຸ່ນ	-1837
ພື້ນທີ່	-1838
ອະນຸຍາດ	-1839
ເດຍ	-1840
▁ໂອ	-1841
ວິທະຍາສາດ	-1842
ຂົນ	-1843
ຫລາດ	-1844
ມະນຸດ	-1845
▁ເຈັບ	-1846
ຫວັງ	-1847
▁ຕໍາ	-1848
▁ອັດ	-1849
ອອກຈາກ	-1850
ຜົນກະທົບ	-1851
ພາສາ	-1852
▁Prin	-1853
▁ເດັກ	-1854
ໂຊ	-1855
▁ແຜນ	-1856
ile	-1857
▁Sp	-1858
▁Mark	-1859
ເລີ່ມຕົ້ນ	-1860
ພົນ	-1861
▁ໄພ	-1862
▁ແທນ	-1863
ction	-1864
▁ຄາດ	-1865
ail	-1866
ສະຫະ	-1867
ug	-1868
ຕໍ	-1869
ເທິງ	-1870
ຫຼັກ	-1871
▁ຜູ້ຄົນ	-1872
▁ຕົວຢ່າງ	-1873
▁ອາຍຸ	-1874
▁ນາຍ	-1875
▁ສົງ	-1876
ປົກກະຕິ	-1877
ແຫ່ງຊາດ	-1878
ud	-1879
▁ແດງ	-1880
-5	-1881
ພີ	-1882
ຮອບ	-1883
ການຜະລິດ	-1884
▁ຫວັງ	-1885
ລຸ	-1886
ite	-1887
ດານ	-1888
▁ໂສ	-1889
35	-1890
ຄະເນ	-1891
ຄວາມເປັນ	-1892
▁ຄະນະ	-1893
▁ອີງ	-1894
ເຄື່ອນໄຫວ	-1895
ໄລນ໌	-1896
ໃຊ້ເວລາ	-1897
ເຕັກໂນໂລ	-1898
ຄັບ	-1899
ທີ່ໄດ້	-1900
ຮູ້ວ່າ	-1901
ສູ້	-1902
▁ຄັນ	-1903
yl	-1904
ສັ່ງ	-1905
ສົນໃຈ	-1906
ອົງການ	-1907
ການສຶກສາ	-1908
ທ່ຽວ	-1909
ເຄີຍ	-1910
ຕົວຢ່າງ	-1911
ະນິດ	-1912
▁ຍີ່	-1913
ທ້ອງຖິ່ນ	-1914
ນາຍ	-1915
ອານາ	-1916
ff	-1917
ແສງ	-1918
▁j	-1919
▁©	-1920
ແວດ	-1921
ປະສິດທິ	-1922
ັສ	-1923
າກອນ	-1924
ຂອງຕົນ	-1925
▁ຕັດສິນ	-1926
ແຕກຕ່າງກັນ	-1927
ຢ້ຽມ	-1928
IN	-1929
ຊັ້ນ	-1930
ແຫນ່ງ	-1931
ສາຫະກິດ	-1932
ost	-1933
ກິລາ	-1934
dro	-1935
▁Fl	-1936
▁ຍາກ	-1937
ເນື່ອງ	-1938
ເປັນຜູ້	-1939
ina	-1940
▁ພີ	-1941
ຫລອດ	-1942
▁Man	-1943
▁ບັນຫາ	-1944
ຄວາມປອດໄພ	-1945
ຕ່າງປະເທດ	-1946
ແຜ່ນ	-1947
▁ເຫລືອ	-1948
▁ລິຂະສິດ	-1949
▁ງ່າຍ	-1950
ອາວ	-1951
ທີ່ຜ່ານມາ	-1952
ຂາ	-1953
▁of	-1954
ປະຈໍາ	-1955
ຜິດຊອບ	-1956
ei	-1957
▁ໃກ້	-1958
▁ຍິ່ງ	-1959
ແວດລ້ອມ	-1960
ທີ່ມີຄວາມ	-1961
ຢາມ	-1962
▁Cl	-1963
▁Ser	-1964
ຽກຮ້ອງ	-1965
ຂອບ	-1966
ທ່ອງ	-1967
ການປ່ຽນແປງ	-1968
ຄາມ	-1969
ພ້ອມ	-1970
75	-1971
ສືບ	-1972
▁60	-1973
▁ກາ	-1974
ຫລັບ	-1975
ໄປໃນ	-1976
▁ຮ່າງ	-1977
ກວ້າງ	-1978
end	-1979
▁Un	-1980
19	-1981
ຫລວດ	-1982
▁ມູນ	-1983
-0	-1984
ສຸ	-1985
▁ຮ້ອງ	-1986
ກໍ່ຕາມ	-1987
▁ນີ້ແມ່ນ	-1988
ເພີ່ມເຕີມ	-1989
▁»	-1990
▁Ar	-1991
ທິບໍ	-1992
▁ຜ້າ	-1993
.6	-1994
ຮົມ	-1995
ມະຊາດ	-1996
ຫລື	-1997
ຜ່ອນ	-1998
ຢັ້ງຢືນ	-1999
ick	-2000
ເລດ	-2001
ປ່ອຍ	-2002
▁ອ່ານ	-2003
▁y	-2004
▁ຢ້ານ	-2005
▁ລ້ຽງ	-2006
ຖືງ	-2007
ຫນ້ານີ້	-2008
her	-2009
ຄາດຄະເນ	-2010
▁ແຍ	-2011
▁The	-2012
ey	-2013
▁ສັນຍາ	-2014
ອັບ	-2015
▁by	-2016
▁ຝ່າຍ	-2017
ຊີ້	-2018
່ໍາ	-2019
▁Dust	-2020
ຄົນທີ່	-2021
ປັດຈຸບັນ	-2022
▁ຖາມ	-2023
▁ຫນັກ	-2024
▁ຕ້ອງການ	-2025
ຂາວ	-2026
ກັ່ນ	-2027
ບໍລິຫານ	-2028
ົດສະຕາລີ	-2029
ທີ່ດີທີ່ສຸດ	-2030
ໄກ	-2031
ລໍາ	-2032
....	-2033
▁ປະຊຸມ	-2034
cm	-2035
ຄອບຄົວ	-2036
our	-2037
ທົນ	-2038
▁Euro	-2039
ຮູບພາບ	-2040
ຈໍາເປັນ	-2041
ont	-2042
▁Te	-2043
▁ໄດ້ຖືກ	-2044
ນິກ	-2045
ລິກ	-2046
ສຶກສາ	-2047
ກໍ່ສ້າງ	-2048
▁ລາວໄດ້	-2049
▁ແລະອື່ນໆ	-2050
ືອດ	-2051
▁23	-2052
▁Hack	-2053
16	-2054
ລາດ	-2055
ຕາຍ	-2056
▁ປະຊາ	-2057
ວີ	-2058
200	-2059
ows	-2060
ດຽວ	-2061
▁ຊາດ	-2062
ຸນແຮງ	-2063
ທົ່ວໂລກ	-2064
▁ສິງ	-2065
່ຽວຊານ	-2066
▁ຫນ້ອຍ	-2067
ຊັບ	-2068
ຊິ	-2069
ທິບໍດີ	-2070
ວິນ	-2071
ລະນີ	-2072
ຫຼຸດ	-2073
ນິວ	-2074
▁ຕີ	-2075
able	-2076
▁ຊຸດ	-2077
▁ພອນ	-2078
ຕັ້ງແຕ່	-2079
ແລະຄວາມ	-2080
ເດັກນ້ອຍ	-2081
ວົງ	-2082
▁ສຶກ	-2083
ເທົ່າ	-2084
ທີ່ຢູ່	-2085
ຄອມ	-2086
ຊ່ວງ	-2087
ຂະພາບ	-2088
ວ່າທ່ານ	-2089
ຂາດ	-2090
▁ໃບ	-2091
ໃນວັນ	-2092
ລົບ	-2093
ເນຍ	-2094
ator	-2095
▁ສິບ	-2096
▁ຫລວງ	-2097
ບໍ່ແມ່ນ	-2098
ແວ	-2099
▁i	-2100
ram	-2101
▁Com	-2102
▁ຈິດ	-2103
ຫລັງຈາກ	-2104
▁ວາງ	-2105
ຈັດການ	-2106
ອົບຮົມ	-2107
▁ເສົ້າ	-2108
attoos	-2109
ຢູ່ທີ່	-2110
ັດທະນະ	-2111
ທາງດ້ານ	-2112
ສົ່ງອອກ	-2113
ens	-2114
ພິວ	-2115
ure	-2116
ທີ່ກ່ຽວຂ້ອງ	-2117
ສີ່	-2118
ov	-2119
▁ກິນ	-2120
▁ລົມ	-2121
ຫນຸ່ມ	-2122
ສາທາລະ	-2123
70	-2124
ອາຍ	-2125
▁ຂອບ	-2126
ໂທດ	-2127
iang	-2128
ໂຈມຕີ	-2129
▁ຂຶ້ນຄື	-2130
90	-2131
▁Ph	-2132
ເຊື້ອ	-2133
ເດີນທາງ	-2134
▁Europe	-2135
ດໍາເນີນການ	-2136
ert	-2137
ກັ່ນຕອງ	-2138
ps	-2139
ນອກ	-2140
▁ເພາະວ່າ	-2141
ແອ	-2142
ets	-2143
▁<	-2144
ສະຖ	-2145
▁ລັກ	-2146
ບັນທຶກ	-2147
ສະຫຼ	-2148
▁ເທິງ	-2149
ge	-2150
▁ຖົງ	-2151
ຊອກຫາ	-2152
▁ບໍ່ມີ	-2153
▁Wind	-2154
ລາຍການ	-2155
ສົມບູນ	-2156
ື່ອນໄຂ	-2157
ຕ່ໍາ	-2158
ER	-2159
ດົນ	-2160
▁ສູ່	-2161
▁ເສດ	-2162
▁ຫມັ້ນ	-2163
ສຸດທ້າຍ	-2164
ໃຊ້ຈ່າຍ	-2165
▁Ex	-2166
ຄະດີ	-2167
ປິດ	-2168
ເດີ	-2169
▁ເທດ	-2170
▁2020	-2171
ຈານ	-2172
ທັດ	-2173
ເຫມາະ	-2174
ແນວໃດ	-2175
ື້ອງ	-2176
▁ISO	-2177
▁ທີ່ຜ່ານມາ	-2178
▁00	-2179
ນໍ້າ	-2180
ຝ່າຍ	-2181
▁ຢືນ	-2182
ໂທລະສັບ	-2183
13	-2184
ຈິ	-2185
ໄມ	-2186
ສູງສຸດ	-2187
ໃນໄລຍະ	-2188
ພະນັກງານ	-2189
ອະທິ	-2190
▁ໃນປີ	-2191
▁ລະຫວ່າງ	-2192
ຸບ	-2193
ດາວ	-2194
▁sp	-2195
ຫາວິ	-2196
ກໍາມະການ	-2197
ປະສົບການ	-2198
▁•	-2199
ຍອມ	-2200
ເຕັມ	-2201
▁2015	-2202
▁ຮູບພາບ	-2203
ເຊື່ອມຕໍ່	-2204
ld	-2205
ຂະບວນ	-2206
ao	-2207
້ວນ	-2208
▁ຄະ	-2209
ຂ້າມ	-2210
ມືຖື	-2211
ຂອງຂ້ອຍ	-2212
ທ່ອງທ່ຽວ	-2213
▁ລັດຖະບານ	-2214
ໄຕ	-2215
້ວງ	-2216
ຂົນສົ່ງ	-2217
▁ແພ	-2218
ຫລັງ	-2219
ຫຼວງ	-2220
▁Ste	-2221
▁ອໍານາດ	-2222
ຈົນ	-2223
▁ດາ	-2224
up	-2225
ຢູ	-2226
ຣິ	-2227
ແບ່ງ	-2228
ຫະພູມ	-2229
ເຫຼັກ	-2230
ຊ່ຽວຊານ	-2231
ww	-2232
ັງກອນ	-2233
▁ອຸດສາຫະກໍາ	-2234
▁ມິ	-2235
▁ທີມ	-2236
ໃສ	-2237
▁ຢາ	-2238
ປະຕູ	-2239
ເຂັ້ມ	-2240
88	-2241
ໂບ	-2242
ບັງ	-2243
ຂວາງ	-2244
ປຸ່ນ	-2245
ຝຶກອົບຮົມ	-2246
ຊຸດ	-2247
▁ແທ້ໆ	-2248
ຸນຫະພູມ	-2249
▁ຖະຫນົນ	-2250
▁Printer	-2251
ED	-2252
ss	-2253
▁ສາວ	-2254
▁ອ້າຍ	-2255
ການສ້າງ	-2256
-3	-2257
ປະສົງ	-2258
ເປົ້າ	-2259
ເອີ້ນ	-2260
▁ໄລຍະ	-2261
▁ຕໍ່ໄປ	-2262
▁ຫນ່ວຍ	-2263
.4	-2264
ໄອ	-2265
▁ດ້ານ	-2266
ບຸກຄົນ	-2267
ແຊ	-2268
▁ຂັ້ນ	-2269
ການສໍາ	-2270
ree	-2271
ມິດ	-2272
▁ດິນ	-2273
▁''	-2274
ສ່ຽງ	-2275
▁ເຊີນ	-2276
ເພື່ອໃຫ້	-2277
ງາມ	-2278
olog	-2279
ສະນາ	-2280
▁ເອກ	-2281
▁ປ້ອງ	-2282
ຣິດ	-2283
▁ໂບ	-2284
ສະຫນາມ	-2285
1,	-2286
ທໍ່	-2287
▁86	-2288
▁ດູ	-2289
ຈໍາກັດ	-2290
ວ່າເປັນ	-2291
ຊົມ	-2292
▁to	-2293
▁ກາງ	-2294
▁ແຂງ	-2295
ຫຼາຍກວ່າ	-2296
ຈອນ	-2297
ທຽບ	-2298
ພິຈາລະນາ	-2299
ຫໍ້	-2300
ຄຸ້ມ	-2301
ຫຸ້ມ	-2302
▁ອາຫານ	-2303
▁ດາວໂຫລດ	-2304
ຸລາ	-2305
ເຈນ	-2306
▁Se	-2307
ຂ່າຍ	-2308
ຮຸນແຮງ	-2309
ຈິດ	-2310
ແລກ	-2311
ເນັດ	-2312
ຕະລາຍ	-2313
▁ອີງຕາມ	-2314
ix	-2315
▁35	-2316
▁De	-2317
ting	-2318
ອາຊີບ	-2319
ສິນຄ້າ	-2320
ເພື່ອນ	-2321
▁ເອີ້ນ	-2322
ຊູ	-2323
ສ໌	-2324
ການແຂ່ງຂັນ	-2325
ial	-2326
ຊົ່ວ	-2327
ບັນຊີ	-2328
▁ຂ້າງ	-2329
ຕໍາແຫນ່ງ	-2330
ox	-2331
ລື	-2332
▁ຊົນ	-2333
lector	-2334
ເຂົ້າໃຈ	-2335
ax	-2336
▁ເພດ	-2337
ແຕ່ລະ	-2338
ໂນມັດ	-2339
▁ຄົ້ນ	-2340
ກວດສອບ	-2341
▁ຮັກສາ	-2342
ັດທະນະທໍາ	-2343
ອ່ານ	-2344
ົວພັນ	-2345
ອານາຈັກ	-2346
.9	-2347
ock	-2348
▁Gu	-2349
Ch	-2350
ສິບ	-2351
ເຊີນ	-2352
▁ຂໍ້ມູນ	-2353
▁ວິທີການ	-2354
ru	-2355
ໃດກໍ່ຕາມ	-2356
ber	-2357
າທີ	-2358
ເທີ	-2359
▁ພໍ	-2360
▁ບາບ	-2361
▁ແກ້	-2362
າດາ	-2363
ເຫມາະສົມ	-2364
ໂພ	-2365
▁°	-2366
▁Min	-2367
▁ແຫນ	-2368
ຕອນນີ້	-2369
ຂອງເຂົາເຈົ້າ	-2370
ຈິກ	-2371
ຍຸດ	-2372
ທະເລ	-2373
▁ງາມ	-2374
ກາຍເປັນ	-2375
ເກີດຂຶ້ນ	-2376
ແດນ	-2377
ແພດ	-2378
▁ແປງ	-2379
▁Ad	-2380
▁ໂຈ	-2381
▁ທີ່ມີ	-2382
▁ສໍາລັບການ	-2383
▁ເຂົາເຈົ້າ	-2384
ich	-2385
lock	-2386
ແທ້ຈິງ	-2387
ປ່ຽນແປງ	-2388
▁ຫລັງຈາກ	-2389
▁ເຫຼົ່າ	-2390
ຕັດສິນໃຈ	-2391
▁x	-2392
ສູດ	-2393
ower	-2394
▁ປ່ອຍ	-2395
ຕະໂນມັດ	-2396
ສາທາລະນະ	-2397
ore	-2398
▁Vess	-2399
▁ພາສາ	-2400
24	-2401
ຢາງ	-2402
ລິນ	-2403
ິ້ມ	-2404
ຄ້າຍ	-2405
ໂລຫະ	-2406
ສະບັບ	-2407
ແມ່ນວ່າ	-2408
▁Vessoft	-2409
AN	-2410
ຣັກ	-2411
ຂະຫນາດໃຫຍ່	-2412
rad	-2413
ຫຼອດ	-2414
ພົວພັນ	-2415
ຫວັດສາດ	-2416
▁ຄວາມຄິດ	-2417
ສັກ	-2418
▁ແນ່ນອນ	-2419
ເວັບໄຊທ໌	-2420
▁Mc	-2421
▁ຊັ້ນ	-2422
ຊ່ວຍເຫຼືອ	-2423
ທີ່ສໍາຄັນ	-2424
ເຊີ	-2425
▁ຄູ	-2426
▁ຫຍ	-2427
▁the	-2428
▁ບຸກ	-2429
ໄປໄດ້	-2430
ໃຫ	-2431
▁~	-2432
ຄົດ	-2433
▁ແຄ	-2434
ical	-2435
ສະດຸ	-2436
▁500	-2437
ເທື່ອ	-2438
ໃຫ້ແກ່	-2439
ປະຈຸບັນ	-2440
ເອກະສານ	-2441
ire	-2442
iss	-2443
900	-2444
ice	-2445
▁de	-2446
ລ້ຽງ	-2447
▁ສະເ	-2448
ເຕືອນ	-2449
ນະໂຍບາຍ	-2450
ເຈົ້າຫນ້າທີ່	-2451
23	-2452
ຫມໍ	-2453
ແຜ່	-2454
▁ຢ່າ	-2455
້ອນຮັບ	-2456
▁Windows	-2457
ລັງ	-2458
▁Le	-2459
▁ch	-2460
▁ຮູ້ຈັກ	-2461
▁ນ້ໍາຫນັກ	-2462
ຮອດ	-2463
▁qu	-2464
ະລຸນາ	-2465
▁ນໍ້າ	-2466
uf	-2467
▁ເຜ	-2468
▁ແອ	-2469
▁ແສງ	-2470
ນີ້ແມ່ນ	-2471
ລັກສະນະ	-2472
▁ແນະນໍາ	-2473
▁ໂຮງງານຜະລິດ	-2474
ເຫລືອ	-2475
▁ທ່ານສາມາດ	-2476
-8	-2477
ah	-2478
ແມ	-2479
ຄິດວ່າ	-2480
ໃນປະເທດ	-2481
▁ໃນຂະນະທີ່	-2482
ອາໄສ	-2483
ອ້າງ	-2484
▁ໂສກ	-2485
▁2014	-2486
ທົດສອບ	-2487
ທີ່ແຕກຕ່າງກັນ	-2488
ຍິ່ງ	-2489
AC	-2490
▁ສຸ	-2491
▁ອ່ອນ	-2492
ຮຽກຮ້ອງ	-2493
icro	-2494
ຍ້າຍ	-2495
ຫຼັງ	-2496
ີດໍາ	-2497
▁Wor	-2498
ປະສິດທິພາບ	-2499
ats	-2500
▁ຊົມ	-2501
▁Collector	-2502
ລາງວັນ	-2503
▁ລວມທັງ	-2504
ood	-2505
▁ຫມາກ	-2506
ບາດເຈັບ	-2507
▁ເນື່ອງຈາກ	-2508
▁ຄອບ	-2509
▁ເດັກນ້ອຍ	-2510
de	-2511
du	-2512
ີຣ	-2513
▁ເອື້ອຍ	-2514
UR	-2515
ຂັດ	-2516
▁ປວດ	-2517
▁ອົງການ	-2518
AS	-2519
ດິ	-2520
▁ໄສ	-2521
ຊຸມຊົນ	-2522
ຫນຶ່ງໃນ	-2523
່ຍ	-2524
ຜ້າ	-2525
▁Bon	-2526
ໂຮງຮຽນ	-2527
ການບິນ	-2528
ຈະເປັນ	-2529
aser	-2530
▁ພຶດ	-2531
ດ່	-2532
ືບ	-2533
ຫນ່ວຍ	-2534
▁ຫນູນ	-2535
▁Casino	-2536
.8	-2537
EC	-2538
ຫ້ງ	-2539
▁28	-2540
▁ອົດ	-2541
ຄຸ້ມຄອງ	-2542
▁ສັ່ງ	-2543
ຮັບຜິດຊອບ	-2544
ກ່ອນຫນ້ານີ້	-2545
tt	-2546
oly	-2547
ປັບ	-2548
▁ໂຍ	-2549
zhou	-2550
ຕໍ່ຕ້ານ	-2551
▁ສະຫວັນ	-2552
▁ພະລັງງານ	-2553
ຊັດ	-2554
ຢຸດ	-2555
ວິຊາ	-2556
ເດັກ	-2557
droid	-2558
ຈະກໍາ	-2559
▁ຫຼັງ	-2560
ອອນໄລນ໌	-2561
ຄັ້ງທໍາອິດ	-2562
ue	-2563
ary	-2564
ດິດ	-2565
▁26	-2566
▁ພີ່	-2567
ຕະລາງ	-2568
ບັນລຸ	-2569
ໂຄສະນາ	-2570
28	-2571
ພຶດ	-2572
ລັນ	-2573
ເຕີບ	-2574
ເຕີເນັດ	-2575
▁ມີຄວາມ	-2576
ເພີ່ມຂຶ້ນ	-2577
own	-2578
ເກີນ	-2579
▁ສະຫະລັດ	-2580
ຄັດ	-2581
▁ເຮືອ	-2582
ok	-2583
▁ບາ	-2584
▁Koh	-2585
ເກືອບ	-2586
▁ພະຍານ	-2587
▁ຕິດຕໍ່	-2588
.00	-2589
ace	-2590
▁ຄວ	-2591
▁ໂດ	-2592
ີນີ້	-2593
▁Val	-2594
▁ອອນ	-2595
ຈະບໍ່	-2596
ທັງສອງ	-2597
ໂດຍການ	-2598
▁ປະຊາຊົນ	-2599
.7	-2600
ສິກ	-2601
ເລັກ	-2602
▁Con	-2603
ົງເຂດ	-2604
ໍາລົງ	-2605
ກົດດັນ	-2606
ອົດສະຕາລີ	-2607
ປະທ	-2608
ເຫຍ	-2609
line	-2610
ກ້າວ	-2611
▁ຜູ້ຜະລິດ	-2612
▁ລາຍລະອຽດ	-2613
ແຂວງ	-2614
▁ທົດ	-2615
ຫນັງສື	-2616
ອັນດັບ	-2617
▁ຕະຫລອດ	-2618
ໂຄງ	-2619
▁27	-2620
▁Am	-2621
▁ລີ	-2622
▁Blu	-2623
▁ຊື້	-2624
▁ແບ່ງ	-2625
ຫາວິທະຍາໄລ	-2626
14	-2627
ຍົນ	-2628
▁ໄມ	-2629
2018	-2630
▁ຂັດ	-2631
▁ຄົງ	-2632
▁Rong	-2633
ສະແດງໃຫ້ເຫັນ	-2634
17	-2635
li	-2636
ຊຽນ	-2637
ຍິນ	-2638
ລັບ	-2639
ຊື່ງ	-2640
ເຕີ້	-2641
ເຊົ້າ	-2642
▁ຈັບ	-2643
▁ນອນ	-2644
▁ເວັບໄຊ	-2645
ອະນາ	-2646
▁Fil	-2647
▁ຫ້າ	-2648
▁ມັນເປັນ	-2649
min	-2650
ແຍກ	-2651
ແຮມ	-2652
▁ມານ	-2653
ຕິດຕາມ	-2654
▁Android	-2655
▁ວິທະຍາໄລ	-2656
ON	-2657
kg	-2658
gle	-2659
▁ro	-2660
ater	-2661
ຸມພາ	-2662
▁ຄົວ	-2663
▁Dist	-2664
ທຸກຄົນ	-2665
▁ປະຈໍາ	-2666
▁ເຊື້ອ	-2667
▁ເຫດຜົນ	-2668
ທີ່ພວກເຮົາ	-2669
ວິກ	-2670
ເວນ	-2671
▁ໃຜ	-2672
ລະປະ	-2673
ແມ່ນການ	-2674
▁ກະລຸນາ	-2675
chn	-2676
▁Bl	-2677
ຖຸນາ	-2678
ຖ່າຍ	-2679
night	-2680
ufact	-2681
18	-2682
az	-2683
▁Sol	-2684
▁ມອບ	-2685
▁ເກີນ	-2686
ສົມບັດ	-2687
▁ເຂັ້ມ	-2688
ບາ	-2689
ເມວ	-2690
ຣັ່ງ	-2691
▁ເດີນ	-2692
▁ແຈ້ງ	-2693
ບຽນ	-2694
▁For	-2695
ຮ່າງກາຍ	-2696
ດາຍ	-2697
rict	-2698
▁ທິດ	-2699
ຜູ້ທີ່	-2700
▁ກະສັດ	-2701
ufactur	-2702
ຮັບປະກັນ	-2703
ແຈ	-2704
ຫລັກ	-2705
▁ແຕກ	-2706
ມາຄົມ	-2707
▁ເອກະ	-2708
▁ກ່າວວ່າ	-2709
ມິ	-2710
ອີງ	-2711
iber	-2712
▁Car	-2713
▁New	-2714
▁ນວນ	-2715
ຫມືອນ	-2716
ຄອມພິວ	-2717
ເພງ	-2718
man	-2719
ນາມ	-2720
▁ທ້າຍ	-2721
ຕົກລົງ	-2722
ສັງເກດ	-2723
ົກລັດຖະມົນຕີ	-2724
ized	-2725
ເຊັນ	-2726
ology	-2727
ພະຍາດ	-2728
ອະທິບາຍ	-2729
33	-2730
▁70	-2731
▁ໂຊ	-2732
ວນີ້	-2733
ະການ	-2734
ປະສົມ	-2735
ລະກົດ	-2736
ແຮງງານ	-2737
ໂສ	-2738
uan	-2739
ນັບ	-2740
▁300	-2741
▁for	-2742
ດີດ	-2743
ວຽນ	-2744
ນະຄອນ	-2745
▁ຫລັກ	-2746
ກ່າວຫາ	-2747
ປະທ້ວງ	-2748
ຣິກ	-2749
ືກ	-2750
▁ໂຣ	-2751
▁ເກັບ	-2752
▁ສະບັບ	-2753
ໃຊ	-2754
ຫໍ່	-2755
▁Tag	-2756
▁ນອກຈາກ	-2757
▁ທັງຫມົດ	-2758
ufacturer	-2759
▁1,	-2760
ຸ້ງຍາກ	-2761
▁ໂຄງການ	-2762
▁ພະນັກງານ	-2763
ium	-2764
ເງົາ	-2765
ຂົງເຂດ	-2766
▁ໃນວັນ	-2767
ເປົ້າຫມາຍ	-2768
ated	-2769
ືອຂ່າຍ	-2770
▁ວັນທີ	-2771
ຊະອານາຈັກ	-2772
ໍານວຍ	-2773
ຮຽນຮູ້	-2774
ສຸຂະພາບ	-2775
ux	-2776
ລານ	-2777
▁ຍຸ	-2778
ຖືກຕ້ອງ	-2779
▁ຮ່າງກາຍ	-2780
-6	-2781
ຊໍາ	-2782
▁ທົນ	-2783
▁ສັກ	-2784
ສໍາຫລັບ	-2785
ມາດຕະຖານ	-2786
▁ຫົວຫນ້າ	-2787
ຄວາມຕ້ອງການ	-2788
af	-2789
ໄຮ	-2790
ປາກ	-2791
ລະດູ	-2792
ທໍາລາຍ	-2793
▁ຖ້າຫາກ	-2794
ຂອງຂ້າພະເຈົ້າ	-2795
▁ໄຂ	-2796
▁ບາດ	-2797
▁(201	-2798
▁ທໍາລາຍ	-2799
ຕິກ	-2800
▁ເຟ	-2801
ເນື້ອ	-2802
ຕິດຕັ້ງ	-2803
io	-2804
ube	-2805
ສະກ	-2806
▁City	-2807
▁ຍ່າງ	-2808
▁ສໍານ	-2809
▁ເລັດ	-2810
ເຂັ້ມແຂງ	-2811
ຈໍ	-2812
ພໍ່	-2813
ສະຕ	-2814
າບັນ	-2815
▁ດໍາ	-2816
▁ຢ້ຽມ	-2817
ຄວາມສາມາດ	-2818
">	-2819
▁Ning	-2820
▁ມັງກອນ	-2821
▁ຈໍາເປັນ	-2822
ເຂົ້າໄປໃນ	-2823
ເຕັກໂນໂລຊີ	-2824
ແຕນ	-2825
▁Be	-2826
coin	-2827
▁ກົງ	-2828
ສືບຕໍ່	-2829
ຕ້ອນຮັບ	-2830
▁ຄວາມຄິດເຫັນ	-2831
▁Che	-2832
ຜູ້ນໍາ	-2833
▁start	-2834
▁ລະດັບ	-2835
ຊ່ວຍໃຫ້	-2836
aw	-2837
▁×	-2838
rom	-2839
ທວນ	-2840
່ອມ	-2841
▁ໂມງ	-2842
ບັງຄັບ	-2843
ແນ່ນອນ	-2844
▁Bonus	-2845
▁ສິງຫາ	-2846
ລິດ	-2847
▁Ro	-2848
▁McK	-2849
▁ຍາມ	-2850
▁ເພງ	-2851
ລິຂະສິດ	-2852
▁ຫນັງສື	-2853
ການພັດທະນາ	-2854
cl	-2855
ເລີດ	-2856
ester	-2857
ກະທໍາ	-2858
▁2013	-2859
ຮູ້ຈັກ	-2860
ເທົ່ານັ້ນ	-2861
ຜູ້ຊາຍ	-2862
▁ທະຫານ	-2863
▁ກົດຫມາຍ	-2864
▁District	-2865
ank	-2866
ons	-2867
ດູດ	-2868
▁dur	-2869
ນິຍົມ	-2870
▁ໂອກາດ	-2871
▁ຄໍາຖາມ	-2872
▁Manufacturer	-2873
ST	-2874
ຈຶ່ງ	-2875
ີຣົບ	-2876
▁ຊີ້	-2877
ຄ້າຍຄື	-2878
der	-2879
▁Th	-2880
ເງີນ	-2881
ຄວາມໄວ	-2882
▁ຫຼິ້ນ	-2883
ໃນເດືອນ	-2884
-4	-2885
ຍູ	-2886
ome	-2887
ສື່	-2888
ເວີ	-2889
▁45	-2890
▁ຕຽມ	-2891
ລະບຽບ	-2892
▁Steel	-2893
▁ເຍ	-2894
ກະຊວງ	-2895
ໃນຕອນ	-2896
ຕໍ່ສູ້	-2897
ຢ້ຽມຢາມ	-2898
ຕາເວັນອອກ	-2899
22	-2900
rus	-2901
ຟຣີ	-2902
▁ປັດ	-2903
▁ແດ່	-2904
▁2011	-2905
▁ປະມານ	-2906
▁ແລະການ	-2907
ສ່ວນໃຫຍ່	-2908
▁ພັດທະນາ	-2909
▁McKnight	-2910
ຜ່າ	-2911
▁al	-2912
▁ໄກ	-2913
▁ຈື່	-2914
▁ບານ	-2915
press	-2916
ລະຫັດ	-2917
ແລກປ່ຽນ	-2918
RE	-2919
ຍຸ	-2920
ພູ	-2921
ວົນ	-2922
rypt	-2923
▁You	-2924
ກໍລະນີ	-2925
ໍລະມານ	-2926
▁ໄຊ	-2927
ຮ້ານ	-2928
▁ສີ່	-2929
ເຕັ້ນ	-2930
▁ເຈົ້າຫນ້າທີ່	-2931
ລັ	-2932
amp	-2933
arn	-2934
ສົກ	-2935
▁ແຈ	-2936
ຍ້ອນ	-2937
ລະບຸ	-2938
ື້ອຍໆ	-2939
ເກົ່າ	-2940
ຄຸກ	-2941
ມາກ	-2942
ປ້ອງ	-2943
ຮ້ອຍ	-2944
ໂທລະ	-2945
▁Equ	-2946
▁Mar	-2947
ຂອງປະເທດ	-2948
▁ພວກເຮົາມີ	-2949
lot	-2950
ຍລະ	-2951
ດີກ	-2952
ສູນກາງ	-2953
ຂະບວນການ	-2954
ຕັ້ງຂຶ້ນ	-2955
▁ຊົ່ວໂມງ	-2956
ign	-2957
ຶ້ມ	-2958
▁th	-2959
ສິໂນ	-2960
▁ຂັບ	-2961
ລິມານ	-2962
ຫຼິ້ນ	-2963
▁ນາທີ	-2964
▁ພິຈາລະນາ	-2965
ືມ	-2966
▁€	-2967
ຈາຍ	-2968
ລາມ	-2969
▁29	-2970
▁ຂາຍ	-2971
oogle	-2972
ຈະຖືກ	-2973
ທົບທວນ	-2974
ແມ່ຍິງ	-2975
ຈີ	-2976
▁sh	-2977
ຕຸ້ນ	-2978
ທະບຽນ	-2979
ສະອາດ	-2980
▁Ningbo	-2981
ື້ມ	-2982
ໂຕ້	-2983
▁un	-2984
▁ຊຸມ	-2985
▁ໃຕ້	-2986
▁Mach	-2987
2)	-2988
▁)	-2989
ກິນ	-2990
ວ່ານ	-2991
ຫມູ່	-2992
▁ຈ່າຍ	-2993
▁ຕ້ານ	-2994
▁ຫນັບ	-2995
ຕໍາຫລວດ	-2996
ເຢ	-2997
ipp	-2998
ພັດ	-2999
ລ້ານ	-3000
ການປິ່ນປົວ	-3001
ຍູ້	-3002
ທາຍ	-3003
ເອັດ	-3004
ຍອມຮັບ	-3005
ຖຸ	-3006
▁ຫານ	-3007
ໄປສູ່	-3008
ປັບປຸງ	-3009
ອໍານວຍ	-3010
ບາງຢ່າງ	-3011
▁ໍາ	-3012
ebei	-3013
ສໍານ	-3014
▁ກາດ	-3015
▁ລາວກ	-3016
ວິດີໂອ	-3017
ເສຍຫາຍ	-3018
ນາທິບໍດີ	-3019
ee	-3020
ົາຍ	-3021
▁ສູ້	-3022
▁ສິ້ນ	-3023
▁World	-3024
ຂັ້ນຕອນ	-3025
ຫຸ້ມຫໍ່	-3026
▁ວິນາທີ	-3027
▁ຄວາມສຸກ	-3028
▁ສະຫນັບສະຫນູນ	-3029
org	-3030
ual	-3031
ບັນຍ	-3032
▁199	-3033
▁Air	-3034
▁ລໍ້	-3035
▁ເປົ້າ	-3036
▁ຍີ່ຫໍ້	-3037
▁ຂອງທ່ານ	-3038
▁2,	-3039
▁ໂປ	-3040
▁ຟຣີ	-3041
▁hack	-3042
ຕົ້ນຕໍ	-3043
▁ສີດໍາ	-3044
▁Sam	-3045
▁2006	-3046
▁ຫຼັກ	-3047
ຊື່ສຽງ	-3048
▁ກັນຍາ	-3049
▁ເກືອບ	-3050
▁ເຫມາະ	-3051
ອານ	-3052
ເຕະ	-3053
▁AP	-3054
▁ກິ	-3055
74	-3056
:/	-3057
oll	-3058
ເລຍ	-3059
ເບື້ອງ	-3060
ນ້ໍາມັນ	-3061
AT	-3062
▁80	-3063
ໂດລາ	-3064
ບັນຈຸ	-3065
ຍລະມັນ	-3066
ໃຫ້ກັບ	-3067
▁ກະທໍາ	-3068
ເງື່ອນໄຂ	-3069
ວິສາຫະກິດ	-3070
ork	-3071
load	-3072
▁App	-3073
▁Top	-3074
▁ອໍາ	-3075
ຄໍາຖາມ	-3076
▁Micro	-3077
ປັນຍາ	-3078
ອອກມາ	-3079
ໃນໂລກ	-3080
▁ຜູ້ນໍາ	-3081
ຄວາມຮ້ອນ	-3082
sp	-3083
▁ໃສ	-3084
▁ທໍ່	-3085
ອາກາດໃນ	-3086
▁Filter	-3087
▁ປົກຄອງ	-3088
ເຂົ້າເຖິງ	-3089
ຄ່າໃຊ້ຈ່າຍ	-3090
▁ໃນເວລາທີ່	-3091
▁=	-3092
://	-3093
▁PC	-3094
▁Sc	-3095
ring	-3096
້ວາງ	-3097
▁ບິນ	-3098
▁East	-3099
ຂີ້ເຫຍ	-3100
ຫຼາຍກ່ວາ	-3101
ble	-3102
ron	-3103
ກຽມ	-3104
ນັ່ງ	-3105
ລົ້ມ	-3106
▁ຕື້	-3107
▁ສັບ	-3108
ັງວົນ	-3109
ການປົກ	-3110
▁ປອດ	-3111
▁ຫວ່າງ	-3112
ຜູ້ຜະລິດ	-3113
▁ກ້າ	-3114
▁ຊື່ນ	-3115
▁ຫນາດ	-3116
ລັນດອນ	-3117
ອໍານາດ	-3118
▁ປະໂຫຍດ	-3119
cy	-3120
ໃຜ	-3121
ren	-3122
ທູດ	-3123
▁ຊະ	-3124
▁ອະນ	-3125
ເຫດຜົນ	-3126
ປະຕິເສດ	-3127
ທໍາມະຊາດ	-3128
ເຍ	-3129
ເອວ	-3130
▁ແມ	-3131
ອ່ອນ	-3132
▁Main	-3133
ຟ້າອາກາດ	-3134
ວາງສະແດງ	-3135
ເຄື່ອງມື	-3136
ແບ	-3137
ith	-3138
ຈົດ	-3139
ເບີ	-3140
▁ເດີ	-3141
ຕິທໍາ	-3142
▁ມີນາ	-3143
▁ທໍາອິດ	-3144
ໃນເວລາທີ່	-3145
log	-3146
▁ປາກ	-3147
▁ປະກອບ	-3148
21	-3149
ງວນ	-3150
▁ມັດ	-3151
▁Blue	-3152
ການຂອງ	-3153
ຕອບສະຫນອງ	-3154
2,	-3155
AR	-3156
ool	-3157
ກູ້	-3158
ທາດ	-3159
▁ໂກ	-3160
ການເຮັດວຽກ	-3161
ອິນເຕີເນັດ	-3162
ດິນຟ້າອາກາດ	-3163
77	-3164
ຊິດ	-3165
ຍີ່	-3166
ຈະມີ	-3167
ພາຍໃຕ້	-3168
ການສົ່ງ	-3169
ການເມືອງ	-3170
36	-3171
ງ່	-3172
ໄທ	-3173
int	-3174
▁90	-3175
ຊໍາລະ	-3176
ສະດວກ	-3177
ຕົນເອງ	-3178
ຄໍາສັ່ງ	-3179
ສ່ວນຕົວ	-3180
▁ກອງທັບ	-3181
ຂະຫນາດນ້ອຍ	-3182
ET	-3183
ຄູ	-3184
ຈາ	-3185
ທ່າ	-3186
▁on	-3187
ເລີຍ	-3188
▁Bag	-3189
▁ທ່າ	-3190
▁ຮອດ	-3191
26	-3192
pl	-3193
▁Ind	-3194
▁htt	-3195
ທີສອງ	-3196
▁ຕື່ມ	-3197
▁ເກົ່າ	-3198
ຂ່າວສານ	-3199
ເຄື່ອງຈັກ	-3200
ຢີ	-3201
ທຸກໆ	-3202
▁ຝູງ	-3203
ໄຈ	-3204
han	-3205
ount	-3206
ພົນລະ	-3207
ແຕນເລດ	-3208
▁ມີການ	-3209
ກວ້າງຂວາງ	-3210
ສິ່ງແວດລ້ອມ	-3211
55	-3212
OS	-3213
ult	-3214
▁ເຢ	-3215
▁150	-3216
▁ພິເສດ	-3217
ວັດທະນະທໍາ	-3218
ອັດຕະໂນມັດ	-3219
ພິດ	-3220
▁pro	-3221
ເຄິ່ງ	-3222
▁ແຕ່ລະ	-3223
▁ການຄາດຄະເນ	-3224
ນ້	-3225
▁Hy	-3226
ສິ້ນ	-3227
▁EUR	-3228
▁ພິມ	-3229
ອາວຸດ	-3230
▁ພຽງແຕ່	-3231
▁ສັງຄົມ	-3232
chnology	-3233
▁ພຶດສະພາ	-3234
ລາຍງານວ່າ	-3235
EM	-3236
▁CN	-3237
ເມີນ	-3238
▁ປາດ	-3239
▁ກ້າວ	-3240
ສະເຫມີ	-3241
ທາງເລືອກ	-3242
▁ຖືກຕ້ອງ	-3243
▁ສໍາເລັດ	-3244
ວັງ	-3245
▁ຊັບ	-3246
ລົງຄະແນນ	-3247
500	-3248
oot	-3249
ສົດ	-3250
▁Bot	-3251
ipment	-3252
ຂອງລັດ	-3253
▁ແຫນ້ນ	-3254
▁໌	-3255
ins	-3256
ໃດໆ	-3257
▁GB	-3258
▁XL	-3259
▁ກຽດ	-3260
China	-3261
ໃຈໃສ່	-3262
▁2008	-3263
▁ອ້ອມ	-3264
ໂນ້ຍ	-3265
▁Supp	-3266
▁ຕຸລາ	-3267
່າໂນ້ຍ	-3268
ງ່າຍດາຍ	-3269
29	-3270
AL	-3271
DF	-3272
▁Pre	-3273
ສົງຄາມ	-3274
ັບສະຫນຸນ	-3275
2.	-3276
ຫີນ	-3277
ware	-3278
▁ລູກໆ	-3279
ມືອາຊີບ	-3280
▁ເຈົ້າຈະ	-3281
ຜົນປະໂຫຍດ	-3282
irt	-3283
▁et	-3284
▁ແບ	-3285
ຖະແຫຼ	-3286
▁quot	-3287
ກອງທັບ	-3288
ເຕີບໂຕ	-3289
▁Prote	-3290
ຂີ້ເຫຍື້ອ	-3291
ປະຫວັດສາດ	-3292
ໃຫຍ່ທີ່ສຸດ	-3293
IC	-3294
▁ໂນ	-3295
ແມັດ	-3296
▁Hol	-3297
ສະການ	-3298
▁1000	-3299
ວຽກງານ	-3300
▁Valve	-3301
▁ເຫນືອ	-3302
ການເງິນ	-3303
ລິມ	-3304
▁Wh	-3305
▁ແຊ	-3306
less	-3307
ສໍາພັນ	-3308
ໃນວັນທີ	-3309
▁ເສັ້ນທາງ	-3310
ຄະນະກໍາມະການ	-3311
ນາຍົກລັດຖະມົນຕີ	-3312
ສາວ	-3313
tern	-3314
ຫ່າງ	-3315
▁ທັບ	-3316
ຍັງບໍ່	-3317
▁Power	-3318
▁ຜູ້ທີ່	-3319
ກາດ	-3320
ມອບ	-3321
ທະສາດ	-3322
itcoin	-3323
ຖະຫນົນ	-3324
ຂອງຄວາມ	-3325
ທີ່ຫນ້າ	-3326
▁ບັນທຶກ	-3327
▁ປະເພດທຸລະກິດ	-3328
AM	-3329
ase	-3330
ສຸມ	-3331
ທ້ອນ	-3332
▁ຄອມ	-3333
ລົດໄຟ	-3334
ອີເມວ	-3335
ຊົ່ວໂມງ	-3336
▁ອະທິຖານ	-3337
▁Equipment	-3338
▁ຜູ້ສົ່ງອອກ	-3339
ການເຄື່ອນໄຫວ	-3340
ພິທີ	-3341
▁ພັດ	-3342
arter	-3343
▁ພະຈິກ	-3344
▁ສີຂາວ	-3345
▁ອາຊຽນ	-3346
ຈໍານວນຫຼາຍ	-3347
cc	-3348
ອຸດ	-3349
▁ຮອບ	-3350
▁ແນ່	-3351
ທີ່ລາວ	-3352
▁ບັນຊີ	-3353
ຂໍ້ຄວາມ	-3354
ສະຫນັບສະຫນຸນ	-3355
ກິ	-3356
ບັນດ	-3357
▁ລອດ	-3358
jiang	-3359
▁Free	-3360
ຫົວຂໍ້	-3361
ໃນຊ່ວງ	-3362
▁ທີ່ຈະ	-3363
ຂອງບໍລິສັດ	-3364
▁CO	-3365
▁ad	-3366
▁ວາ	-3367
▁ທັນວາ	-3368
ທີ່ສາມາດ	-3369
ແນກ	-3370
ຫລວງ	-3371
ເຢັນ	-3372
▁ອັງ	-3373
abric	-3374
ໃນເຂດ	-3375
້າທາຍ	-3376
▁2005	-3377
▁ທຸກໆ	-3378
▁ພັນທະ	-3379
▁ສາດສະ	-3380
▁ເຕືອນ	-3381
ຄົນອື່ນ	-3382
ສະຫະລັດອາເມລິກາ	-3383
ake	-3384
ໄລ່	-3385
▁1.	-3386
▁sc	-3387
ຫນົດ	-3388
▁ຫນີ	-3389
▁ເຫມືອນ	-3390
wit	-3391
ສະວະ	-3392
▁ໂຍນ	-3393
ມູນຄ່າ	-3394
▁ເຕັ້ນ	-3395
ພາກສ່ວນ	-3396
ຟູ	-3397
ົ້ວ	-3398
▁mm	-3399
▁ຂາດ	-3400
ຊີແລນ	-3401
ຝຣັ່ງ	-3402
▁ສຶກສາ	-3403
▁ມັນແມ່ນ	-3404
ເນື່ອງຈາກ	-3405
ແຫລ	-3406
▁Lin	-3407
▁ດໍາເນີນ	-3408
ຊ່ວຍເຫລືອ	-3409
ໃນປັດຈຸບັນ	-3410
air	-3411
ans	-3412
atch	-3413
land	-3414
▁ຂີ້	-3415
▁ສືບ	-3416
ແລະມີ	-3417
ຫມັ້ນຄົງ	-3418
▁ຫຼັງຈາກນັ້ນ	-3419
ແນ່	-3420
▁As	-3421
▁ເຖ	-3422
otor	-3423
ື່ອກ	-3424
▁ຮອງ	-3425
່ນ້ອງ	-3426
ຂອງມັນ	-3427
່າວວ່າ	-3428
▁ພະລັງ	-3429
▁ກໍລະກົດ	-3430
ທີ່ແທ້ຈິງ	-3431
VC	-3432
fo	-3433
▁Em	-3434
ຖານະ	-3435
ເສີນ	-3436
▁ກົວ	-3437
▁ທາຍ	-3438
ຫລິ້ນ	-3439
▁ນັ່ງ	-3440
▁ພິທີ	-3441
ຄົ້ນພົບ	-3442
ການນໍາໃຊ້	-3443
ຫຼັງຈາກນັ້ນ	-3444
ous	-3445
ype	-3446
ອັກ	-3447
▁31	-3448
▁ເມສາ	-3449
▁ນະຄອນ	-3450
▁ແຕ່ວ່າ	-3451
ບຸນ	-3452
ປ່າ	-3453
▁75	-3454
▁ຢູ	-3455
iron	-3456
▁ໄຫມ	-3457
▁ກຸມພາ	-3458
ພາກພື້ນ	-3459
▁ລາຍງານ	-3460
▁ເຕັກໂນໂລ	-3461
ປະຕິບັດການ	-3462
ນອນ	-3463
▁LT	-3464
▁pm	-3465
ເສົາ	-3466
▁ປັບ	-3467
ຸກຍູ້	-3468
▁ປະຕູ	-3469
▁ປຶ້ມ	-3470
▁Black	-3471
ທີ່ບໍ່ມີ	-3472
▁ລັກສະນະ	-3473
uk	-3474
ifi	-3475
ນັດ	-3476
ແພງ	-3477
▁(3	-3478
ໃຫ້ນ	-3479
▁ວົງ	-3480
▁ສອບ	-3481
ສົງໄສ	-3482
▁ເຜີຍ	-3483
ຢືນຢັນ	-3484
ຮັບຮອງ	-3485
▁ຍິນດີ	-3486
ຮ່ວມງານ	-3487
ໄດ້ກ່າວວ່າ	-3488
ຄ້ວ	-3489
ຖອນ	-3490
ຟັງ	-3491
▁Sm	-3492
ames	-3493
▁ຍາດ	-3494
▁ປິດ	-3495
▁ຮ້ອນ	-3496
▁ແຂວງ	-3497
ເປີດເຜີຍ	-3498
▁ຖ້າທ່ານ	-3499
ຊໍາລະເງິນ	-3500
ulse	-3501
▁Env	-3502
▁ການປ	-3503
ຂອງພຣະ	-3504
ຄົ້ນຫາ	-3505
▁ຢູ່ໃນ	-3506
ປະຊາຊາດ	-3507
▁Series	-3508
ອັນຕະລາຍ	-3509
GH	-3510
ame	-3511
ຊິນ	-3512
ພະນ	-3513
▁IT	-3514
▁pl	-3515
ສະຫລ	-3516
ແຕ້ມ	-3517
ອັດຕາ	-3518
້ອື່ນ	-3519
▁ຂ້າມ	-3520
ໃຫ້ການ	-3521
▁ຄວາມໄວ	-3522
ທົບທວນຄືນ	-3523
76	-3524
by	-3525
▁ະ	-3526
:00	-3527
les	-3528
▁ພູ	-3529
ພາສີ	-3530
▁ກວດ	-3531
▁ມືດ	-3532
▁ສົບ	-3533
ຈິຕອນ	-3534
ເດັ່ນ	-3535
້າສຸດ	-3536
▁Inst	-3537
▁ແມັດ	-3538
39	-3539
ero	-3540
▁36	-3541
▁Or	-3542
▁ex	-3543
ະລາດ	-3544
▁ທັດ	-3545
ເຮັດໄດ້	-3546
ເສັ້ນທາງ	-3547
▁ນິລັນດອນ	-3548
▁ພວກເຮົາໄດ້	-3549
ບອນ	-3550
ປິນ	-3551
ິຕິ	-3552
ຟື້ນ	-3553
ໄປຫາ	-3554
ກໍຕາມ	-3555
▁Shen	-3556
ສອງຄົນ	-3557
ເຂົ້າມາ	-3558
▁ໃນໄລຍະ	-3559
▁ທໍາມະຊາດ	-3560
ກ້າ	-3561
ຈົບ	-3562
▁ລໍ	-3563
▁LED	-3564
mental	-3565
ຕົວເອງ	-3566
ຕົວແທນ	-3567
▁ຊະນິດ	-3568
ທະນາຄານ	-3569
▁ສໍາພັນ	-3570
ອຸນຫະພູມ	-3571
ພວກເຮົາມີ	-3572
▁ເຄື່ອງມື	-3573
▁ອຸປະກອນການ	-3574
be	-3575
ີງ	-3576
ery	-3577
ທະນ	-3578
ປືນ	-3579
▁ຈາ	-3580
▁ກັດ	-3581
ວ່າມີ	-3582
▁ກິລາ	-3583
ກັບຄືນ	-3584
ດ້ວຍການ	-3585
ເຄືອຂ່າຍ	-3586
100	-3587
ຊ້າ	-3588
▁32	-3589
▁ເລັກ	-3590
ຕໍ່ການ	-3591
▁Suppli	-3592
▁ມາດຕະຖານ	-3593
▁ຫລວງຫລາຍ	-3594
▁Protection	-3595
ics	-3596
ton	-3597
າມາ	-3598
໊ອກ	-3599
▁On	-3600
ຍ່າງ	-3601
ະພາບ	-3602
▁ຈົດ	-3603
▁ດັບ	-3604
▁ລອງ	-3605
ເວັ້ນ	-3606
ສະຫວ່າງ	-3607
ຫລາຍກວ່າ	-3608
ເປັນເຈົ້າ	-3609
ene	-3610
ຊິງ	-3611
▁Gr	-3612
▁ຈອນ	-3613
▁ຢຸດ	-3614
ກັງວົນ	-3615
ເປັນເວລາ	-3616
▁ອະທິບາຍ	-3617
▁ເວົ້າວ່າ	-3618
▁ສະພາບອາກາດໃນ	-3619
ond	-3620
ung	-3621
▁Bo	-3622
▁ມມ	-3623
wide	-3624
▁you	-3625
ວນຊົນ	-3626
ອອກໄປ	-3627
▁ເນື້ອ	-3628
ກໍາຫນົດ	-3629
ມື້ອື່ນ	-3630
IL	-3631
ິສ	-3632
hai	-3633
▁ຍາວ	-3634
▁ສື່	-3635
▁ຫາຍ	-3636
ທັນທີ	-3637
▁ສະພາ	-3638
ວິເຄາະ	-3639
ໂດຍບໍ່	-3640
ເປັນທີ່	-3641
▁ຮັບໃຊ້	-3642
ຍິ່ງໃຫຍ່	-3643
ມະຫາວິທະຍາໄລ	-3644
ຄໍ	-3645
ໃຍ	-3646
ຫ້າມ	-3647
ເມີດ	-3648
ທິການ	-3649
ແຫຼ່ງ	-3650
ຍັງຄົງ	-3651
ທີ່ຂ້ອຍ	-3652
▁Google	-3653
▁ສະຫງົບ	-3654
ສາດສະຫນາ	-3655
ເອີ້ນວ່າ	-3656
85	-3657
cs	-3658
ເຖ	-3659
ions	-3660
▁ກອນ	-3661
obile	-3662
▁Slot	-3663
▁ຂ້ອງ	-3664
▁ຊະນະ	-3665
▁ຕື່ນ	-3666
▁ກະຊວງ	-3667
ຕໍາຫຼວດ	-3668
▁ໃນເດືອນ	-3669
ໃນຂະນະທີ່	-3670
▁ກອງປະຊຸມ	-3671
▁ເຄື່ອງພິມ	-3672
ໂຮງງານຜະລິດ	-3673
▁ເຖິງແມ່ນວ່າ	-3674
iew	-3675
lex	-3676
ຊັນ	-3677
ສູບ	-3678
ອດຄ	-3679
uang	-3680
ຊ່ອງ	-3681
ລ້າງ	-3682
▁ນານ	-3683
▁ພົນ	-3684
▁ມົນ	-3685
▁ແຍກ	-3686
▁ໄລ່	-3687
ating	-3688
▁ນິ້ວ	-3689
ຂອງນັກ	-3690
ຫົວຫນ້າ	-3691
▁Environ	-3692
▁ວັດສະດຸ	-3693
▁Worldwide	-3694
▁ການນໍາໃຊ້	-3695
▁ໄດ້ກ່າວວ່າ	-3696
orn	-3697
▁Sk	-3698
aric	-3699
zhen	-3700
ື້ອມ	-3701
▁ໂບດ	-3702
ຂອບໃຈ	-3703
▁Cert	-3704
▁Park	-3705
▁ຄ້າຍ	-3706
ອິນເດຍ	-3707
ແລະຜູ້	-3708
ອະນາຄົດ	-3709
▁ແລະຂ້ອຍ	-3710
ຂອງລັດຖະບານ	-3711
orm	-3712
ຍອດ	-3713
ຫວງ	-3714
ໂພກ	-3715
▁ສວນ	-3716
ສິກໍາ	-3717
▁ສະຫະ	-3718
▁ເສື້ອ	-3719
ຈຸດປະສົງ	-3720
ໃຫ້ບໍລິການ	-3721
CS	-3722
ປານ	-3723
ເຈຍ	-3724
ເຈີ	-3725
ຝັ່ງ	-3726
ເລີກ	-3727
▁Res	-3728
▁ທາດ	-3729
▁ນິວ	-3730
▁2010	-3731
ທີ່ມີການ	-3732
ທີ່ພວກເຂົາ	-3733
ll	-3734
ລອນ	-3735
ແກ້ວ	-3736
ກະຈາຍ	-3737
▁2007	-3738
ວາງແຜນ	-3739
▁Botou	-3740
▁ປົກກະຕິ	-3741
▁ແຕ່ງງານ	-3742
MP	-3743
▁ພາດ	-3744
ືອບິນ	-3745
▁ນັບຖື	-3746
ຂອງເຮົາ	-3747
ວິຊາການ	-3748
▁ສະເຫນີ	-3749
▁ໂດຍການ	-3750
ຫຼຸດຜ່ອນ	-3751
ຮ້ອງສະຫມັກ	-3752
▁Environmental	-3753
ys	-3754
ກາກ	-3755
▁ເຫ	-3756
▁Gre	-3757
▁Met	-3758
▁ຊິກ	-3759
▁ແຫຼ	-3760
ຖະຫນາ	-3761
ປະກົດ	-3762
ພະນັນ	-3763
ົາຍັງ	-3764
▁ສະຕິ	-3765
▁ລາຍການ	-3766
▁ວິດີໂອ	-3767
▁tattoos	-3768
▁ສະຖານທີ່	-3769
ການບໍລິການ	-3770
ວ່າພວກເຂົາ	-3771
US	-3772
out	-3773
ຄຣິດ	-3774
ຢ້ານ	-3775
▁XXL	-3776
▁ໂຄງ	-3777
ພຽງພໍ	-3778
ສະຈັນ	-3779
ເວລາດ	-3780
▁ເຫນີ	-3781
ເອີຣົບ	-3782
78	-3783
ລໍ	-3784
ເດດ	-3785
ທໍານ	-3786
ສັ້ນ	-3787
▁ຫມໍ	-3788
ຫຼີ້ນ	-3789
ໍາລຸງ	-3790
▁Tags	-3791
ຊັດເຈນ	-3792
▁ໂຄສົກ	-3793
ຄວາມຈິງ	-3794
ຮ້າຍແຮງ	-3795
AD	-3796
ກີ	-3797
ຕີກ	-3798
ຫົກ	-3799
້ຽວ	-3800
▁IP	-3801
▁ຣະ	-3802
ຄ້ວາ	-3803
ຄ້ານ	-3804
ຈ້າງ	-3805
ເກາະ	-3806
ເອັນ	-3807
▁ເມີ	-3808
▁2000	-3809
▁Technology	-3810
▁ຄວາມຄິດເຫັນທີ່	-3811
FC	-3812
fl	-3813
me	-3814
ກົນ	-3815
ບາກ	-3816
ພືດ	-3817
▁ໄຮ	-3818
ເວທີ	-3819
▁ດຶງ	-3820
▁ນຶກ	-3821
ໃນເວລາ	-3822
ສະມາຄົມ	-3823
ໃຫ້ທ່ານ	-3824
ຄຸນນະພາບສູງ	-3825
gl	-3826
ode	-3827
ump	-3828
ເບຍ	-3829
ໄຫຼ	-3830
ເລິກ	-3831
▁Des	-3832
▁ດວງ	-3833
ustom	-3834
ປະເມີນ	-3835
ພະຍາກອນ	-3836
ດີທີ່ສຸດ	-3837
ແລະອື່ນໆ	-3838
ແຄນ	-3839
▁ຈຸ	-3840
ຕື່ນ	-3841
▁ແກະ	-3842
▁ໂທດ	-3843
ວິຫານ	-3844
▁Comp	-3845
ສະຖາບັນ	-3846
ໃດກໍຕາມ	-3847
▁ທ່ານຈະ	-3848
▁ໃນວັນທີ	-3849
ຄໍາແນະນໍາ	-3850
ອໍານວຍການ	-3851
enn	-3852
ປີກ	-3853
ສວຍ	-3854
▁Zh	-3855
▁iP	-3856
atic	-3857
ilic	-3858
ຕະນາ	-3859
ແລ່ນ	-3860
ining	-3861
▁ເນີນ	-3862
ພວກເຮົາຈະ	-3863
▁ອາເມລິກາ	-3864
ພົນລະເມືອງ	-3865
sm	-3866
acc	-3867
▁AC	-3868
▁XX	-3869
▁fl	-3870
ຂອງໂລກ	-3871
ຕະຫລາດ	-3872
ວ່າລາວ	-3873
ດິຈິຕອນ	-3874
▁ເຫລົ່ານັ້ນ	-3875
ບູ	-3876
ກ່າ	-3877
ເທີງ	-3878
▁ເມຍ	-3879
ສະໄຫມ	-3880
ຊື້ຂາຍ	-3881
ສິລະປະ	-3882
ໂດຍກົງ	-3883
ກັນຂ້າມ	-3884
▁ມິຖຸນາ	-3885
ຄອມພິວເຕີ	-3886
ເຄື່ອງບິນ	-3887
ຜົນສໍາເລັດ	-3888
38	-3889
PS	-3890
ໄນ	-3891
ຝາກ	-3892
ພຸດ	-3893
ຣັດ	-3894
ວາຍ	-3895
ອດຕ	-3896
ເສບ	-3897
ingd	-3898
ເຄມີ	-3899
ແກັສ	-3900
Hebei	-3901
chain	-3902
ຊະນິດ	-3903
▁ຮ້ານ	-3904
ຮັບຮູ້	-3905
▁ຕາຕະລາງ	-3906
gen	-3907
ຂຽວ	-3908
ແຮ່	-3909
▁--	-3910
ບັດຕິ	-3911
ແຫນ້ນ	-3912
▁100%	-3913
▁ກ່ອງ	-3914
ທ້າທາຍ	-3915
ໂຮງງານ	-3916
ກັບຄວາມ	-3917
▁ຈໍາກັດ	-3918
ສະຖານະການ	-3919
ຈໍາເປັນຕ້ອງ	-3920
▁ລາຊະອານາຈັກ	-3921
▁າ	-3922
arm	-3923
lic	-3924
und	-3925
▁ຕູ້	-3926
ພາກສາ	-3927
ແນ່ໃຈ	-3928
▁ລາງວັນ	-3929
ື່ມວນຊົນ	-3930
▁ອຸນຫະພູມ	-3931
▁ໂດຍສະເພາະ	-3932
▁ຂອງພວກເຮົາ	-3933
44	-3934
IT	-3935
rop	-3936
ຂຸດ	-3937
ມຸດ	-3938
ແອນ	-3939
▁ທ້າ	-3940
▁ລິດ	-3941
▁ສະຖ	-3942
ຂັດແຍ	-3943
ຽບທຽບ	-3944
▁ຖິ່ນ	-3945
▁ຖິ້ມ	-3946
▁Fiber	-3947
▁ໄຟຟ້າ	-3948
ແບ່ງປັນ	-3949
ໄດ້ເຮັດ	-3950
ສໍາລັບມື້ນີ້	-3951
ຢ່າງກວ້າງຂວາງ	-3952
we	-3953
ars	-3954
uit	-3955
▁MH	-3956
▁Ne	-3957
port	-3958
▁Dav	-3959
▁LTD	-3960
utter	-3961
ອາຄານ	-3962
▁ເວັບ	-3963
ຂອບເຂດ	-3964
ທີ່ໃຊ້	-3965
ສູນເສຍ	-3966
▁ຮູບແບບ	-3967
▁ພະເຈົ້າ	-3968
▁ສິ່ງທີ່	-3969
ການເລືອກຕັ້ງ	-3970
ແສ	-3971
vel	-3972
ດຶງ	-3973
duct	-3974
ະຊວງ	-3975
ເດັນ	-3976
▁0086	-3977
▁Post	-3978
▁XXXL	-3979
▁ແຫ້ງ	-3980
witter	-3981
ຜິດພາດ	-3982
ໂດຍສານ	-3983
▁ເລືອດ	-3984
ຫຼຸດລົງ	-3985
▁ກໍານົດ	-3986
▁ດໍາລົງ	-3987
ກິດຈະກໍາ	-3988
ຫນຶ່ງຂອງ	-3989
▁ຍີ່ປຸ່ນ	-3990
▁ເລື້ອຍໆ	-3991
ES	-3992
ale	-3993
ຟ້ອງ	-3994
ລິ້ນ	-3995
▁Cam	-3996
ານນີ້	-3997
ໄປຍັງ	-3998
▁ເຕີບ	-3999
ການສອບ	-4000
ດີກວ່າ	-4001
ສະຫງົບ	-4002
້ານ້ອຍ	-4003
ຍຸດທະສາດ	-4004
▁ຢ້ຽມຢາມ	-4005
▁Shenzhen	-4006
IS	-4007
urn	-4008
▁ແວ	-4009
ລຸ້ນ	-4010
ເວລານ	-4011
▁ຍ້າຍ	-4012
▁ໂລຫະ	-4013
ບັນດານ	-4014
▁Block	-4015
ຫ້ອງການ	-4016
▁ສົງຄາມ	-4017
ດັ່ງນັ້ນ	-4018
▁Markets	-4019
ຕາເວັນຕົກ	-4020
▁ເຊິ່ງເປັນ	-4021
▁ການບໍລິການ	-4022
ID	-4023
ml	-4024
ຕິນ	-4025
▁ທຸ	-4026
▁ຜະ	-4027
idth	-4028
ີມິນ	-4029
▁ຢາງ	-4030
astic	-4031
ເລກທີ	-4032
▁Poly	-4033
ຖວ	-4034
ປາຍ	-4035
ໂຣບ	-4036
▁ph	-4037
ມະດາ	-4038
▁ຍົນ	-4039
▁ຫີນ	-4040
ຈີມິນ	-4041
▁Chang	-4042
ບໍລິໂພກ	-4043
ປົກປ້ອງ	-4044
ບັດຕິເຫດ	-4045
ົ໋	-4046
ath	-4047
ຄຽງ	-4048
ດອກ	-4049
ທືນ	-4050
ther	-4051
ປື້ມ	-4052
ປຶກສາ	-4053
▁ຫລານ	-4054
▁ເລິກ	-4055
ຕະຫຼອດ	-4056
ລາຍຊື່	-4057
ຮ່ຈີມິນ	-4058
ັ່ງກ່າວ	-4059
ເຜີຍແຜ່	-4060
ທີ່ໄດ້ຮັບ	-4061
ຫຼາຍທີ່ສຸດ	-4062
4,	-4063
ann	-4064
ໍ່າ	-4065
▁CH	-4066
▁ຫະ	-4067
.000	-4068
▁Nor	-4069
▁Port	-4070
▁ເກົ້າ	-4071
ຮູບເງົາ	-4072
ຮ່ວມກັນ	-4073
▁tattoo	-4074
▁ສົມບູນ	-4075
ຊາວຫນຸ່ມ	-4076
ການປັບປຸງ	-4077
ເຫລົ່ານີ້	-4078
ບັນດາປະເທດ	-4079
▁ປະເພດຜະລິດຕະພັນ	-4080
27	-4081
5)	-4082
rid	-4083
ດັດ	-4084
ຕີນ	-4085
ລອດ	-4086
ໂຍງ	-4087
▁ແນະ	-4088
ກວດກາ	-4089
▁Live	-4090
ທີ່ນີ້	-4091
ational	-4092
▁ຕາເວັນ	-4093
ເຊື່ອວ່າ	-4094
ຕູ້	-4095
ຫຼດ	-4096
ໂຕຣ	-4097
້ວມ	-4098
▁33	-4099
ales	-4100
ພະຫັດ	-4101
▁Holm	-4102
▁Soft	-4103
ອດຄ່ອງ	-4104
ເຕັກໂນໂລຢີ	-4105
-20	-4106
ຈອດ	-4107
ລິບ	-4108
▁ມິດ	-4109
ປະດິດ	-4110
ອດຕິງ	-4111
ຽວນີ້	-4112
▁ກ້ອນ	-4113
ຂອງນາງ	-4114
▁Guang	-4115
▁Laser	-4116
ຄໍາເຫັນ	-4117
▁ຕະຫຼອດ	-4118
ວິທະຍາໄລ	-4119
ຕໍ່ເນື່ອງ	-4120
):	-4121
uck	-4122
ຊ້ອນ	-4123
ຣິກາ	-4124
▁ສະລະ	-4125
▁ເສີມ	-4126
ມີສ່ວນ	-4127
ລະເມີດ	-4128
ໂຮງຫມໍ	-4129
ownload	-4130
▁ຕິດຕາມ	-4131
▁ສະຫນອງ	-4132
▁ໂທລະສັບມືຖື	-4133
ຂໍ້ມູນຂ່າວສານ	-4134
ເກີ	-4135
ແປກ	-4136
ປະໄຕ	-4137
ຢູ່ນ	-4138
ເຈັດ	-4139
▁ຝຶກ	-4140
▁ແພງ	-4141
▁West	-4142
▁ຟື້ນ	-4143
▁ເນັ້ນ	-4144
ມັນເປັນ	-4145
ອີກຄັ້ງ	-4146
ໃນເມືອງ	-4147
▁ທີ່ໄດ້	-4148
ise	-4149
oid	-4150
ປັກ	-4151
ound	-4152
ມະຫາ	-4153
▁600	-4154
▁Home	-4155
ບໍລິເວນ	-4156
ລັອດຕິງ	-4157
ໂດຍຜ່ານ	-4158
ຫຍຸ້ງຍາກ	-4159
▁ອັນຕະລາຍ	-4160
In	-4161
TC	-4162
REE	-4163
ify	-4164
osh	-4165
▁be	-4166
ຂົ່ມ	-4167
ຕື່ມ	-4168
▁800	-4169
▁Pin	-4170
ປະທັບ	-4171
▁ຫ່ວງ	-4172
ລວມທັງ	-4173
▁ຫລິ້ນ	-4174
▁ເຊື່ອມ	-4175
▁ປະສົບການ	-4176
ອະນຸຍາດໃຫ້	-4177
ປະທານນາທິບໍດີ	-4178
OR	-4179
yst	-4180
▁UV	-4181
ille	-4182
▁120	-4183
▁Pet	-4184
▁Web	-4185
▁ປານ	-4186
▁ລຸ້ນ	-4187
▁ເຫມີ	-4188
▁ແລ່ນ	-4189
ລັດເຊຍ	-4190
▁ອາຄານ	-4191
ການຮ້າຍ	-4192
▁ບຸກຄົນ	-4193
▁ຜູ້ຍິງ	-4194
▁ເຂົ້າຮ່ວມ	-4195
ຟໍ	-4196
ota	-4197
▁PR	-4198
▁ຊູ	-4199
ເວັບ	-4200
▁Mid	-4201
▁ຍຸດ	-4202
ustri	-4203
ເລືອດ	-4204
▁ເຊົາ	-4205
ຂັບລົດ	-4206
ຄັ້ງນີ້	-4207
ສົ່ງເສີມ	-4208
▁ຄວາມຫນາ	-4209
▁ພາກສ່ວນ	-4210
▁ເພື່ອໃຫ້	-4211
ແອວ	-4212
hone	-4213
read	-4214
ໄຫມ້	-4215
▁Dis	-4216
▁min	-4217
ຮ້ອງຂໍ	-4218
▁David	-4219
▁Press	-4220
▁ອາກາດ	-4221
ການປ່ອຍ	-4222
▁ຄຸນຄ່າ	-4223
▁ຫົວຂໍ້	-4224
ປະກອບສ່ວນ	-4225
ການກັ່ນຕອງ	-4226
▁ການຫຸ້ມຫໍ່	-4227
EN	-4228
over	-4229
ຍ່ອຍ	-4230
ສາລະ	-4231
▁ແປກ	-4232
ouble	-4233
ມານີ້	-4234
▁info	-4235
▁ຝຸ່ນ	-4236
ຜູ້ແທນ	-4237
hejiang	-4238
ປະກອບດ້ວຍ	-4239
ສະແດງຄວາມ	-4240
▁ໄດ້ຮັບການ	-4241
?—	-4242
ger	-4243
van	-4244
ຊົງ	-4245
ຍືນ	-4246
ລຸດ	-4247
ແມນ	-4248
▁ກວ	-4249
▁ໂພ	-4250
ອ້ອມ	-4251
ົ້ານ	-4252
▁400	-4253
▁ຄລິດ	-4254
▁ອ້າງ	-4255
າລະສານ	-4256
▁ຄາສິໂນ	-4257
▁ສາສະຫນາ	-4258
▁Suppliers	-4259
TA	-4260
nes	-4261
ates	-4262
eric	-4263
ited	-4264
ນິທິ	-4265
▁rep	-4266
ປະສານ	-4267
▁FREE	-4268
ທີ່ວ່າ	-4269
ມົນຕີກ	-4270
ໂຮງແຮມ	-4271
▁ສິດທິ	-4272
າທິບໍດີ	-4273
▁ໂຮງຮຽນ	-4274
ຄົ້ນຄ້ວາ	-4275
ການຮ່ວມມື	-4276
ແຟ	-4277
ດັງ	-4278
ນານ	-4279
ເຄນ	-4280
▁ລວງ	-4281
▁ສວຍ	-4282
▁ອົບ	-4283
ກວ່ານ	-4284
ຕໍ່ມາ	-4285
ປີນີ້	-4286
ເນັ້ນ	-4287
▁ເວັນ	-4288
ກັບຜູ້	-4289
▁Intern	-4290
ລາຍລະອຽດ	-4291
▁ນະໂຍບາຍ	-4292
▁ສະຫວ່າງ	-4293
▁ສາດສະດາ	-4294
▁ພວກເຂົາເຈົ້າ	-4295
yn	-4296
ທາ	-4297
eld	-4298
▁01	-4299
▁Hu	-4300
soft	-4301
ຸດທິ	-4302
ເສັງ	-4303
▁ເມດ	-4304
▁Dong	-4305
ັກຂ່າວ	-4306
ເກີນໄປ	-4307
ແຜ່ນດິນ	-4308
▁ພວກເຮົາຈະ	-4309
68	-4310
95	-4311
ຜະ	-4312
▁z	-4313
▁ທາ	-4314
▁Rou	-4315
▁com	-4316
▁1500	-4317
▁ເມັດ	-4318
▁ວິຫານ	-4319
▁ບໍ່ແມ່ນ	-4320
▁ພີ່ນ້ອງ	-4321
ຢ່າງຫນ້ອຍ	-4322
ເກັບຮັກສາ	-4323
ໃຫ້ພວກເຮົາ	-4324
oz	-4325
ຣດ	-4326
ິມ	-4327
▁ໆ	-4328
ຜິວ	-4329
ລ່າ	-4330
▁250	-4331
▁Fit	-4332
▁ນິດ	-4333
▁ບາຍ	-4334
▁ບຸນ	-4335
ພະຍົບ	-4336
ອິດສະ	-4337
ເຜົ່າ	-4338
▁ປ່ວຍ	-4339
▁Zhejiang	-4340
ຂອງພວກເຮົາແມ່ນ	-4341
CL	-4342
ts	-4343
els	-4344
▁HD	-4345
▁PVC	-4346
lette	-4347
ສະຕຽນ	-4348
ທິປະໄຕ	-4349
▁North	-4350
▁crypt	-4351
ຂອງມະນຸດ	-4352
ສົມບູນແບບ	-4353
ຕ້ອງການທີ່ຈະ	-4354
31	-4355
ime	-4356
ory	-4357
row	-4358
ush	-4359
ຄາວ	-4360
ຮົບ	-4361
ໂອນ	-4362
▁05	-4363
▁1:	-4364
ມະນາ	-4365
▁ຄ້າ	-4366
▁ມື້ນ	-4367
ບັນຍັດ	-4368
ພວກມັນ	-4369
▁ກໍລະນີ	-4370
ສະແຕນເລດ	-4371
▁ເປັນຫຍັງ	-4372
ເປັນທາງການ	-4373
ທີ່ໃຫຍ່ທີ່ສຸດ	-4374
CH	-4375
▁≤	-4376
ໂດດ	-4377
▁cl	-4378
ແທ້ໆ	-4379
▁ດັດ	-4380
agram	-4381
ຍັງມີ	-4382
ລະບາດ	-4383
ຈະຕ້ອງ	-4384
ທີ່ສູງ	-4385
▁ເຊົ້າ	-4386
▁ເວັ້ນ	-4387
▁ສັງເກດ	-4388
ordpress	-4389
▁ເງື່ອນໄຂ	-4390
ດໍາເນີນງານ	-4391
▁ການອອກແບບ	-4392
46	-4393
ley	-4394
ຍົງ	-4395
ທຽມ	-4396
▁55	-4397
▁ຫງ	-4398
▁ອິ	-4399
ອາຊີ	-4400
ເກົາ	-4401
ແຫ້ງ	-4402
▁ລົບ	-4403
▁ຫັນ	-4404
▁ແອນ	-4405
ກັບມາ	-4406
▁ທ້າວ	-4407
▁ໂທລະ	-4408
ທາງເພດ	-4409
ຂອງເຂົາ	-4410
ເບິ່ງຄື	-4411
▁ທີ່ບໍ່	-4412
▁ທັງຫລາຍ	-4413
ດຽວກັນກັບ	-4414
ການປະຕິບັດ	-4415
mp	-4416
”.	-4417
ull	-4418
ມວນ	-4419
ເຣຍ	-4420
ແກນ	-4421
▁en	-4422
fish	-4423
rack	-4424
ທະວີ	-4425
ຫຍັດ	-4426
ເປົ໋	-4427
ເສລີ	-4428
▁All	-4429
▁ອັບ	-4430
ຖ້າຫາກ	-4431
ໃນມື້ນີ້	-4432
▁ຂ້ານ້ອຍ	-4433
ກໍ່ການຮ້າຍ	-4434
▁QR	-4435
▁ໄທ	-4436
ຊີ້ນ	-4437
ະລັກ	-4438
▁ບິດ	-4439
▁ພວມ	-4440
▁2004	-4441
▁Gold	-4442
▁Stre	-4443
ບໍ່ໃຫ້	-4444
▁Pulse	-4445
ສ້າງສັນ	-4446
▁ສັກສິດ	-4447
........	-4448
▁Tattoos	-4449
ຄວາມເສຍຫາຍ	-4450
!!	-4451
47	-4452
CC	-4453
St	-4454
ເຫ	-4455
▁Net	-4456
ຕິພາບ	-4457
▁ຖ້ອຍ	-4458
▁ຫ່າງ	-4459
▁Shang	-4460
ພົບເຫັນ	-4461
ໃດຫນຶ່ງ	-4462
▁ບໍ່ໄດ້	-4463
ມັດສະການ	-4464
▁ກ່າວໂດຍ	-4465
ຂະຫຍາຍຕົວ	-4466
ເຊື່ອມໂຍງ	-4467
▁ເຄື່ອງຈັກ	-4468
▁ການປ່ຽນແປງ	-4469
ec	-4470
ຕານ	-4471
ເຫມ	-4472
▁CS	-4473
▁he	-4474
ວິໄຈ	-4475
ເຊີຍ	-4476
▁Ide	-4477
▁Par	-4478
▁ພືດ	-4479
ບານເຕະ	-4480
▁Mobile	-4481
▁ນັ້ນແມ່ນ	-4482
ຄວາມພະຍາຍາມ	-4483
▁ກ່ຽວກັບພວກເຮົາ	-4484
32	-4485
-10	-4486
ຝັງ	-4487
▁Up	-4488
▁le	-4489
▁ນົດ	-4490
▁ຮົບ	-4491
ຊອບແວ	-4492
ເຄືອບ	-4493
ກະຕຸ້ນ	-4494
ບົດບາດ	-4495
ອີງໃສ່	-4496
ກະສິກໍາ	-4497
ສິ້ນສຸດ	-4498
ເລັກນ້ອຍ	-4499
▁ບໍລິການ	-4500
ການຄວບຄຸມ	-4501
ໃນລະຫວ່າງ	-4502
ທີ່ເຫມາະສົມ	-4503
ສະຫະປະຊາຊາດ	-4504
BC	-4505
▁@	-4506
ute	-4507
ກະດ	-4508
ພັບ	-4509
▁Gl	-4510
ລຸ່ມ	-4511
ະຄອນ	-4512
ຸມັດ	-4513
ເດີມ	-4514
ebook	-4515
ລະວັງ	-4516
▁ຮ້ອຍ	-4517
ເສບຕິດ	-4518
ເຊື່ອຖື	-4519
ຈະເຮັດໃຫ້	-4520
▁Microsoft	-4521
ສິ່ງບາງຢ່າງ	-4522
▁ຂ້າພະເຈົ້າໄດ້	-4523
ຕູນ	-4524
▁3,	-4525
▁ຍະ	-4526
ener	-4527
ເທົາ	-4528
▁ຜົວ	-4529
▁ອາຍ	-4530
▁ລົ້ມ	-4531
ເອັດສ໌	-4532
▁ແຫຼ່ງ	-4533
ສະຫະພາບ	-4534
▁Online	-4535
▁ພຣະກິດ	-4536
ຕົວເມືອງ	-4537
▁ທັດສະນະ	-4538
ການລົງທຶນ	-4539
▁ລັດຖະມົນຕີ	-4540
ລູ	-4541
erv	-4542
ury	-4543
ສືກ	-4544
jian	-4545
ຫມາກ	-4546
▁CNC	-4547
▁Cop	-4548
▁ດອກ	-4549
▁2009	-4550
ສະຫຼອງ	-4551
ປະລິມານ	-4552
▁fabric	-4553
▁ສະເຫມີ	-4554
ເພີ່ມຂື້ນ	-4555
3,	-4556
OM	-4557
net	-4558
ສິງ	-4559
▁lo	-4560
ເຈລະ	-4561
ແຫນງ	-4562
▁PDF	-4563
▁ຊັງ	-4564
▁ວິກ	-4565
▁ຫົກ	-4566
ຈະນໍາ	-4567
ຊາກອນ	-4568
ັກນິກ	-4569
▁ອະນາ	-4570
ວິທະຍາ	-4571
▁ໃນຕອນ	-4572
▁ລູກຄ້າ	-4573
ສ້າງຕັ້ງ	-4574
ອົບພະຍົບ	-4575
je	-4576
rag	-4577
ກົມ	-4578
ະລາ	-4579
ໄຫລ	-4580
▁Cy	-4581
ເດິນ	-4582
ເຜົາ	-4583
▁+86	-4584
ພວກເຮ	-4585
▁Long	-4586
▁ປະສິດທິ	-4587
▁ເຮັດວຽກ	-4588
ສ່ວນບຸກຄົນ	-4589
-7	-4590
-9	-4591
OT	-4592
▁He	-4593
▁ສູດ	-4594
▁ຫມາ	-4595
ເລກຸນ	-4596
▁ນຸ່ງ	-4597
ແຜນການ	-4598
▁ບັນລຸ	-4599
ທາງອາກາດ	-4600
▁ແບ່ງປັນ	-4601
ສື່ມວນຊົນ	-4602
▁ເຈົ້າບໍ່	-4603
ປະຕິບັດຕາມ	-4604
▁ວິທະຍາສາດ	-4605
ຢ່າງໃດກໍ່ຕາມ	-4606
37	-4607
89	-4608
ohn	-4609
ott	-4610
ຄົບ	-4611
ໂຣກ	-4612
▁Ac	-4613
▁www	-4614
ສະຕິກ	-4615
ສະບາຍ	-4616
▁Asia	-4617
ການສົນ	-4618
ສັນຍານ	-4619
▁ເຫຼືອ	-4620
ຕາຕະລາງ	-4621
ພິພາກສາ	-4622
ສົນທະນາ	-4623
▁ທໍລະມານ	-4624
ສະຫນາມບິນ	-4625
▁ຄະນະກໍາມະການ	-4626
ວບ	-4627
ote	-4628
ຫວາ	-4629
ຫຼີ	-4630
▁su	-4631
ania	-4632
ouse	-4633
rist	-4634
ຂວັນ	-4635
ຫຸ້ນ	-4636
▁ທຽບ	-4637
▁ນົກ	-4638
▁ອາວ	-4639
ນິວເຄ	-4640
▁ລ່ວງ	-4641
ຊາຍແດນ	-4642
ສຸມໃສ່	-4643
▁Elect	-4644
ຈະໄດ້ຮັບ	-4645
▁ອະນຸຍາດ	-4646
▁ເດີນທາງ	-4647
ທົ່ວປະເທດ	-4648
ສະພາບແວດລ້ອມ	-4649
ບີ	-4650
den	-4651
lim	-4652
ole	-4653
ກຽດ	-4654
▁37	-4655
ຕຸລາ	-4656
▁Med	-4657
▁Win	-4658
▁ທານ	-4659
ອາການ	-4660
▁ແມັກ	-4661
ລາວໄດ້	-4662
ໃກ້ກັບ	-4663
▁ຖະຫນາ	-4664
▁ສະໄຫມ	-4665
▁ອັດຕາ	-4666
ustrial	-4667
ປະກອບມີ	-4668
▁Americ	-4669
ໃນປະຈຸບັນ	-4670
ຂອງປະຊາຊົນ	-4671
▁ໃນລະຫວ່າງ	-4672
▁Blockchain	-4673
▁ການທົບທວນຄືນ	-4674
IF	-4675
ຕ໌	-4676
ບຸ	-4677
any	-4678
ຈິນ	-4679
ລີນ	-4680
▁FX	-4681
ider	-4682
ປາໄສ	-4683
ັກສະ	-4684
▁20%	-4685
board	-4686
▁ທ້ອງ	-4687
▁ຫລຽວ	-4688
ທຸກຢ່າງ	-4689
ໄດ້ຢ່າງ	-4690
▁ອັງກິດ	-4691
▁Machine	-4692
▁ຂໍ້ຄວາມ	-4693
ຄວາມສົນໃຈ	-4694
ການສໍາຫຼວດ	-4695
ຮຽກຮ້ອງໃຫ້	-4696
ທີ່ຍິ່ງໃຫຍ່	-4697
65	-4698
GS	-4699
ປູ	-4700
lin	-4701
ລຶກ	-4702
ຮານ	-4703
▁Af	-4704
loem	-4705
vent	-4706
▁Tra	-4707
▁ຄຸມ	-4708
▁ຈົບ	-4709
▁ລືມ	-4710
ດົນຕີ	-4711
ອັງຄານ	-4712
▁Forex	-4713
ວັດສະດຸ	-4714
ເກັບກໍາ	-4715
ເຮືອບິນ	-4716
▁ອິນເດຍ	-4717
▁Samloem	-4718
ຄວາມເປັນຈິງ	-4719
▁ການພັດທະນາ	-4720
▁ເຕັກໂນໂລຊີ	-4721
ການຝຶກອົບຮົມ	-4722
go	-4723
ປິກ	-4724
ິ້ງ	-4725
▁ຖາ	-4726
ange	-4727
ນາທີ	-4728
ູມິນ	-4729
▁Mac	-4730
▁ຕ່ໍາ	-4731
▁ຮຸ່ນ	-4732
ສວຍງາມ	-4733
▁ປະຈັກ	-4734
▁ອະດີດ	-4735
ເຂົ້າໃນ	-4736
▁Minnes	-4737
ນໍາສະເຫນີ	-4738
ຫນັງສືພິມ	-4739
▁ການສຶກສາ	-4740
300	-4741
ape	-4742
ລາກ	-4743
ແທກ	-4744
ແປດ	-4745
▁Pe	-4746
▁ກູ	-4747
▁ລຶກ	-4748
ຄືກັບ	-4749
່ອງໄວ	-4750
▁ແຂ່ງ	-4751
▁ທັນທີ	-4752
ນໍ້າມັນ	-4753
ການປ້ອງກັນ	-4754
▁ການກັ່ນຕອງ	-4755
49	-4756
ກູ	-4757
oss	-4758
ບົນ	-4759
ິມະ	-4760
▁2.	-4761
ຊຶ່ງ	-4762
ພາຍຸ	-4763
ເຕົາ	-4764
▁Off	-4765
▁ແອວ	-4766
ຕິກໍາ	-4767
ຕົວຈິງ	-4768
▁ກໍາມະ	-4769
▁ຫົວໃຈ	-4770
ຫນ້າຂອງ	-4771
▁ສະເພາະ	-4772
▁ອອນໄລນ໌	-4773
ໃນທົ່ວໂລກ	-4774
ທີ່ເຮັດໃຫ້	-4775
ລະຫວ່າງປະເທດ	-4776
ຂ້າພະເຈົ້າໄດ້	-4777
3.	-4778
uy	-4779
▁Ge	-4780
ript	-4781
ເນີດ	-4782
ໂຫວາ	-4783
▁ຍຶດ	-4784
ມີຜູ້	-4785
ວັດຖຸ	-4786
ເສົ້າ	-4787
▁Wall	-4788
▁ຫງວຽນ	-4789
▁ໃນຖານະ	-4790
ດ້ວຍຄວາມ	-4791
%.	-4792
ke	-4793
pr	-4794
vey	-4795
ella	-4796
ນຸ່ງ	-4797
▁Jet	-4798
▁ແຜ່	-4799
▁ໃດໆ	-4800
ຂົ່ມຂ	-4801
ຄືກັນ	-4802
▁ຂົ່ມ	-4803
▁ດື່ມ	-4804
ingdao	-4805
ຍືນຍົງ	-4806
ມາເຖິງ	-4807
▁ສີແດງ	-4808
ໂຄງສ້າງ	-4809
▁ທີ່ຖືກ	-4810
▁ວິນຍານ	-4811
ຫມາຍຄວາມ	-4812
ການອອກແບບ	-4813
ເອົາໃຈໃສ່	-4814
▁ເປັນຄວາມ	-4815
ພວກເຮົາໄດ້	-4816
ມົນຕີກະຊວງ	-4817
ອຸບັດຕິເຫດ	-4818
xy	-4819
eth	-4820
umb	-4821
ຜົມ	-4822
ມະນ	-4823
ຢອກ	-4824
▁Qu	-4825
▁ບູ	-4826
ence	-4827
ital	-4828
▁Art	-4829
▁Oce	-4830
▁ຟ້າ	-4831
▁ແຂນ	-4832
▁ໂຮມ	-4833
ພວກເຂ	-4834
ພະຈິກ	-4835
▁Heng	-4836
▁ປ່ອງ	-4837
▁ສັ້ນ	-4838
▁ຫນອງ	-4839
ທີມງານ	-4840
ສະຫມອງ	-4841
▁ໃນນັ້ນ	-4842
ຄັດເລືອກ	-4843
ປະເພດຂອງ	-4844
ທ່ານສາມາດ	-4845
ເລື່ອງນີ້	-4846
▁ກິດຈະກໍາ	-4847
ງວນລິຂະສິດ	-4848
ທີ່ໃຊ້ເວລາ	-4849
ຈະໄດ້ຮັບການ	-4850
34	-4851
ກ໊	-4852
ave	-4853
urg	-4854
ຖຽງ	-4855
▁ne	-4856
▁ມໍ	-4857
▁OEM	-4858
▁Sch	-4859
▁ວາວ	-4860
▁ຫັດ	-4861
ຫນ່າຍ	-4862
ໍານານ	-4863
▁Road	-4864
ຊັບສິນ	-4865
ບາງຄົນ	-4866
ປົກຄອງ	-4867
▁ຊື່ສັດ	-4868
ໂດຍສະເພາະ	-4869
▁ເວັບໄຊທ໌	-4870
ທີ່ມີຊື່ສຽງ	-4871
▁ນະມັດສະການ	-4872
ຊວນ	-4873
ຣານ	-4874
ີ້ມ	-4875
ເປີ	-4876
ເມນ	-4877
ແຍງ	-4878
▁ຫໍ	-4879
/201	-4880
ກ້ອນ	-4881
ຫາລື	-4882
▁Cor	-4883
▁che	-4884
▁ມາກ	-4885
ກະກຽມ	-4886
ອະດີດ	-4887
▁Line	-4888
▁Play	-4889
▁ອາໄສ	-4890
▁ແກ້ວ	-4891
ຄັ້ງທີ	-4892
ນັກຮຽນ	-4893
ວມເອົາ	-4894
ວິນຍານ	-4895
ອົງກອນ	-4896
ສຸກເສີນ	-4897
▁Qingdao	-4898
▁ປ້ອງກັນ	-4899
▁ຈຸດປະສົງ	-4900
▁Minnesota	-4901
3)	-4902
hu	-4903
rew	-4904
ຕົງ	-4905
ລຸກ	-4906
ແຂນ	-4907
▁ແຮ	-4908
ຄ່ໍາ	-4909
ອາວະ	-4910
▁She	-4911
▁ຄົບ	-4912
▁ເລກ	-4913
▁http	-4914
▁ຊ່ວງ	-4915
▁ຖ່ອມ	-4916
ູມິນຽມ	-4917
ໄຊຊະນະ	-4918
▁ຂະບວນ	-4919
▁ສະບາຍ	-4920
ທໍລະມານ	-4921
້ວານນີ້	-4922
▁Charter	-4923
ທີ່ດີເລີດ	-4924
ສໍານັກງານ	-4925
▁ການຜະລິດ	-4926
ຊັບພະຍາກອນ	-4927
ເກັບຂີ້ຝຸ່ນ	-4928
▁ຢ່າງໃດກໍຕາມ	-4929
.,	-4930
ma	-4931
ng	-4932
sc	-4933
ຟິ	-4934
dle	-4935
ລາງ	-4936
ົານ	-4937
▁ບຸ	-4938
ຊື່ນ	-4939
ເບີກ	-4940
ຈິດໃຈ	-4941
ເປົ໋າ	-4942
ຊຸກຍູ້	-4943
ຜູ້ໃຊ້	-4944
ຟື້ນຟູ	-4945
▁ແກ້ໄຂ	-4946
ອາວະກາດ	-4947
ເຫັນວ່າ	-4948
▁ຂະຫຍາຍ	-4949
▁Plastic	-4950
ຄວາມສະອາດ	-4951
ຖືກນໍາໃຊ້	-4952
ເຄື່ອງພິມ	-4953
ບາງສິ່ງບາງຢ່າງ	-4954
4)	-4955
lt	-4956
ອສ	-4957
pcs	-4958
ທອນ	-4959
ລໍ້	-4960
ໄກ່	-4961
▁38	-4962
▁61	-4963
▁Me	-4964
ເອັມ	-4965
▁Dri	-4966
ducts	-4967
ລະພາບ	-4968
▁2012	-4969
▁Star	-4970
້ວາງໃຈ	-4971
▁ເຫຼັກ	-4972
ບໍ່ເຄີຍ	-4973
ປະຊາທິປະໄຕ	-4974
▁ໃບຢັ້ງຢືນ	-4975
oy	-4976
ຣນ	-4977
lug	-4978
ຊີນ	-4979
▁am	-4980
▁cm	-4981
ular	-4982
vers	-4983
▁70%	-4984
ກິດຈະ	-4985
ຕະວັດ	-4986
ທິພົນ	-4987
▁ຊ່ອງ	-4988
▁reply	-4989
ຍົກເລີກ	-4990
▁wordpress	-4991
▁ຖ້າຫາກວ່າທ່ານ	-4992
69	-4993
BS	-4994
າວະ	-4995
shop	-4996
▁con	-4997
ຕະການ	-4998
ວິຈານ	-4999
ເນເຊຍ	-5000
ເປົ່າ	-5001
▁ສະຫມ	-5002
ຜູ້ຍິງ	-5003
ໂຕຣນິກ	-5004
▁ພະຍາດ	-5005
▁ເຕົ້າ	-5006
▁Street	-5007
▁ທົດລອງ	-5008
ຕັ້ງແຕ່ປີ	-5009
▁ພຣະວິຫານ	-5010
▁ຫຍຸ້ງຍາກ	-5011
ເລັກໂຕຣນິກ	-5012
▁ປະຫວັດສາດ	-5013
▁ປະສິດທິພາບ	-5014
",	-5015
ເຊນ	-5016
▁AS	-5017
▁Br	-5018
▁Ed	-5019
ດື່ມ	-5020
ເລ່ຍ	-5021
▁Red	-5022
▁des	-5023
▁ຄອງ	-5024
ພັນທະ	-5025
▁ທະນາ	-5026
ຂອງຄົນ	-5027
ຕັ້ງໃຈ	-5028
ປະເຊີນ	-5029
ສະຖິຕິ	-5030
▁Certs	-5031
▁ສະອາດ	-5032
▁ຂອງການ	-5033
▁ຕໍ່ສູ້	-5034
▁ເອກະສານ	-5035
▁ປະຕິບັດຕາມ	-5036
ຍົກລັດຖະມົນຕີ	-5037
ໄດ້ຮັບບາດເຈັບ	-5038
51	-5039
Sh	-5040
ຕື	-5041
shan	-5042
ຊີວະ	-5043
ສະນີ	-5044
▁Pay	-5045
▁ຊັດ	-5046
▁ດັງ	-5047
▁ອຸດ	-5048
urren	-5049
ຕັນຍູ	-5050
▁Word	-5051
ຕະເວັນ	-5052
ຕໍ່ກັບ	-5053
ລອນດອນ	-5054
ບົດຄວາມ	-5055
▁ພື້ນຖານ	-5056
▁ເອກະຊົນ	-5057
▁Download	-5058
▁Shanghai	-5059
ຄວາມກົດດັນ	-5060
ປະສິດທິຜົນ	-5061
▁ຄລິດສະຕຽນ	-5062
ໂທລະສັບມືຖື	-5063
:0	-5064
mer	-5065
oud	-5066
rol	-5067
▁DC	-5068
▁ແສ	-5069
ຫຼີກ	-5070
▁Gro	-5071
▁Spe	-5072
▁ທະນ	-5073
ative	-5074
ພິບັດ	-5075
ຫົວໃຈ	-5076
ເພິ່ນ	-5077
▁Fran	-5078
▁ການຄ້າ	-5079
▁ລໍາບາກ	-5080
▁ແລະມັນ	-5081
ລົງທະບຽນ	-5082
▁Twitter	-5083
▁ຂັ້ນຕອນ	-5084
ຂອງລູກຄ້າ	-5085
▁International	-5086
LC	-5087
MC	-5088
ໂຟ	-5089
bal	-5090
cel	-5091
pro	-5092
ຊາກ	-5093
▁Bi	-5094
ctor	-5095
ກັ້ນ	-5096
ຖ້ວມ	-5097
ໃຊ້ງ	-5098
▁ດູດ	-5099
ໄປທີ່	-5100
▁Shop	-5101
▁ເຈັດ	-5102
ຄຸນຄ່າ	-5103
ຕະຫລອດ	-5104
▁Dress	-5105
▁admin	-5106
▁ນ້ອຍໆ	-5107
ໂດເນເຊຍ	-5108
▁ພາຍໃຕ້	-5109
ເຢຍລະມັນ	-5110
▁ຈັດຕັ້ງ	-5111
▁ພື້ນທີ່	-5112
▁ຄຸນນະພາບ	-5113
▁ຕ່າງໆທີ່	-5114
▁ການລົງທຶນ	-5115
▁ການແຂ່ງຂັນ	-5116
ອົງການຈັດຕັ້ງ	-5117
48	-5118
67	-5119
▁້	-5120
app	-5121
ose	-5122
vin	-5123
ຊະນ	-5124
ຍາດ	-5125
▁ຣາ	-5126
▁HGH	-5127
▁ກອບ	-5128
▁ບົບ	-5129
▁ຜົງ	-5130
ingle	-5131
ເຫຼີມ	-5132
ແຫລ່ງ	-5133
▁ເຢັນ	-5134
ຖະແຫຼງ	-5135
▁ຄະແນນ	-5136
▁ເຖົ້າ	-5137
▁ເປົ່າ	-5138
ນິວຊີແລນ	-5139
ໃນຂົງເຂດ	-5140
▁ປະລິມານ	-5141
ຄ້າຍຄືກັນ	-5142
▁ນອກຈາກນີ້	-5143
▁ສໍານັກງານ	-5144
▁ເລີ່ມຕົ້ນ	-5145
ສ້າງຕັ້ງຂຶ້ນ	-5146
ໃນການແຂ່ງຂັນ	-5147
ips	-5148
ven	-5149
www	-5150
ຜັນ	-5151
ເຊວ	-5152
▁48	-5153
▁PP	-5154
▁ຕູ	-5155
▁Bel	-5156
▁Rel	-5157
9001,	-5158
ivers	-5159
ຫລາຍໆ	-5160
▁John	-5161
ທົດແທນ	-5162
▁motor	-5163
▁ພວກເຮ	-5164
urrency	-5165
ນັກຂ່າວ	-5166
▁Bitcoin	-5167
▁ຄວາມສູງ	-5168
▁ທະນາຄານ	-5169
ກົງກັນຂ້າມ	-5170
▁ພວກເຮົາສາມາດ	-5171
ໄດ	-5172
ING	-5173
iao	-5174
ier	-5175
ຄອບ	-5176
ດົມ	-5177
ວານ	-5178
ຫາດ	-5179
▁ຣິ	-5180
-201	-5181
່ວັນ	-5182
▁Hot	-5183
▁Mod	-5184
ified	-5185
irtual	-5186
ແມ່ນມີ	-5187
▁ພາຍໃນ	-5188
ຫຼວງຫຼາຍ	-5189
▁ຮຽກຮ້ອງ	-5190
ຂອງຕົນເອງ	-5191
ເບື້ອງຕົ້ນ	-5192
▁ອົດສະຕາລີ	-5193
ຶມ	-5194
key	-5195
ເປນ	-5196
▁We	-5197
ings	-5198
umin	-5199
work	-5200
ຖ່ານ	-5201
ໂນ້ມ	-5202
▁ຕຶກ	-5203
▁ເປີ	-5204
elash	-5205
irect	-5206
quare	-5207
ຍາບັນ	-5208
ທີສາມ	-5209
ເຊົ່າ	-5210
▁Cont	-5211
ນີ້ໄດ້	-5212
ຜ່າຕັດ	-5213
ວ່ອງໄວ	-5214
▁laser	-5215
▁ກວ້າງ	-5216
ຍີ່ປຸ່ນ	-5217
▁ຫນຶ່ງໃນ	-5218
ລົງຄະແນນສຽງ	-5219
▁ຍິນດີຕ້ອນຮັບ	-5220
1.	-5221
AP	-5222
TF	-5223
App	-5224
lor	-5225
ors	-5226
ຂີ່	-5227
ລອຍ	-5228
ແຕກ	-5229
້ຽນ	-5230
▁4,	-5231
▁CE	-5232
olor	-5233
ທະຍຸ	-5234
ສບຸກ	-5235
ຫນູນ	-5236
▁Ant	-5237
▁ດອງ	-5238
▁ທູດ	-5239
▁ທົບ	-5240
ລິນຍາ	-5241
ເສື້ອ	-5242
▁ອາຊີ	-5243
▁ແລ້ງ	-5244
ookies	-5245
ລາຍໄດ້	-5246
ອາຍແກັສ	-5247
▁ຢູ່ທີ່	-5248
ເບິ່ງແຍງ	-5249
ອຸປະກອນການ	-5250
ຄໍາຮ້ອງສະຫມັກ	-5251
EL	-5252
MS	-5253
esh	-5254
ຍາຍ	-5255
▁at	-5256
▁is	-5257
▁wh	-5258
▁ໂຮ	-5259
ford	-5260
raph	-5261
ກາເຟ	-5262
ດ່ວນ	-5263
ຕໍ່າ	-5264
ບ່າຍ	-5265
ໄຟລ໌	-5266
▁ກົມ	-5267
▁ຊານ	-5268
▁ດັນ	-5269
ວຸດທິ	-5270
ວິສະວະ	-5271
າຍຄວາມ	-5272
ຸງແຕ່ງ	-5273
▁ດົນຕີ	-5274
ນ້ໍາຫນັກ	-5275
▁ສະມາຄົມ	-5276
ທີ່ຖືກຕ້ອງ	-5277
ເຫຼີມສະຫຼອງ	-5278
▁ອັດຕະໂນມັດ	-5279
ຟາ	-5280
top	-5281
ພອນ	-5282
ເອີ	-5283
ibbe	-5284
oooo	-5285
ລາວກ	-5286
ເມັດ	-5287
ໃຊ້ອ	-5288
▁17,	-5289
▁USB	-5290
▁ຄຸກ	-5291
▁ປັນ	-5292
ຈຸລັງ	-5293
▁Miss	-5294
▁Zone	-5295
ສອງສາມ	-5296
ສະທ້ອນ	-5297
ອັບເດດ	-5298
▁ເຄິ່ງ	-5299
acebook	-5300
ທີ່ເກີດ	-5301
ປະຈໍາປີ	-5302
ປະຊາກອນ	-5303
ປະຕິວັດ	-5304
ຫຼ້າສຸດ	-5305
▁ເຢໂຫວາ	-5306
▁ສຸຂະພາບ	-5307
▁ເຄື່ອງຕັດ	-5308
ຄວາມຫມັ້ນຄົງ	-5309
ຂອງຜະລິດຕະພັນ	-5310
ຕົ	-5311
iam	-5312
ຊັກ	-5313
ປາດ	-5314
▁ac	-5315
▁ຈັນ	-5316
▁ຊັກ	-5317
▁ທອງ	-5318
ປະຫານ	-5319
ພະຍານ	-5320
ອຸດົມ	-5321
ລິມປິກ	-5322
ລົງນາມ	-5323
ສະຫະພັນ	-5324
▁ຕັ້ງແຕ່	-5325
▁ບົດຄວາມ	-5326
▁ຮ່າໂນ້ຍ	-5327
ocurrency	-5328
▁ການເດີນທາງ	-5329
▁ຫນ້າທາງການ	-5330
▁ໃນປັດຈຸບັນ	-5331
PP	-5332
▁{	-5333
ids	-5334
red	-5335
coot	-5336
ideo	-5337
▁Rik	-5338
▁res	-5339
▁ຄົມ	-5340
▁ຜິວ	-5341
▁ຮາກ	-5342
ຈະໄດ້	-5343
ລະປິນ	-5344
ອິຣັກ	-5345
ໄວ້ໃນ	-5346
▁Pack	-5347
ຍີ່ຫໍ້	-5348
▁ຂອບໃຈ	-5349
▁ປັນຍາ	-5350
ຮ່ວມກັບ	-5351
ຄວາມສ່ຽງ	-5352
ອາດສາມາດ	-5353
▁ໃນປະເທດ	-5354
ປະຕິບັດງານ	-5355
ແກ້ໄຂບັນຫາ	-5356
▁Industrial	-5357
ພວກເຮົາສາມາດ	-5358
ຢ່າງຕໍ່ເນື່ອງ	-5359
66	-5360
ມໍ	-5361
ຣູ	-5362
raw	-5363
ທອງ	-5364
ລາສ	-5365
ອົດ	-5366
ເນີ	-5367
▁ໄອ	-5368
ລົ້ນ	-5369
ໂປແກ	-5370
ໂຫຼດ	-5371
▁Gal	-5372
▁ກຽມ	-5373
▁ປີກ	-5374
▁ຜູກ	-5375
ອດແລນ	-5376
ແນໃສ່	-5377
▁Tian	-5378
ການສູນ	-5379
ກໍາຈັດ	-5380
ປະຫຍັດ	-5381
ສະຖານີ	-5382
▁ການສະ	-5383
▁ແລະມີ	-5384
ຮ່າໂນ້ຍ	-5385
▁ແມ່ຍິງ	-5386
ບົດລາຍງານ	-5387
ຜົນໄດ້ຮັບ	-5388
▁ປັດຈຸບັນ	-5389
▁ເສດຖະກິດ	-5390
▁ວັດທະນະທໍາ	-5391
▁ສະບັບເລກທີ	-5392
ການຊໍາລະເງິນ	-5393
▁ແນວໃດກໍ່ຕາມ	-5394
ຄວາມເປັນສ່ວນຕົວ	-5395
1)	-5396
BA	-5397
ade	-5398
ett	-5399
ext	-5400
ມິນ	-5401
ລວງ	-5402
ຫລີ	-5403
ແຈກ	-5404
▁CP	-5405
▁Uk	-5406
ກ່ອງ	-5407
ພໍໃຈ	-5408
▁ເບີ	-5409
.2018	-5410
enoid	-5411
ition	-5412
▁ມ່ວນ	-5413
ທົນທານ	-5414
ພຣະອົງ	-5415
ໃຊ້ງານ	-5416
ສອດຄ່ອງ	-5417
ກ້າວຫນ້າ	-5418
ຫນ່ວຍງານ	-5419
▁ບໍລິສຸດ	-5420
ຕັ້ງຢູ່ໃນ	-5421
ບໍ່ມີຄວາມ	-5422
າວິສາຫະກິດ	-5423
79	-5424
8,	-5425
ໂຮ	-5426
ane	-5427
ray	-5428
ຕາງ	-5429
ຖີບ	-5430
▁7,	-5431
▁cs	-5432
ຫນາວ	-5433
ອຸ່ນ	-5434
ື້ອນ	-5435
▁Tri	-5436
▁ກົນ	-5437
▁ໂຕ້	-5438
asino	-5439
ລໍຖ້າ	-5440
▁Copy	-5441
▁ເກາະ	-5442
▁ໂຫລດ	-5443
ການສືບ	-5444
ບໍ່ດົນ	-5445
ມິຖຸນາ	-5446
ເຫັນດີ	-5447
ໂລແມັດ	-5448
ໄປບ່ອນ	-5449
ຈະສາມາດ	-5450
ໄດ້ກ່າວ	-5451
▁ຄັ້ງທີ	-5452
▁ຄໍາຕອບ	-5453
ທີ່ມີຢູ່	-5454
ນັ້ນແມ່ນ	-5455
ອົງປະກອບ	-5456
ຕື່ນເຕັ້ນ	-5457
ຄອມພິວເຕີ້	-5458
ເພື່ອເຮັດໃຫ້	-5459
▁ຕິດຕໍ່ຕອນນີ້	-5460
ຄີ	-5461
ຖີ່	-5462
ລີກ	-5463
ວີດ	-5464
▁ຄໍ	-5465
▁ແຟ	-5466
▁ໃຫ	-5467
Tube	-5468
ເລັງ	-5469
▁1.5	-5470
▁ຂົນ	-5471
▁ດອນ	-5472
▁ລຸກ	-5473
ມີແສງ	-5474
▁ແຈ່ມ	-5475
ການສື່	-5476
ຊີ້ຂາດ	-5477
ຮັບໃຊ້	-5478
ໄດ້ຍິນ	-5479
▁Green	-5480
▁ມີຄ່າ	-5481
▁ຈາກການ	-5482
▁ເຈົ້າກໍ	-5483
ຂອງສະຫະລັດ	-5484
ທີ່ບໍ່ແມ່ນ	-5485
ໃນການຜະລິດ	-5486
▁ຜູ້ສະຫນອງ	-5487
▁ເພີ່ມຂຶ້ນ	-5488
ຢ່າງເປັນທາງການ	-5489
6)	-5490
ML	-5491
ຝົນ	-5492
ພີມ	-5493
▁6,	-5494
▁65	-5495
amic	-5496
ິຍົມ	-5497
ືກສາ	-5498
▁ປົດ	-5499
▁ແປດ	-5500
▁Vacc	-5501
▁poly	-5502
▁ຄວ້າ	-5503
▁ຫລີກ	-5504
ສໍາພາດ	-5505
ຸນເງິນ	-5506
▁Light	-5507
▁Super	-5508
ບໍລິຈາກ	-5509
ຢູ່ເທິງ	-5510
ເຂົ້າໄປ	-5511
ເວລານັ້ນ	-5512
▁ປະເທດຈີນ	-5513
▁ແຕ່ລະຄົນ	-5514
▁ຮັບຜິດຊອບ	-5515
ປະທານາທິບໍດີ	-5516
ພວກເຂົາເຈົ້າ	-5517
isc	-5518
ມຸມ	-5519
ໂຮມ	-5520
▁34	-5521
▁95	-5522
ster	-5523
ນ້ອງ	-5524
▁ປ່າ	-5525
▁ອົກ	-5526
ນ້ອຍໆ	-5527
ເຈັບປ	-5528
▁ໂດລາ	-5529
▁https	-5530
ມີຊີວິດ	-5531
ສັງເຄາະ	-5532
▁ແຮງດັນ	-5533
ກວ່ານັ້ນ	-5534
ງົບປະມານ	-5535
ສະພາບການ	-5536
▁ປິ່ນປົວ	-5537
ຂໍ້ຕົກລົງ	-5538
ຄຸນສົມບັດ	-5539
ເປັນໄປໄດ້	-5540
▁ເຊິ່ງໄດ້	-5541
ການສົນທະນາ	-5542
ຄວາມຮູ້ສຶກ	-5543
ມີສ່ວນຮ່ວມ	-5544
ຄວາມຄິດເຫັນ	-5545
".	-5546
nc	-5547
ຍາະ	-5548
rica	-5549
ປ່ຽງ	-5550
ວິກິ	-5551
ສະຫຼະ	-5552
▁Mini	-5553
▁Mold	-5554
▁ຫມອງ	-5555
▁ຫຼວດ	-5556
ibbean	-5557
▁width	-5558
ຫ່າງຈາກ	-5559
ບໍ່ມີການ	-5560
ໃນອະນາຄົດ	-5561
▁Caribbean	-5562
▁Instagram	-5563
ການຄົ້ນຄວ້າ	-5564
-15	-5565
ava	-5566
ດຸນ	-5567
ເລນ	-5568
ເວດ	-5569
ific	-5570
rate	-5571
ກ້ອງ	-5572
ຫະນະ	-5573
▁Mon	-5574
▁gal	-5575
ville	-5576
ຕະພາບ	-5577
ຟຣິກາ	-5578
ສາເຫດ	-5579
ົາລົບ	-5580
▁Flat	-5581
▁ປ້າຍ	-5582
▁ເກີບ	-5583
▁ເຊັນ	-5584
ສະເລ່ຍ	-5585
ໃກ້ຊິດ	-5586
▁ຊອບແວ	-5587
ເຖິງການ	-5588
ໃຫ້ຄວາມ	-5589
ການປົກຄອງ	-5590
ໄປຢ້ຽມຢາມ	-5591
ເຮັດໃຫ້ເກີດ	-5592
▁ນັບຕັ້ງແຕ່	-5593
Hz	-5594
ຕຸ	-5595
ປະຖ	-5596
ຟອມ	-5597
▁39	-5598
▁as	-5599
▁ຈີ	-5600
ling	-5601
ມກາງ	-5602
▁220	-5603
▁ຕີນ	-5604
▁ຖຽງ	-5605
▁ນາດ	-5606
▁ພິວ	-5607
ກ້ວາງ	-5608
▁ໂຫຍດ	-5609
ຄາສິໂນ	-5610
ດໍາລົງ	-5611
ບໍ່ແຮ່	-5612
▁Whats	-5613
ກໍ່ຕັ້ງ	-5614
ທັດສະນະ	-5615
▁Middle	-5616
▁ມັນໄດ້	-5617
ຄາດວ່າຈະ	-5618
▁Roulette	-5619
ກ່ຽວຂ້ອງກັບ	-5620
ການຕ່າງປະເທດ	-5621
ທີ່ກ່ຽວຂ້ອງກັບ	-5622
6,	-5623
uts	-5624
ດົກ	-5625
ມອນ	-5626
ຢັດ	-5627
▁9:	-5628
▁>>	-5629
atal	-5630
oint	-5631
ມີນາ	-5632
ຫຍໍ້	-5633
▁19,	-5634
▁ຄາວ	-5635
▁ຢາມ	-5636
▁ໂຈມ	-5637
enter	-5638
raine	-5639
▁ທໍານ	-5640
▁ເຕົາ	-5641
ສາມຄົນ	-5642
ໃຊ້ໄດ້	-5643
ໂທລະພາບ	-5644
▁Africa	-5645
▁ຄວບຄຸມ	-5646
▁ໃນເວລາ	-5647
ມັດລະວັງ	-5648
▁ຕໍາຫຼວດ	-5649
▁ທຸລະກິດ	-5650
▁ຫນ້າທີ່	-5651
▁ເສັ້ນໃຍ	-5652
ການສື່ສານ	-5653
▁ໄດ້ປະກາດ	-5654
ຜູ້ຊ່ຽວຊານ	-5655
ໄບ	-5656
ari	-5657
sul	-5658
ແມ້	-5659
່ຽມ	-5660
perb	-5661
ylon	-5662
ສະດີ	-5663
▁jet	-5664
▁pre	-5665
▁ຄັດ	-5666
▁ເຕກ	-5667
ຍາບານ	-5668
▁ລະດູ	-5669
ການຂາຍ	-5670
ມັງກອນ	-5671
ຫນ້າຈໍ	-5672
ໍລະດົກ	-5673
▁ກະທົບ	-5674
ainless	-5675
ບ່ອນທີ່	-5676
ເອກະລັກ	-5677
ແລະເປັນ	-5678
ໃຫ້ເປັນ	-5679
ຂ້າງເທິງ	-5680
ນະສົມບັດ	-5681
▁ອະນາຄົດ	-5682
ການທົດລອງ	-5683
▁ມັນສາມາດ	-5684
▁ການປະຕິບັດ	-5685
▁ທີ່ດີທີ່ສຸດ	-5686
▁ສະແດງໃຫ້ເຫັນ	-5687
PC	-5688
kw	-5689
ດດ	-5690
-19	-5691
.”—	-5692
isa	-5693
ກົວ	-5694
▁Sw	-5695
rade	-5696
ຫຍຸດ	-5697
▁110	-5698
▁Bas	-5699
▁RFC	-5700
▁ຂີ່	-5701
▁ຄອນ	-5702
▁ເຊີ	-5703
clone	-5704
asting	-5705
ຖືກຈັບ	-5706
ແປພາສາ	-5707
▁Other	-5708
▁ອາລົມ	-5709
▁ເລົ່າ	-5710
ຄາດຫວັງ	-5711
ຕ້ອງໄດ້	-5712
ສິ່ງນີ້	-5713
ເທົ່າໃດ	-5714
ເພາະວ່າ	-5715
ແຫນງການ	-5716
▁Square	-5717
▁ເບື້ອງ	-5718
ຈໍາຫນ່າຍ	-5719
ປັກຮັກສາ	-5720
▁Vaccine	-5721
▁ເຫລື້ອມ	-5722
▁ໄດ້ກ່າວ	-5723
▁Software	-5724
▁ນອກຈາກນັ້ນ	-5725
ທີ່ມີປະສິດທິພາບ	-5726
OL	-5727
OW	-5728
cer	-5729
oto	-5730
▁(5	-5731
▁8:	-5732
▁Kh	-5733
izer	-5734
ooth	-5735
rick	-5736
ນາດາ	-5737
ຫມຶກ	-5738
ໂທຫາ	-5739
▁Ext	-5740
▁ຄຽດ	-5741
▁ຊົງ	-5742
▁ຝັນ	-5743
▁ອັກ	-5744
▁ໂອບ	-5745
ໃນທາງ	-5746
cooter	-5747
ສົມທົບ	-5748
ໄປດ້ວຍ	-5749
▁Email	-5750
▁ວັດຖຸ	-5751
ກວມເອົາ	-5752
ກໍາເນີດ	-5753
ບໍລິສຸດ	-5754
ປະທັບໃຈ	-5755
ໃນລະດັບ	-5756
ໃຫ້ເກີດ	-5757
▁Dining	-5758
▁iPhone	-5759
▁ກະຕຸ້ນ	-5760
▁ບໍາລຸງ	-5761
ໄດ້ປະກາດ	-5762
▁ພ້ອມທັງ	-5763
ກອງກໍາລັງ	-5764
▁ຄ່າໃຊ້ຈ່າຍ	-5765
▁ໄດ້ເວົ້າວ່າ	-5766
OP	-5767
▁\	-5768
ces	-5769
ner	-5770
ກອບ	-5771
ກຸມ	-5772
ຶ້ງ	-5773
▁ວີ	-5774
ພາວະ	-5775
ລ່ວງ	-5776
▁cor	-5777
▁ແຍງ	-5778
-2018	-5779
ອາຈານ	-5780
▁ຍື່ນ	-5781
▁ຫລອດ	-5782
▁ເຂັມ	-5783
andong	-5784
ພາກໃຕ້	-5785
ລົງທືນ	-5786
ໃຫ້ນັກ	-5787
▁ຄູ່ມື	-5788
ຂ້ອຍໄດ້	-5789
ຈັດຂຶ້ນ	-5790
ປະຊາຄົມ	-5791
ສ່ວນຂອງ	-5792
▁Double	-5793
▁Single	-5794
▁ຄົນທີ່	-5795
ຍຸດຕິທໍາ	-5796
ລະບົບການ	-5797
ເປັນສ່ວນ	-5798
▁Ukraine	-5799
▁ກະຕັນຍູ	-5800
ບໍ່ພຽງແຕ່	-5801
▁Americas	-5802
ສາທາລະນະສຸກ	-5803
▁ຜູ້ອໍານວຍການ	-5804
ays	-5805
fly	-5806
its	-5807
rum	-5808
ຈື່	-5809
ວາວ	-5810
ອີ້	-5811
ແຄມ	-5812
▁ຂາ	-5813
▁ຈໍ	-5814
ຊັ່ນ	-5815
ເປົາ	-5816
▁Pan	-5817
▁iOS	-5818
▁ຊິດ	-5819
▁ດາບ	-5820
▁Best	-5821
▁yarn	-5822
▁ກ້ອງ	-5823
▁ຊິ້ນ	-5824
▁ຫລຸດ	-5825
ສະຫມຸດ	-5826
ສື່ສານ	-5827
ອີກວ່າ	-5828
ແຮງດັນ	-5829
ຕ້ານທານ	-5830
ພາລະກິດ	-5831
ເດິນທາງ	-5832
ແຕ່ລະຄົນ	-5833
▁Oceania	-5834
▁YouTube	-5835
▁Products	-5836
▁ດັ່ງກ່າວ	-5837
▁ຜົນກະທົບ	-5838
▁ແມ່ນຫຍັງ	-5839
ຈໍານວນຫລາຍ	-5840
ຂໍ້ມູນເພີ່ມເຕີມ	-5841
IP	-5842
aj	-5843
oth	-5844
ກວນ	-5845
ກະທ	-5846
ສີດ	-5847
▁2:	-5848
▁5:	-5849
▁ຕຸ	-5850
dong	-5851
ຮົ່ວ	-5852
▁app	-5853
▁ກະທ	-5854
ransp	-5855
ທັນວາ	-5856
ສີຂາວ	-5857
▁ຄຣິດ	-5858
▁ຫມັກ	-5859
▁ເລີ່	-5860
ພົບກັບ	-5861
າກຫຼາຍ	-5862
ີ້ແມ່ນ	-5863
▁China	-5864
▁ນໍາພາ	-5865
ວັດທະນາ	-5866
perbaric	-5867
ຕິດເຊື້ອ	-5868
ເຈົ້າຂອງ	-5869
ແນ່ໃຈວ່າ	-5870
▁Rikoooo	-5871
ກ່ອນທີ່ຈະ	-5872
▁ຄວາມກົດດັນ	-5873
▁ພວກເຂົາໄດ້	-5874
72	-5875
emb	-5876
ize	-5877
ຈີ່	-5878
ຊີດ	-5879
ບິດ	-5880
▁Is	-5881
▁sk	-5882
gden	-5883
ດູແລ	-5884
ຸລັກ	-5885
▁ແດນ	-5886
ກຸມພາ	-5887
ພະແນກ	-5888
▁ເລີດ	-5889
▁ເສີນ	-5890
ທໍາມະນ	-5891
ຜູ້ຄົນ	-5892
ານາຊາດ	-5893
ຂອງກຸ່ມ	-5894
ທີ່ແລ້ວ	-5895
ຜ່ານການ	-5896
ຫລາຍຄົນ	-5897
▁ຜູ້ຊາຍ	-5898
▁ສູງສຸດ	-5899
▁ໃຫ້ການ	-5900
ເຫນືອຂອງ	-5901
▁Shopify	-5902
▁ສະຖາບັນ	-5903
▁ໃນເມືອງ	-5904
ບັງຄັບໃຊ້	-5905
ສາຍການບິນ	-5906
ເປັນເລື່ອງ	-5907
61	-5908
ft	-5909
ij	-5910
ຶບ	-5911
iet	-5912
iff	-5913
ຟິກ	-5914
ໂມນ	-5915
໊ອບ	-5916
▁3:	-5917
▁ສິ	-5918
.0.2	-5919
ance	-5920
ຫົ່ມ	-5921
ເສີດ	-5922
ໄວວາ	-5923
▁Tur	-5924
▁ພູມ	-5925
▁ໂຣກ	-5926
ກໍາໄລ	-5927
ລະດົມ	-5928
▁86-5	-5929
▁Serv	-5930
▁Tube	-5931
▁ຫວັນ	-5932
bygden	-5933
ມາກ່ອນ	-5934
ລົງໂທດ	-5935
ເຈລະຈາ	-5936
▁Video	-5937
ຄວາມຜິດ	-5938
ຈົດຫມາຍ	-5939
ຕາງຫນ້າ	-5940
ສາລະເອວ	-5941
ເນື້ອໃນ	-5942
▁ຄອມພິວ	-5943
▁ດຽວນີ້	-5944
▁ນັກຮຽນ	-5945
ຢ່າງເຕັມ	-5946
ສ້າງຄວາມ	-5947
ເອົາຊະນະ	-5948
▁ຈາກນັ້ນ	-5949
▁ພິທີການ	-5950
ຂອງໂຄງການ	-5951
ພາຍໃນປະເທດ	-5952
ຂໍ້ມູນກ່ຽວກັບ	-5953
▁ມະຫາວິທະຍາໄລ	-5954
.’	-5955
84	-5956
SS	-5957
ຈ໌	-5958
aud	-5959
box	-5960
pos	-5961
ຜັງ	-5962
ພານ	-5963
າມີ	-5964
▁AU	-5965
▁PM	-5966
▁kr	-5967
▁ຣີ	-5968
arin	-5969
ຕືລື	-5970
▁ຝົນ	-5971
▁ລັນ	-5972
▁ແພດ	-5973
ກັນຍາ	-5974
ລະຄອນ	-5975
ຫຼາຍໆ	-5976
▁ຖານະ	-5977
terest	-5978
ພົບວ່າ	-5979
້ອມແປງ	-5980
vanized	-5981
ຕະນາການ	-5982
ລະດູການ	-5983
ອະນຸມັດ	-5984
້ອງຖ່າຍ	-5985
▁Server	-5986
▁spring	-5987
▁ກັນດານ	-5988
ຊົນເຜົ່າ	-5989
ສາສະຫມັກ	-5990
ຫຼາຍຢ່າງ	-5991
▁bitcoin	-5992
▁ທ່ານຮອງ	-5993
▁ທໍາມະດາ	-5994
ຖະແຫຼງການ	-5995
ແນວຄວາມຄິດ	-5996
▁ເອົາໃຈໃສ່	-5997
ທີ່ເກີດຂື້ນ	-5998
ທີ່ສົມບູນແບບ	-5999
7,	-6000
ຟີ	-6001
aff	-6002
ink	-6003
ros	-6004
ຣີດ	-6005
▁(0	-6006
▁(2	-6007
▁ປິ	-6008
aper	-6009
ອາເມ	-6010
▁Can	-6011
▁Opt	-6012
▁ຈອງ	-6013
▁ວາດ	-6014
▁ໂຈນ	-6015
ຍິນດີ	-6016
▁ທະເລ	-6017
ບໍ່ຮູ້	-6018
ມວນຜົນ	-6019
ສະຫຼຸບ	-6020
ເຫມືອງ	-6021
▁ເຄືອບ	-6022
ອ້າງວ່າ	-6023
ເອກະຊົນ	-6024
ແຕ່ງງານ	-6025
ໄພພິບັດ	-6026
ຈັນຍາບັນ	-6027
ທັນສະໄຫມ	-6028
ທໍາມະນູນ	-6029
▁ຂ່າວສານ	-6030
▁ຈົດຫມາຍ	-6031
▁ຕໍາຫລວດ	-6032
▁ເຈົ້າມີ	-6033
ຜ່າສູນກາງ	-6034
ຢູ່ທີ່ນີ້	-6035
ໃບອະນຸຍາດ	-6036
ທີ່ຕ້ອງການ	-6037
IA	-6038
ຖ່	-6039
ຮາ	-6040
uss	-6041
ຂັງ	-6042
ຜູກ	-6043
ລີ່	-6044
ົ່ນ	-6045
▁3.	-6046
▁ໄບ	-6047
ຕ່ອງ	-6048
ປ່ວຍ	-6049
▁ໄຫລ	-6050
edust	-6051
ໂມສອນ	-6052
ໄອແລນ	-6053
▁ສາຂາ	-6054
▁ສາມີ	-6055
່ວັນທີ	-6056
▁Solut	-6057
▁sales	-6058
ຂຶ້ນກັບ	-6059
ພຶດສະພາ	-6060
ພ້ອມກັບ	-6061
ເຕັກນິກ	-6062
ໂມເລກຸນ	-6063
້ອນຂ້າງ	-6064
▁ບັງຄັບ	-6065
utterfly	-6066
ກົດລະບຽບ	-6067
ທີ່ສວຍງາມ	-6068
ປະດິດສ້າງ	-6069
ເຮັດແນວໃດ	-6070
ດ້ານວິຊາການ	-6071
▁ການກໍ່ສ້າງ	-6072
ຫໍ	-6073
AMI	-6074
con	-6075
raz	-6076
ບອດ	-6077
ແລງ	-6078
ແອບ	-6079
▁SK	-6080
▁Sn	-6081
iant	-6082
ness	-6083
ລັອກ	-6084
▁11%	-6085
▁mod	-6086
▁ກີດ	-6087
▁ແຫລ	-6088
ature	-6089
oster	-6090
ຍຸໂຣບ	-6091
ົນທາງ	-6092
▁ຈະມີ	-6093
▁ຜ່ອນ	-6094
▁ສະຫຼ	-6095
▁ອານາ	-6096
ທໍານຽມ	-6097
ວັດແທກ	-6098
ເດັກຍິງ	-6099
ໂທລະທັດ	-6100
▁ມື້ນີ້	-6101
▁ປະຈຸບັນ	-6102
▁ນອກເຫນືອ	-6103
▁ບົດລາຍງານ	-6104
▁Holmbygden	-6105
ເປັນເຈົ້າຂອງ	-6106
▁ປະທານນາທິບໍດີ	-6107
SD	-6108
345	-6109
ati	-6110
bon	-6111
ild	-6112
rui	-6113
ຫວນ	-6114
ໂສ້	-6115
▁Fe	-6116
▁OD	-6117
ປ່ອງ	-6118
ເດີນ	-6119
ແຫວງ	-6120
▁Ben	-6121
▁ຄານ	-6122
▁ແງ່	-6123
Press	-6124
veyor	-6125
ຂອງປີ	-6126
ທັກສະ	-6127
▁Arch	-6128
▁ທ່ຽວ	-6129
▁ຫຼີກ	-6130
▁ຮ້າງ	-6131
▁ເຍີ້	-6132
ດຶງດູດ	-6133
ສະຫວັນ	-6134
ສັບສົນ	-6135
▁ບາງທີ	-6136
▁ສັດຕູ	-6137
▁ຫລາຍໆ	-6138
▁ອົງສາ	-6139
ພະຍາບານ	-6140
ເລື້ອຍໆ	-6141
▁ປະຫລາດ	-6142
▁ສະທ້ອນ	-6143
ທີ່ຢູ່ໃນ	-6144
ເຊັ່ນກັນ	-6145
▁Youjian	-6146
▁cookies	-6147
▁ປະຕິເສດ	-6148
▁ພາຍຫຼັງ	-6149
▁ຮູບເງົາ	-6150
▁ແຕກຕ່າງ	-6151
ຜິດກົດຫມາຍ	-6152
▁Stainless	-6153
▁ເຫຼົ່ານີ້	-6154
ທາງການເມືອງ	-6155
▁ລາວກ່າວວ່າ	-6156
▁ນັກຄົ້ນຄວ້າ	-6157
QS	-6158
au	-6159
ັຍ	-6160
.10	-6161
alt	-6162
inj	-6163
itt	-6164
off	-6165
▁1/	-6166
▁85	-6167
▁AM	-6168
▁hy	-6169
▁ຊິ	-6170
9002	-6171
acks	-6172
ເກີບ	-6173
▁Cap	-6174
▁Rob	-6175
▁ກະດ	-6176
▁ຜ່າ	-6177
▁ສົດ	-6178
ຟໍເນຍ	-6179
ັ່ງມີ	-6180
ິສຖານ	-6181
ເທືອນ	-6182
▁Blog	-6183
▁Cage	-6184
▁ຫຼຸດ	-6185
▁ເຈ້ຍ	-6186
▁ເຍາະ	-6187
ກອງທຶນ	-6188
ຢູ່ກັບ	-6189
▁ອຸດົມ	-6190
▁ແລະໃນ	-6191
ຂຸດຄົ້ນ	-6192
ຄຸນະພາບ	-6193
▁ທັງສອງ	-6194
▁ພຣະຄໍາ	-6195
ຫລາຍຂື້ນ	-6196
ຫຼາກຫຼາຍ	-6197
ໃນເລື່ອງ	-6198
▁ເປັນຜູ້	-6199
ແສງສະຫວ່າງ	-6200
▁Polyester	-6201
▁ກ່ຽວກັບການ	-6202
▁cryptocurrency	-6203
43	-6204
?”	-6205
໊ກ	-6206
▁·	-6207
ere	-6208
oph	-6209
▁DN	-6210
▁El	-6211
▁FA	-6212
▁ດຣ	-6213
▁ນຸ	-6214
rans	-6215
ທ້າວ	-6216
▁ຕັນ	-6217
▁ບາກ	-6218
▁ມົມ	-6219
▁ເກດ	-6220
▁ໂຊກ	-6221
ystem	-6222
ຄວນຈະ	-6223
ຫນ່ວງ	-6224
ໄດ້ມີ	-6225
▁FAMI	-6226
▁ຫມວດ	-6227
▁ເສົາ	-6228
ທ່ານຈະ	-6229
▁Ideas	-6230
▁Smart	-6231
ວ່າດ້ວຍ	-6232
ໄດ້ເຫັນ	-6233
▁ກ້າຫານ	-6234
▁ສະຫນາມ	-6235
ຕືລືລົ້ນ	-6236
ຕໍ່ໄປນີ້	-6237
ບັນດານັກ	-6238
▁Fitting	-6239
▁ບ່ອນທີ່	-6240
ທາງສັງຄົມ	-6241
▁Shandong	-6242
▁ຕໍາແຫນ່ງ	-6243
ການກໍ່ສ້າງ	-6244
ເຄື່ອງຫມາຍ	-6245
▁ການຄວບຄຸມ	-6246
▁ຄວາມສາມາດ	-6247
▁ໂດຍທົ່ວໄປ	-6248
ຫມາຍຄວາມວ່າ	-6249
ເຊັ່ນດຽວກັນ	-6250
ສະແດງໃຫ້ເຫັນວ່າ	-6251
CE	-6252
KW	-6253
sk	-6254
ວໍ	-6255
▁	-6256
ຊ່າ	-6257
ຍາມ	-6258
ຣີນ	-6259
▁FS	-6260
▁or	-6261
▁ຍ່	-6262
rush	-6263
ະນີ້	-6264
ໄຮໂດ	-6265
▁ຍອດ	-6266
▁ປັກ	-6267
▁ຝັງ	-6268
▁ພິນ	-6269
▁ເອີ	-6270
allet	-6271
uxury	-6272
▁ຫວອດ	-6273
▁ຫ້າມ	-6274
ຂອງພັກ	-6275
ຈະແຈ້ງ	-6276
ຜູ້ຊົມ	-6277
ລໍາດັບ	-6278
ວົງຈອນ	-6279
▁ມາສູ່	-6280
▁ໄດ້ມີ	-6281
ຕ່ອງໂສ້	-6282
▁Machin	-6283
▁ອອກແບບ	-6284
ສ່ວນຫຼາຍ	-6285
▁ຂະນະທີ່	-6286
▁ກໍາມະການ	-6287
▁ຊື່ງເປັນ	-6288
▁Pinterest	-6289
▁ເປົ້າຫມາຍ	-6290
,,	-6291
/0	-6292
MM	-6293
ທໍ	-6294
ອຟ	-6295
▁ໍ	-6296
alk	-6297
olt	-6298
uff	-6299
ຄົວ	-6300
ໂອ້	-6301
▁($	-6302
▁CD	-6303
▁NO	-6304
anta	-6305
reak	-6306
ມ່ວນ	-6307
ລະຍາ	-6308
ເຊົາ	-6309
▁(1)	-6310
▁20,	-6311
▁ນາມ	-6312
▁ປຸກ	-6313
ights	-6314
ວບລວມ	-6315
ເກົ້າ	-6316
▁Page	-6317
▁ເກົາ	-6318
eramic	-6319
igital	-6320
ການປັບ	-6321
ຕົວເລກ	-6322
ໃນຫ້ອງ	-6323
▁Games	-6324
▁ເພິ່ງ	-6325
limited	-6326
ດາວໂຫລດ	-6327
ທິດສະດີ	-6328
ຫມັ້ນໃຈ	-6329
▁Design	-6330
▁ມົນທົນ	-6331
▁ຢືນຢັນ	-6332
ຄົນຫນຶ່ງ	-6333
ປະມວນຜົນ	-6334
ເຄາະຮ້າຍ	-6335
▁ເຄືອຂ່າຍ	-6336
ສະເຫຼີມສະຫຼອງ	-6337
7)	-6338
8)	-6339
SP	-6340
ym	-6341
gor	-6342
ດວງ	-6343
ຝັນ	-6344
ເອດ	-6345
ໂບດ	-6346
▁ST	-6347
azon	-6348
ຄ່ອຍ	-6349
ສະໄຕ	-6350
ຫລຸດ	-6351
▁0.1	-6352
▁4.0	-6353
▁ຂຸດ	-6354
▁2003	-6355
▁ຄຸ້ມ	-6356
▁ຖ່າຍ	-6357
▁ທ່ອງ	-6358
▁ເຕີມ	-6359
▁ເອັດ	-6360
ການໃຊ້	-6361
ຄິດໄລ່	-6362
ຄໍາຕອບ	-6363
ຍັງໄດ້	-6364
ສະນັ້ນ	-6365
▁Group	-6366
▁ພວກເຂ	-6367
▁ມັນມີ	-6368
ເປັນນັກ	-6369
▁ບົດບາດ	-6370
▁ສະຫລາດ	-6371
▁ໂຮງແຮມ	-6372
ການໂຈມຕີ	-6373
ສ້າງຂື້ນ	-6374
ເຂົ້າສູ່	-6375
ໂຮ່ຈີມິນ	-6376
▁Univers	-6377
▁ລາວກ່າວ	-6378
▁ລ້ານໂດລາ	-6379
▁ສະພາບການ	-6380
▁ອັດສະຈັນ	-6381
ສະພາບອາກາດ	-6382
ແລະເຮັດໃຫ້	-6383
້ອງຖ່າຍຮູບ	-6384
ຕິດຕໍ່ຕອນນີ້	-6385
▁ແລະຫຼັງຈາກນັ້ນ	-6386
.)	-6387
An	-6388
OC	-6389
iy	-6390
▁‘	-6391
res	-6392
uri	-6393
ລະນ	-6394
ເມຍ	-6395
ໂຍນ	-6396
▁4:	-6397
▁9,	-6398
▁bl	-6399
ທ້ອງ	-6400
ປ້າຍ	-6401
ຮົ້ວ	-6402
▁10%	-6403
▁130	-6404
▁61%	-6405
▁Key	-6406
▁ປຽບ	-6407
▁ໄຫວ	-6408
aster	-6409
ກະດູກ	-6410
ນະບົດ	-6411
ພີມມາ	-6412
ອີຣັກ	-6413
▁ມະຕະ	-6414
▁ຢູ່ນ	-6415
▁ຫນາວ	-6416
ilicon	-6417
ຂະແຫນງ	-6418
ຊື່ວ່າ	-6419
ເຫຼືອງ	-6420
▁ອາວຸດ	-6421
ຂັດແຍ້ງ	-6422
ຄົນເຈັບ	-6423
ມະນາຄົມ	-6424
ອຸດສາຫະ	-6425
ແຄນນາດາ	-6426
ແນວໂນ້ມ	-6427
▁ສາທາລະ	-6428
▁ເອີຣົບ	-6429
ຄະແນນສຽງ	-6430
▁ຂໍຂອບໃຈ	-6431
▁ຍຸຕິທໍາ	-6432
▁ຕໍ່ຫນ້າ	-6433
ການສອບສວນ	-6434
ຜູ້ໂດຍສານ	-6435
▁ໃຫ້ຮູ້ວ່າ	-6436
ຮັກສາຄວາມປອດໄພ	-6437
64	-6438
ຮໍ	-6439
led	-6440
ຮອຍ	-6441
ເມດ	-6442
ເລີ	-6443
▁CR	-6444
▁PL	-6445
▁ໂຢ	-6446
ຫິມະ	-6447
▁Aut	-6448
▁Fer	-6449
▁Jin	-6450
▁San	-6451
▁Sou	-6452
▁ຄຽງ	-6453
▁ປາຍ	-6454
▁ປູກ	-6455
▁ມຸມ	-6456
▁ຮຸນ	-6457
glass	-6458
ປານໃດ	-6459
ລວມມີ	-6460
ລະບາຍ	-6461
▁Case	-6462
▁ເມີດ	-6463
▁ເວທີ	-6464
▁ແຄ້ນ	-6465
ຜົນງານ	-6466
ມາເປັນ	-6467
ເສຍຄ່າ	-6468
▁2018,	-6469
▁Cheat	-6470
ຂັດແຍ່ງ	-6471
ຂາທິການ	-6472
ຫຼັກຖານ	-6473
▁Custom	-6474
▁ແມ່ນມີ	-6475
ການພະນັນ	-6476
ຂ້ອນຂ້າງ	-6477
ຍັງສາມາດ	-6478
▁Hengrui	-6479
ຂອງເຄື່ອງ	-6480
ເລືອກເອົາ	-6481
▁ການແກ້ໄຂ	-6482
▁ດ້ວຍຄວາມ	-6483
▁ນັກສຶກສາ	-6484
ເຄື່ອນຍ້າຍ	-6485
ການເຊື່ອມຕໍ່	-6486
ຄວາມຄິດສ້າງສັນ	-6487
59	-6488
IR	-6489
ຮູ	-6490
▁?	-6491
▁—	-6492
ຖັງ	-6493
ນິດ	-6494
ເທນ	-6495
▁Ab	-6496
▁La	-6497
▁MT	-6498
▁an	-6499
▁ເຝ	-6500
ຈໍາລ	-6501
▁One	-6502
▁Xin	-6503
▁ທຶນ	-6504
▁ນຸດ	-6505
▁ຣັດ	-6506
▁ສູບ	-6507
▁ຮອຍ	-6508
▁ໄຕ່	-6509
eless	-6510
ement	-6511
ນີ້ຈະ	-6512
ໃນຮອບ	-6513
ໃຫ້ມີ	-6514
▁ພົ້ນ	-6515
▁ມະຫາ	-6516
▁ຝຣັ່ງ	-6517
ຈັດສົ່ງ	-6518
ຊາຍຝັ່ງ	-6519
ຊົ່ວຄາວ	-6520
ດ້ານການ	-6521
ເປັນຄົນ	-6522
ເວລາດົນ	-6523
▁Provin	-6524
ຝຣັ່ງເສດ	-6525
ສັນຕິພາບ	-6526
ຂໍ້ມູນທີ່	-6527
▁ຄວາມປອດໄພ	-6528
ທີ່ເປັນໄປໄດ້	-6529
IV	-6530
800	-6531
ret	-6532
ຍຸກ	-6533
▁5,	-6534
▁At	-6535
▁CF	-6536
▁II	-6537
ible	-6538
ives	-6539
ເກີ້	-6540
ເບິນ	-6541
▁10:	-6542
▁24,	-6543
▁Box	-6544
▁Cle	-6545
▁Inc	-6546
ປະຢັດ	-6547
ສະກັດ	-6548
▁Comm	-6549
▁Hang	-6550
▁ບິດາ	-6551
▁ລຸ່ມ	-6552
▁ຫນາມ	-6553
ສອບສວນ	-6554
ແລະບໍ່	-6555
ແລະໄດ້	-6556
▁ລະບຽບ	-6557
ກໍລະກົດ	-6558
ເຄົາລົບ	-6559
ເຈັບປວດ	-6560
▁ການາດາ	-6561
▁ຍອມຮັບ	-6562
ຫນູນຊ່ວຍ	-6563
ອິດທິພົນ	-6564
ໃຫ້ມີການ	-6565
▁ວາລະສານ	-6566
▁ຄວາມຫມາຍ	-6567
▁ສະລັອດຕິງ	-6568
CN	-6569
EA	-6570
ກຸ	-6571
TFE	-6572
oon	-6573
ທືກ	-6574
ຟອດ	-6575
ຸໂສ	-6576
ແນະ	-6577
້ວຍ	-6578
▁44	-6579
▁UK	-6580
▁UN	-6581
▁ຜີ	-6582
iver	-6583
ຄອບຄ	-6584
າວອນ	-6585
ເພນີ	-6586
ໍານິ	-6587
▁ຈັງ	-6588
▁ຊ້າ	-6589
▁ບັບ	-6590
▁ສາກ	-6591
▁ແຖວ	-6592
cript	-6593
ປູເຈຍ	-6594
ລະລາຍ	-6595
ອາຊຽນ	-6596
ກາກບອນ	-6597
ທຸກຍາກ	-6598
ອະນາໄມ	-6599
ສິລະປິນ	-6600
ຫຼາຍຄົນ	-6601
ແມ່ນຖືກ	-6602
▁ລະເບີດ	-6603
▁ສໍານຶກ	-6604
▁ໂຮງງານ	-6605
ເວັບໄຊຕ໌	-6606
▁ເຂົ້າມາ	-6607
ສັງເກດການ	-6608
ໃນພື້ນທີ່	-6609
▁Province	-6610
▁ເກົ້າອີ້	-6611
▁ເຈົ້າຂອງ	-6612
▁ໃນມື້ນີ້	-6613
▁WordPress	-6614
▁ວິສາຫະກິດ	-6615
▁ການປິ່ນປົວ	-6616
▁ກຸ່ມນະໂຍບາຍ	-6617
▁ເຊັ່ນດຽວກັນກັບ	-6618
5,	-6619
ji	-6620
ຼມ	-6621
755	-6622
osm	-6623
▁4.	-6624
▁Ha	-6625
▁pe	-6626
▁tr	-6627
▁ຟູ	-6628
char	-6629
view	-6630
color	-6631
ength	-6632
ສີຂຽວ	-6633
▁High	-6634
▁with	-6635
▁ຜູ້ນ	-6636
▁ຫຼຽນ	-6637
▁ເບີກ	-6638
ກັນແລະ	-6639
ທຽບໃສ່	-6640
ບັນທຸກ	-6641
ພາຫະນະ	-6642
▁ເດັ່ນ	-6643
ຕັ້ງຄ່າ	-6644
ນີ້ເປັນ	-6645
▁Dedust	-6646
▁lovers	-6647
▁ຕົວແທນ	-6648
▁ທ່ານນາງ	-6649
▁ແມ່ນໄດ້	-6650
ການພົວພັນ	-6651
ໃບຢັ້ງຢືນ	-6652
▁WhatsApp	-6653
▁ຂຽນເມື່ອ	-6654
▁ແທນທີ່ຈະ	-6655
ຄົມມະນາຄົມ	-6656
▁Hyperbaric	-6657
▁ພວກເຮົາມີຄວາມ	-6658
4:	-6659
71	-6660
mg	-6661
to	-6662
▁`	-6663
amb	-6664
ແຖວ	-6665
▁8,	-6666
▁EV	-6667
▁Gh	-6668
▁ID	-6669
▁ເຣ	-6670
gram	-6671
mail	-6672
ຫວານ	-6673
ເບົາ	-6674
ເມສາ	-6675
▁Ari	-6676
▁ທໍ້	-6677
ນະລັດ	-6678
ບັນຊາ	-6679
▁APEC	-6680
▁Mill	-6681
▁PTFE	-6682
▁ຄ່ອຍ	-6683
▁ລ້ອມ	-6684
▁ຮຸ່ງ	-6685
ຊີ້ນໍາ	-6686
ບໍາລຸງ	-6687
ພູເຂົາ	-6688
ພໍ່ແມ່	-6689
ມະເລັງ	-6690
ສືບສວນ	-6691
ະລັດຖະ	-6692
ໂອ້ລົມ	-6693
▁ມັນຈະ	-6694
ໃນບັນດາ	-6695
ໃນແຕ່ລະ	-6696
ໃຫມ່ຂອງ	-6697
▁Alumin	-6698
▁Golden	-6699
▁ນາງໄດ້	-6700
▁ສະຖານີ	-6701
▁ແຜນຜັງ	-6702
ຊະນະເລີດ	-6703
ສິນເຊື່ອ	-6704
▁ຄວາມທຸກ	-6705
▁ປາຖະຫນາ	-6706
▁ເຂົ້າໃຈ	-6707
ຈັດອັນດັບ	-6708
ວັດທະນາການ	-6709
▁ທີ່ໃຊ້ເວລາ	-6710
ທີ່ທ່ານສາມາດ	-6711
ທີ່ໄດ້ຮັບການ	-6712
▁ບັນຊີຜະລິດຕະພັນ	-6713
MA	-6714
vc	-6715
ຍືດ	-6716
ຜັດ	-6717
ຫັກ	-6718
ເຄີ	-6719
ແກະ	-6720
ແພ້	-6721
▁42	-6722
▁Tr	-6723
▁ຟີ	-6724
form	-6725
ກະແສ	-6726
ຈົ່ງ	-6727
ຊ້ໍາ	-6728
ຫລານ	-6729
▁900	-6730
▁ແກນ	-6731
ຄູ່ມື	-6732
ຕະກໍາ	-6733
ເລັ່ງ	-6734
▁3000	-6735
▁Iron	-6736
▁mold	-6737
▁ຂວັນ	-6738
ທິດທາງ	-6739
້ໍາມັນ	-6740
ວ່າຈະມີ	-6741
ຫຼັກສູດ	-6742
▁ເຟສບຸກ	-6743
ransposh	-6744
ຢ່າງໄວວາ	-6745
▁ນ້ໍາມັນ	-6746
▁ພາສາລາວ	-6747
ການບໍລິຫານ	-6748
ຊີ້ໃຫ້ເຫັນ	-6749
▁ຄອມພິວເຕີ	-6750
uc	-6751
ົສ	-6752
ໂຫ	-6753
als	-6754
gan	-6755
ບວກ	-6756
ປົດ	-6757
sung	-6758
ຍ້ອງ	-6759
▁Ass	-6760
▁per	-6761
▁ຮຽກ	-6762
▁ເຊຍ	-6763
▁ປື້ມ	-6764
▁ປຸ່ມ	-6765
▁ສະຫລ	-6766
▁ເຫັງ	-6767
▁ແຫວງ	-6768
rading	-6769
ການສັງ	-6770
ແນວຄິດ	-6771
▁Theme	-6772
▁ຊອກຫາ	-6773
▁ປະພຶດ	-6774
ຖ່ານຫີນ	-6775
ຜູ້ໃຫຍ່	-6776
▁Center	-6777
▁ກາງຄືນ	-6778
▁ຄົ້ນຫາ	-6779
▁ຈະເປັນ	-6780
▁ສືບຕໍ່	-6781
▁ອົດທົນ	-6782
ຫັດສະຈັນ	-6783
ເມື່ອວັນ	-6784
▁ນັກຂ່າວ	-6785
▁ພ້ອມກັບ	-6786
ຕ້ອງສົງໄສ	-6787
ເພີ່ມທະວີ	-6788
ໂດຍທົ່ວໄປ	-6789
▁ສົ່ງເສີມ	-6790
▁ໂຮ່ຈີມິນ	-6791
ທັງຫມົດຂອງ	-6792
ສິດທິມະນຸດ	-6793
ກ່ຽວກັບຄວາມ	-6794
▁ສະຫງວນລິຂະສິດ	-6795
42	-6796
82	-6797
9)	-6798
DA	-6799
VN	-6800
]:	-6801
-12	-6802
ION	-6803
pot	-6804
ຄາຍ	-6805
▁ຊມ	-6806
▁28,	-6807
▁And	-6808
▁can	-6809
▁ກຸມ	-6810
▁ຂາວ	-6811
▁ພັບ	-6812
▁ສຸມ	-6813
ນໍາມາ	-6814
ັກຊີນ	-6815
ັດທະນ	-6816
▁jack	-6817
▁ແນັດ	-6818
ພາຍນອກ	-6819
ຫົນທາງ	-6820
ອອນລາຍ	-6821
ຸ່ນຍົນ	-6822
ໄດ້ວ່າ	-6823
▁block	-6824
▁ຄືກັບ	-6825
▁ຈາລຶກ	-6826
ຢູ່ບ່ອນ	-6827
ອະທິຖານ	-6828
▁ຊຸກຍູ້	-6829
▁ປີແຫ່ງ	-6830
▁ເມື່ອຍ	-6831
aricella	-6832
ການແກ້ໄຂ	-6833
ະລູມິນຽມ	-6834
▁ລ້ານຄົນ	-6835
▁ສໍາຫລັບ	-6836
ການສູນເສຍ	-6837
ທາງການແພດ	-6838
ພາກສະຫນາມ	-6839
ມື້ວານນີ້	-6840
▁ເຖິງແມ່ນ	-6841
ຢ່າງວ່ອງໄວ	-6842
▁Solutions	-6843
▁ຫນັງສືພິມ	-6844
ບັນດາວິສາຫະກິດ	-6845
ສາມາດໄດ້ຮັບການ	-6846
41	-6847
63	-6848
PE	-6849
pm	-6850
su	-6851
yd	-6852
ຣ໌	-6853
ara	-6854
ata	-6855
udd	-6856
ຂວາ	-6857
ຢາຍ	-6858
ລືມ	-6859
ວກະ	-6860
ຮາກ	-6861
▁03	-6862
▁49	-6863
▁91	-6864
▁ລຸ	-6865
arch	-6866
onic	-6867
▁1.0	-6868
▁Ang	-6869
▁Arm	-6870
▁PCB	-6871
▁web	-6872
ປາກົດ	-6873
ສະລິມ	-6874
ໃນລັດ	-6875
ໄປຕາມ	-6876
▁(200	-6877
▁FXCL	-6878
▁Pump	-6879
▁ທົ່ງ	-6880
▁ສະເຕ	-6881
▁ເສລີ	-6882
▁ແຍ້ງ	-6883
verter	-6884
ການສັກ	-6885
ກໍ່ໄດ້	-6886
ຮູ້ສືກ	-6887
ົດເຊີຍ	-6888
ເຫມືອນ	-6889
▁Beach	-6890
▁Count	-6891
▁Hebei	-6892
▁ສົນໃຈ	-6893
▁ອາການ	-6894
ກັບທ່ານ	-6895
ນານາຊາດ	-6896
ສ່ຽງໃຕ້	-6897
ະນິດສາດ	-6898
ເອກະລາດ	-6899
ໃນຊີວິດ	-6900
▁ບົດຮຽນ	-6901
▁ໃນຊ່ວງ	-6902
▁ຂ້ອຍໄດ້	-6903
▁ຄໍາສັ່ງ	-6904
▁ດ້ວຍການ	-6905
▁ຫ້ອງການ	-6906
ດັ່ງກ່າວໄດ້	-6907
ທີ່ມີຄຸນນະພາບສູງ	-6908
,”	-6909
GO	-6910
UN	-6911
gy	-6912
າຊ	-6913
600	-6914
="1	-6915
ago	-6916
aul	-6917
ຖອຍ	-6918
ພັງ	-6919
ແຊກ	-6920
ໂຕນ	-6921
▁AT	-6922
▁RN	-6923
▁TT	-6924
▁se	-6925
pper	-6926
ຫນົມ	-6927
ໃນສະ	-6928
▁125	-6929
▁2.5	-6930
▁Wir	-6931
▁ຊໍາ	-6932
ຂອງສະ	-6933
ພີເດຍ	-6934
▁Type	-6935
▁ຊ່າງ	-6936
▁ຫນົມ	-6937
▁ຫວັດ	-6938
ສັງຫານ	-6939
ແບບນີ້	-6940
້ຽວບິນ	-6941
▁Jiang	-6942
▁Phone	-6943
▁ອາຊີບ	-6944
▁ເຄັ່ງ	-6945
unction	-6946
ທີ່ເຮັດ	-6947
▁System	-6948
▁ເຄື່ອນ	-6949
▁ແຜນການ	-6950
▁ສົນທະນາ	-6951
ກໍານົດໄວ້	-6952
ສະກຸນເງິນ	-6953
▁ກິໂລແມັດ	-6954
ອາສາສະຫມັກ	-6955
ເວລາດຽວກັນ	-6956
▁ອີງຕາມການ	-6957
ຜົນກະທົບຕໍ່	-6958
ຜູ້ເຂົ້າຮ່ວມ	-6959
▁ລາຄາປົກກະຕິ	-6960
HS	-6961
ca	-6962
▁→	-6963
ele	-6964
use	-6965
ດໍາ	-6966
ຕ້າ	-6967
ທອດ	-6968
ມ້າ	-6969
▁51	-6970
▁6:	-6971
▁99	-6972
▁TR	-6973
▁ຮາ	-6974
ager	-6975
iler	-6976
ກະໂປ	-6977
ເຫລວ	-6978
ເອັບ	-6979
▁(1,	-6980
▁23,	-6981
▁Bar	-6982
▁Pat	-6983
▁Rem	-6984
▁ປອບ	-6985
▁ປອມ	-6986
▁ແລກ	-6987
▁ໂຕນ	-6988
icker	-6989
ຂໍໃຫ້	-6990
ປະດັບ	-6991
ສິງຫາ	-6992
ຫນ່າງ	-6993
▁roll	-6994
▁ຖ້ວນ	-6995
ຊີ້ວັດ	-6996
ທີ່ຍັງ	-6997
ພັນຄົນ	-6998
ລວບລວມ	-6999
ຫຼືບໍ່	-7000
ໂດຍໃຊ້	-7001
▁ປະທັບ	-7002
▁ພິນາດ	-7003
ພັກຜ່ອນ	-7004
ລິເລີ່ມ	-7005
ເຮັດງານ	-7006
ກິດຈະການ	-7007
ຄົນຫນື່ງ	-7008
ຈົດທະບຽນ	-7009
▁ທີ່ເປັນ	-7010
▁ທ່າມກາງ	-7011
ການສໍາພາດ	-7012
ກ່າວຫາວ່າ	-7013
ຫາພວກເຮົາ	-7014
▁ຂະບວນການ	-7015
▁ສະແຕນເລດ	-7016
▁Guangdong	-7017
▁Varicella	-7018
ພິຈາລະນາຄະດີ	-7019
cn	-7020
ຖບ	-7021
Pro	-7022
ມັງ	-7023
ລຽນ	-7024
ໂຊກ	-7025
▁ຫູ	-7026
ຊ້າຍ	-7027
ລ່າງ	-7028
ເຈາະ	-7029
ແຂ້ວ	-7030
ໃຫ່ຍ	-7031
▁18,	-7032
▁180	-7033
▁Har	-7034
▁Ref	-7035
▁ພົວ	-7036
antom	-7037
ປະສັກ	-7038
ມາຮອດ	-7039
▁Java	-7040
▁Mich	-7041
▁ຄ່ໍາ	-7042
▁ບັນຍ	-7043
▁ສະຕີ	-7044
▁ເບີດ	-7045
ations	-7046
ອັກສອນ	-7047
ຽບຮ້ອຍ	-7048
ໃກ້ຄຽງ	-7049
▁ຫຍຸ້ງ	-7050
ຄວາມຮັກ	-7051
ຕົ້ນໄມ້	-7052
ຖ້າທ່ານ	-7053
ທິສັນຍາ	-7054
ລິຟໍເນຍ	-7055
ແມ່ນໄດ້	-7056
▁Amazon	-7057
▁ແລະໄດ້	-7058
ຊົນນະບົດ	-7059
ເຕີບໃຫຍ່	-7060
▁Cyclone	-7061
▁Powered	-7062
▁ບໍລິຈາກ	-7063
ການສືບສວນ	-7064
ທີ່ດີກວ່າ	-7065
ທີ່ຮູ້ຈັກ	-7066
ຜັນຂະຫຍາຍ	-7067
ລະດັບຄວາມ	-7068
ເພື່ອສ້າງ	-7069
ເຫຼົ່ານັ້ນ	-7070
▁ການແປພາສາ	-7071
▁ຖ້າຫາກວ່າ	-7072
ສາດສະຫນາຈັກ	-7073
ສິ່ງທີ່ທ່ານ	-7074
▁University	-7075
ຢ່າງຫຼວງຫຼາຍ	-7076
ທີ່ຂ້າພະເຈົ້າ	-7077
ດໍາເນີນທຸລະກິດ	-7078
▁ໃນຄວາມເປັນຈິງ	-7079
ັຟ	-7080
ັລ	-7081
ags	-7082
ກັກ	-7083
ປີນ	-7084
ປູກ	-7085
ມືອ	-7086
ຣີ່	-7087
ເດນ	-7088
▁06	-7089
▁co	-7090
-200	-7091
ouch	-7092
ມຸ້ງ	-7093
ອີເມ	-7094
ເຈ້ຍ	-7095
ແຍ້ງ	-7096
ໍ້ໄຟ	-7097
▁Ber	-7098
▁Per	-7099
▁ດີກ	-7100
▁ແຈກ	-7101
ກາຕູນ	-7102
ວນັ້ນ	-7103
ຫາຍໄປ	-7104
ອຸທິດ	-7105
▁Char	-7106
▁ຫນີ້	-7107
▁ຫວານ	-7108
ອາວຸໂສ	-7109
▁Motor	-7110
▁ພະແນກ	-7111
ປິ່ນປົວ	-7112
ສັດລ້ຽງ	-7113
ຫວັງວ່າ	-7114
▁custom	-7115
▁ໃນຂະນະ	-7116
ປະກອບການ	-7117
ຢາເສບຕິດ	-7118
ແຕ່ງຕັ້ງ	-7119
▁ການປ່ອຍ	-7120
ຕົ້ນສະບັບ	-7121
▁Copyshop	-7122
▁ສ່ວນໃຫຍ່	-7123
▁ຫລາຍກວ່າ	-7124
ຄູ່ຮ່ວມງານ	-7125
▁ຊ່ວຍເຫຼືອ	-7126
▁ຄວາມອາດສາມາດ	-7127
ປະສົບຜົນສໍາເລັດ	-7128
EF	-7129
ms	-7130
★★	-7131
113	-7132
ຮວມ	-7133
ແຂກ	-7134
▁58	-7135
aint	-7136
olis	-7137
ອ້າຍ	-7138
ື່ອມ	-7139
▁lot	-7140
▁ທຶກ	-7141
▁ລອຍ	-7142
▁ໂມນ	-7143
lobal	-7144
ຂໍ້ຫາ	-7145
ບນ້ໍາ	-7146
ພິການ	-7147
ລົງໃນ	-7148
ໃນທຸກ	-7149
▁Cent	-7150
▁ຄະດີ	-7151
▁ລ່ຽງ	-7152
▁ເຍຊູ	-7153
ຊິງຕັນ	-7154
ບັນທືກ	-7155
ສະຫຼາດ	-7156
▁ປະກົດ	-7157
▁ເຫລັກ	-7158
ຢ້ານກົວ	-7159
ເຮັດການ	-7160
▁Christ	-7161
▁ຕອນນີ້	-7162
▁ລັດເຊຍ	-7163
ຄໍາຫມັ້ນ	-7164
ຈ່າຍເງິນ	-7165
ອາທິດນີ້	-7166
▁ອະທິການ	-7167
▁ອານາຈັກ	-7168
ການເຕີບໂຕ	-7169
ຂໍ້ສະເຫນີ	-7170
ຕະເວັນອອກ	-7171
▁ບໍ່ສາມາດ	-7172
ປະສົມປະສານ	-7173
ເຖິງແມ່ນວ່າ	-7174
▁ໃນຖານະເປັນ	-7175
ພະຍາຍາມທີ່ຈະ	-7176
PR	-7177
ye	-7178
yt	-7179
ໍກ	-7180
203	-7181
que	-7182
son	-7183
unn	-7184
ກຸງ	-7185
ຜັກ	-7186
ອົກ	-7187
▁Fo	-7188
eter	-7189
ກິ່ງ	-7190
ສົ້ມ	-7191
ຫຼຽນ	-7192
ອາໃສ	-7193
▁10,	-7194
▁11,	-7195
▁ຄັບ	-7196
▁ປວງ	-7197
ender	-7198
ບຸລຸດ	-7199
ພິສູດ	-7200
ສະຈາກ	-7201
▁Part	-7202
ຕົ້ນປີ	-7203
▁inter	-7204
▁ອຸທິດ	-7205
ທໍາມະດາ	-7206
ປະກັນໄພ	-7207
ລາຄາຖືກ	-7208
ຫຍໍ້ຂອງ	-7209
ເກົາຫຼີ	-7210
▁ສົມລົດ	-7211
▁ແຕ່ມັນ	-7212
ທີ່ບໍ່ດີ	-7213
ອີກເທື່ອ	-7214
▁ກາຍເປັນ	-7215
▁ເງິນຝາກ	-7216
ຍັງບໍ່ທັນ	-7217
ສະລັອດຕິງ	-7218
ພາສາອັງກິດ	-7219
ນັກຄົ້ນຄວ້າ	-7220
ເພື່ອນຮ່ວມງານ	-7221
--	-7222
?"	-7223
CD	-7224
ka	-7225
ze	-7226
ged	-7227
ict	-7228
ney	-7229
ves	-7230
ຊຶມ	-7231
ບຽງ	-7232
▁By	-7233
▁JW	-7234
here	-7235
▁380	-7236
▁Mel	-7237
▁Rot	-7238
▁ກູ້	-7239
▁ສະດ	-7240
▁ໂອ້	-7241
ຖະແຫລ	-7242
ພົບປະ	-7243
ໄສທັດ	-7244
▁Seal	-7245
▁Tour	-7246
ການນໍາ	-7247
ຕີລາຄາ	-7248
ທີ່ດິນ	-7249
ບົດຮຽນ	-7250
ສະຫລຸບ	-7251
ຫລືບໍ່	-7252
ເລື່ອນ	-7253
▁Mount	-7254
▁ບັນຈຸ	-7255
▁ບັນພະ	-7256
ສໍາຫຼວດ	-7257
ເຫັນໄດ້	-7258
▁ທາງວິນ	-7259
ຂອງເຈົ້າ	-7260
ພຶດຕິກໍາ	-7261
▁Digital	-7262
▁Samsung	-7263
▁ກໍ່ສ້າງ	-7264
ຂໍ້ກໍານົດ	-7265
ອິສາລະເອວ	-7266
▁Aluminum	-7267
ວ່າມັນເປັນ	-7268
ສອດຄ່ອງກັບ	-7269
ເຊົ້າວັນທີ	-7270
ເປັນຈໍານວນ	-7271
ຜູ້ເສຍຊີວິດ	-7272
▁ການຢັ້ງຢືນ	-7273
▁ຂຽນເມື່ອສຸດ	-7274
▁ເສັ້ນໃຍສັງເຄາະ	-7275
-01	-7276
bed	-7277
ຂຸມ	-7278
ຄະນ	-7279
ສະນ	-7280
ໄຂ້	-7281
▁02	-7282
▁Ap	-7283
▁MP	-7284
▁NY	-7285
guan	-7286
ippi	-7287
ມຸ່ງ	-7288
ສັ່ນ	-7289
ເລີນ	-7290
▁Bul	-7291
▁Sim	-7292
store	-7293
ພະລັງ	-7294
ລະພິດ	-7295
ສະຫລະ	-7296
ໃຊ້ໃນ	-7297
▁Book	-7298
▁King	-7299
▁Sand	-7300
▁Vill	-7301
▁ຫນົນ	-7302
▁ເຄາະ	-7303
ulator	-7304
ການແພດ	-7305
ບັນດາກ	-7306
ອາເມລິ	-7307
ໂຕ້ຖຽງ	-7308
▁Apple	-7309
▁Nylon	-7310
▁ປະສົງ	-7311
▁ອາດຈະ	-7312
▁ແຫລ່ງ	-7313
issippi	-7314
ຂັ້ນສູງ	-7315
ຊົດເຊີຍ	-7316
ຕັ້ງຢູ່	-7317
ຖ່າຍຮູບ	-7318
ຜົມສ່ວນ	-7319
ສະເທືອນ	-7320
▁ຕົກລົງ	-7321
▁ປະຫວັດ	-7322
▁ພູເຂົາ	-7323
▁ເສຍຫາຍ	-7324
ໂລກລະບາດ	-7325
▁ແມ່ນການ	-7326
ວຸດທິສະພາ	-7327
ຮູ້ສຶກວ່າ	-7328
▁ໃນກໍລະນີ	-7329
ເຊື່ອມໂລຫະ	-7330
▁ຄຸນສົມບັດ	-7331
▁ແລະພວກເຂົາ	-7332
ປ້ອງກັນປະເທດ	-7333
ຄວາມເປັນໄປໄດ້	-7334
ACK	-7335
the	-7336
ປຽບ	-7337
ມອງ	-7338
ວຽດ	-7339
ໂອບ	-7340
▁AR	-7341
▁PH	-7342
▁Si	-7343
▁ບີ	-7344
rice	-7345
ວກອງ	-7346
ື່ອຍ	-7347
ເທຣດ	-7348
▁Cal	-7349
▁GBP	-7350
▁Roy	-7351
▁Tim	-7352
▁sol	-7353
▁ຍູ້	-7354
▁ລາມ	-7355
▁ລີ້	-7356
▁ໂພດ	-7357
ກັນໃນ	-7358
ມາເນຍ	-7359
ສະວັດ	-7360
ສີດໍາ	-7361
ສີຟ້າ	-7362
ຫນ້ານ	-7363
ເລເຊຍ	-7364
▁ປ່ຽງ	-7365
▁ລ້າງ	-7366
▁ໄຫມ້	-7367
ທີ່ມັນ	-7368
ທີ່ສອງ	-7369
ປາຍທາງ	-7370
ພັດທະນ	-7371
▁Crack	-7372
▁Excel	-7373
▁ລະອຽດ	-7374
duction	-7375
ການເປັນ	-7376
ດັ່ງກ່າ	-7377
ແຈ້ງວ່າ	-7378
ມາຈາກການ	-7379
ແຕ່ວັນທີ	-7380
ແມ່ເຫຼັກ	-7381
▁ພັກຜ່ອນ	-7382
▁ເຈົ້າຂໍ	-7383
▁Portable	-7384
▁ເຢຍລະມັນ	-7385
ການຄຸ້ມຄອງ	-7386
ຜົມສ່ວນບົນ	-7387
▁Changzhou	-7388
▁ການທົດສອບ	-7389
▁ເພີ່ມເຕີມ	-7390
ທີ່ເຂັ້ມແຂງ	-7391
ອຸດົມສົມບູນ	-7392
▁ຊື່ຫຍໍ້ຂອງ	-7393
▁ຜູ້ຊ່ຽວຊານ	-7394
ຄວາມຮັບຜິດຊອບ	-7395
ໄດ້ຢ່າງງ່າຍດາຍ	-7396
▁ຄໍາຮ້ອງສະຫມັກ	-7397
4.	-7398
CO	-7399
GB	-7400
LE	-7401
MT	-7402
SA	-7403
hua	-7404
ike	-7405
par	-7406
ກີດ	-7407
ນຸມ	-7408
▁43	-7409
▁OS	-7410
itch	-7411
ຫວັນ	-7412
ົາມາ	-7413
▁22,	-7414
▁350	-7415
▁450	-7416
▁Pur	-7417
▁tra	-7418
▁ຄວບ	-7419
▁ອານ	-7420
-2020	-7421
ທະຍົມ	-7422
ສົງໃສ	-7423
▁Chat	-7424
▁Hand	-7425
▁News	-7426
▁Prec	-7427
▁back	-7428
▁ເຊັບ	-7429
andard	-7430
rusher	-7431
ການພິມ	-7432
ການໃຫ້	-7433
ຂອງຊາວ	-7434
ນິວຢອກ	-7435
▁ຈະບໍ່	-7436
▁ອີເມວ	-7437
▁ໂດຍມີ	-7438
ຍັງເປັນ	-7439
ປະຕິຮູບ	-7440
ວາລະສານ	-7441
ເກີດເຫດ	-7442
▁Cheats	-7443
▁ມູນຄ່າ	-7444
▁ເຫຼົ້າ	-7445
ຂອງບັນດາ	-7446
ການທົດສອບ	-7447
▁Conveyor	-7448
▁ພ້ອມດ້ວຍ	-7449
ການປົກປ້ອງ	-7450
ຂອງຫວຽດນາມ	-7451
ຄວາມສໍາພັນ	-7452
ທີ່ຮ້າຍແຮງ	-7453
ເຮັດງານທໍາ	-7454
ຊ່ວຍໃຫ້ທ່ານ	-7455
ໂດຍບໍ່ມີການ	-7456
▁ໄດ້ຈັດຕັ້ງ	-7457
▁ເອເລັກໂຕຣນິກ	-7458
▁ນາຍົກລັດຖະມົນຕີ	-7459
73	-7460
OV	-7461
na	-7462
zz	-7463
ນູ	-7464
ird	-7465
opt	-7466
ຊິວ	-7467
ຕຽນ	-7468
ຝູງ	-7469
ມຸງ	-7470
▁(4	-7471
▁JP	-7472
▁PN	-7473
▁ra	-7474
ters	-7475
ສະຕິ	-7476
ເພີງ	-7477
ໄມໂຄ	-7478
▁Eng	-7479
▁Gas	-7480
▁Max	-7481
▁Rad	-7482
▁Ray	-7483
▁ກວນ	-7484
▁ທຽນ	-7485
▁ປຸງ	-7486
▁ອຶດ	-7487
ທີ່ເຄ	-7488
ວິກິດ	-7489
ອຸທອນ	-7490
ຽວກັບ	-7491
▁ຄື້ນ	-7492
▁ແຕ້ມ	-7493
ການາດາ	-7494
ເພື່ອກ	-7495
ແຂງແຮງ	-7496
▁Cloud	-7497
▁ສາເຫດ	-7498
ຄວາມຮູ້	-7499
ອານຸຍາດ	-7500
ເກົາຫລີ	-7501
▁ຕະຫຼາດ	-7502
ນຸ່ງຫົ່ມ	-7503
ເວທີປາໄສ	-7504
▁ກະເປົ໋າ	-7505
ຂອງພຣະອົງ	-7506
ຂັບເຄື່ອນ	-7507
ທີ່ກໍາລັງ	-7508
ພວກເຂົາມີ	-7509
ລັດຖະສະພາ	-7510
ຫວັງວ່າຈະ	-7511
ການສອບເສັງ	-7512
ໃນປະເທດຈີນ	-7513
▁ກະລຸນາໃສ່	-7514
▁ເຈົ້າຈຶ່ງ	-7515
▁ກ່າວຄໍາເຫັນ	-7516
▁ງານວາງສະແດງ	-7517
▁ສໍາລັບຜູ້ຊາຍ	-7518
▁ເສັ້ນຜ່າສູນກາງ	-7519
ຂ່າ	-7520
ຊິບ	-7521
ປອມ	-7522
ຮັດ	-7523
ແຊງ	-7524
ໂກ້	-7525
▁ຝາ	-7526
cept	-7527
iaph	-7528
ross	-7529
very	-7530
ພົ້ນ	-7531
ຫລົກ	-7532
ານີ້	-7533
ເກ່ຍ	-7534
ແກ່ນ	-7535
▁21,	-7536
▁30%	-7537
▁ຖັດ	-7538
▁ຫິວ	-7539
erved	-7540
ບໍ່ດີ	-7541
ສະມັດ	-7542
▁View	-7543
▁pump	-7544
▁ວິຊາ	-7545
▁ອຸ່ນ	-7546
ຈະເຮັດ	-7547
ຈໍາລອງ	-7548
ໄຟໄຫມ້	-7549
▁Linux	-7550
ຫນື່ງໃນ	-7551
ຮູບຮ່າງ	-7552
▁Direct	-7553
▁ປັບປຸງ	-7554
▁ເລື່ອນ	-7555
▁ໄດ້ບອກ	-7556
ການສະແດງ	-7557
ເປັນຫຍັງ	-7558
▁scooter	-7559
▁ບັນເທີງ	-7560
ແລະມີຄວາມ	-7561
ແລະເຄື່ອງ	-7562
▁ຮັບປະກັນ	-7563
▁ເຂັ້ມແຂງ	-7564
ຄວາມຮຸນແຮງ	-7565
ທີ່ຢູ່ອາໄສ	-7566
ສໍານັກຂ່າວ	-7567
ເບິ່ງຄືວ່າ	-7568
▁ການຂົນສົ່ງ	-7569
▁ຫຼັງຈາກທີ່	-7570
▁ແນວຄວາມຄິດ	-7571
▁ແລະພວກເຮົາ	-7572
▁ເນື່ອງຈາກວ່າ	-7573
OD	-7574
QL	-7575
TS	-7576
pa	-7577
ຣມ	-7578
▁o	-7579
ola	-7580
stR	-7581
uge	-7582
ຢືມ	-7583
ວອນ	-7584
ເລະ	-7585
▁09	-7586
▁72	-7587
▁Bu	-7588
▁It	-7589
▁Li	-7590
▁Lo	-7591
▁Ox	-7592
▁ໄນ	-7593
play	-7594
ragm	-7595
rome	-7596
ຄື້ນ	-7597
ຊ່ອຍ	-7598
ຖິ້ມ	-7599
ປະທະ	-7600
ລິມະ	-7601
ເກັດ	-7602
ເຖືງ	-7603
▁Bay	-7604
▁Bro	-7605
▁FAQ	-7606
▁lad	-7607
rylic	-7608
ຢາສູບ	-7609
▁Pass	-7610
▁Plus	-7611
▁card	-7612
▁wood	-7613
▁ຂວາງ	-7614
▁ຕົວະ	-7615
▁ຕໍ່າ	-7616
▁ມິຕິ	-7617
▁ເຄືອ	-7618
ategor	-7619
ສະຖານະ	-7620
ສະຫງວນ	-7621
▁South	-7622
▁White	-7623
stRider	-7624
ປະຕິເຫດ	-7625
ໂຄງລ່າງ	-7626
▁County	-7627
▁ນໍາໃຊ້	-7628
▁ປຽບທຽບ	-7629
▁ໄດ້ອອກ	-7630
ທີ່ຈະນໍາ	-7631
ພັນທະມິດ	-7632
ມາດຕະການ	-7633
ເພື່ອການ	-7634
ແມ່ນຫຍັງ	-7635
ໃນຮູບແບບ	-7636
ໃຫຍ່ຫຼວງ	-7637
▁Service	-7638
ທີ່ບໍ່ໄດ້	-7639
ທີ່ຮຸນແຮງ	-7640
ປະທານປະເທດ	-7641
ຢູ່ທີ່ນັ້ນ	-7642
ເຫລົ່ານັ້ນ	-7643
ບໍ່ດົນມານີ້	-7644
ປີທີ່ຜ່ານມາ	-7645
ໃຫ້ເຂົາເຈົ້າ	-7646
ໄດ້ຖືກນໍາໃຊ້	-7647
ນາຍຍົກລັດຖະມົນຕີ	-7648
▁ລັດຖະມົນຕີກະຊວງ	-7649
!”	-7650
);	-7651
62	-7652
VD	-7653
bs	-7654
vi	-7655
axy	-7656
esc	-7657
rip	-7658
yan	-7659
ຫນິ	-7660
ແຈງ	-7661
ແດດ	-7662
▁5.	-7663
▁Az	-7664
▁HB	-7665
▁Kn	-7666
▁sm	-7667
ield	-7668
tery	-7669
ຫລີກ	-7670
ິນິວ	-7671
▁CHF	-7672
▁Jun	-7673
▁ຄຶດ	-7674
▁ມ້າ	-7675
▁ໂຕະ	-7676
ສະມາດ	-7677
▁ຊໍ້າ	-7678
atalog	-7679
ຄາດການ	-7680
ຕົວແບບ	-7681
ບໍ່ຄວນ	-7682
ໃຫ້ຜູ້	-7683
▁Flash	-7684
▁Found	-7685
▁ສັນຕິ	-7686
ປະລິນຍາ	-7687
▁Flight	-7688
▁casino	-7689
▁ຊື່ວ່າ	-7690
iaphragm	-7691
ທີ່ສຸດໃນ	-7692
ບັນລຸໄດ້	-7693
ຟ້ອງຮ້ອງ	-7694
ລະດັບສູງ	-7695
ໃນຕະຫຼາດ	-7696
▁ຄວາມຍາວ	-7697
▁ຕໍ່ຕ້ານ	-7698
▁ເປີເຊັນ	-7699
▁ແລະທ່ານ	-7700
ທີ່ແນ່ນອນ	-7701
ຮ່ວມມືກັບ	-7702
ຮ້ານອາຫານ	-7703
▁ການສະແດງ	-7704
▁ທ້ອງຖິ່ນ	-7705
ຜິດປົກກະຕິ	-7706
ຢ່າງຮຸນແຮງ	-7707
ຫມູ່ເພື່ອນ	-7708
ເຊື່ອຖືໄດ້	-7709
ໄດ້ຮັບຄວາມ	-7710
ບັນຊີລາຍຊື່	-7711
ຮ່າງກົດຫມາຍ	-7712
ເວົ້າກ່ຽວກັບ	-7713
▁ການຝຶກອົບຮົມ	-7714
1:	-7715
KG	-7716
250	-7717
VAC	-7718
oor	-7719
ບິກ	-7720
ປຸກ	-7721
ຟິນ	-7722
ເຈດ	-7723
ເຣນ	-7724
▁41	-7725
▁BS	-7726
▁Dr	-7727
▁EN	-7728
▁RF	-7729
▁SP	-7730
ayer	-7731
oard	-7732
ຜູ້ນ	-7733
▁Fre	-7734
▁Ult	-7735
▁met	-7736
▁ຄົດ	-7737
▁ດາຍ	-7738
ridge	-7739
ມັກຈະ	-7740
ໍາໃຊ້	-7741
▁Card	-7742
▁Cart	-7743
▁Test	-7744
▁ກັ້ນ	-7745
▁ສໍ່າ	-7746
▁ເຈາະ	-7747
ດອກໄມ້	-7748
ທິດຖານ	-7749
ທີ່ພັກ	-7750
ີ່ປຸ່ນ	-7751
▁insul	-7752
▁ລໍຖ້າ	-7753
ຈຸດຫມາຍ	-7754
ທຸກສິ່ງ	-7755
ລະບຸວ່າ	-7756
ໄກ່ເກ່ຍ	-7757
▁ບາງຄົນ	-7758
▁ວິສະວະ	-7759
▁ສອບຖາມ	-7760
▁ເຫລົ້າ	-7761
▁ໂດຍບໍ່	-7762
ການສັກຢາ	-7763
ລະດູຮ້ອນ	-7764
ສິດທິບັດ	-7765
ຂໍ້ກ່າວຫາ	-7766
ຕໍ່ສູ້ກັບ	-7767
ວ່າຈະເປັນ	-7768
▁Solenoid	-7769
▁Wireless	-7770
▁ເກີດຂຶ້ນ	-7771
▁ເຂົ້າກັນ	-7772
ສະມາຊິກຂອງ	-7773
ອິນໂດເນເຊຍ	-7774
ໃຫ້ພວກເຂົາ	-7775
ກໍາລັງຊອກຫາ	-7776
ທີ່ຈະເຮັດໃຫ້	-7777
ໄດ້ຮັບລາງວັນ	-7778
▁ເມື່ອທຽບໃສ່	-7779
58	-7780
7.	-7781
Th	-7782
UB	-7783
ky	-7784
ຍໍ	-7785
aki	-7786
val	-7787
way	-7788
ຊ້ມ	-7789
ມໄຟ	-7790
ສາບ	-7791
▁54	-7792
▁DR	-7793
▁MB	-7794
▁Op	-7795
mark	-7796
pson	-7797
rost	-7798
ຄະຕິ	-7799
ສະເຕ	-7800
ອາຍາ	-7801
ເດົາ	-7802
ໄຫລ່	-7803
▁11:	-7804
▁12:	-7805
▁Bow	-7806
▁Lim	-7807
▁Mey	-7808
▁Saf	-7809
▁gsm	-7810
▁ຖອຍ	-7811
imate	-7812
ກໍ່ຄື	-7813
ປາເລດ	-7814
ສະສົມ	-7815
ສີແດງ	-7816
ເລົ່າ	-7817
▁1200	-7818
▁Jack	-7819
▁Lock	-7820
▁inst	-7821
▁ຟ້າວ	-7822
▁ເທັກ	-7823
ກາງຄືນ	-7824
ຄໍາສັບ	-7825
ບອກວ່າ	-7826
ໄດ້ອອກ	-7827
▁Gener	-7828
▁ກະທູ້	-7829
▁ຖົງມື	-7830
▁ປະສົມ	-7831
▁ສັ້ນໆ	-7832
ແມ່ນບໍ່	-7833
▁online	-7834
▁ທີມງານ	-7835
▁ປະເຊີນ	-7836
ການປະຊຸມ	-7837
ຂອງລະບົບ	-7838
ຈາກປະເທດ	-7839
ຍົກເວັ້ນ	-7840
ທົດສະວັດ	-7841
ສ້າງຂຶ້ນ	-7842
▁ຕິດຕັ້ງ	-7843
▁ສຸດທ້າຍ	-7844
ການສໍາພັດ	-7845
ສົມທົບກັບ	-7846
ແບບຍືນຍົງ	-7847
ໃນການສ້າງ	-7848
▁Facebook	-7849
▁ອະທິດຖານ	-7850
ທີ່ຈໍາເປັນ	-7851
▁ປີແຫ່ງວັນ	-7852
ທີ່ທັນສະໄຫມ	-7853
ລັດຖະທໍາມະນູນ	-7854
▁ສະຫະລັດອາເມລິກາ	-7855
98	-7856
PA	-7857
SM	-7858
UM	-7859
ls	-7860
mo	-7861
va	-7862
150	-7863
nov	-7864
oop	-7865
ຈົມ	-7866
ຊັງ	-7867
ທິນ	-7868
ເອນ	-7869
ເຮີ	-7870
໊ອດ	-7871
▁NZ	-7872
▁TH	-7873
▁ທໍ	-7874
ລິຍາ	-7875
ຫມາດ	-7876
▁ITS	-7877
▁Jan	-7878
▁Mal	-7879
▁ຂີດ	-7880
▁ສະກ	-7881
້ວນີ້	-7882
▁Coin	-7883
▁ຊ້ໍາ	-7884
▁ພະຍຸ	-7885
▁ຫລົງ	-7886
ຕ້ຫວັນ	-7887
ຮັບການ	-7888
▁2019,	-7889
▁Board	-7890
▁ຄໍາພີ	-7891
▁ໃນເຂດ	-7892
ຂົ່ມຂືນ	-7893
ສະຫະລາດ	-7894
ເງິນຝາກ	-7895
▁Tattoo	-7896
▁ທີ່ນີ້	-7897
▁ສົມຄວນ	-7898
▁ສົມບັດ	-7899
▁ເງື່ອນ	-7900
osterone	-7901
ຂອງເມືອງ	-7902
ພາກເຫນືອ	-7903
ເຂົ້າກັບ	-7904
ແມ່ນເປັນ	-7905
ໂດດເດັ່ນ	-7906
▁ມູນນິທິ	-7907
ຖານຂໍ້ມູນ	-7908
ປຶກສາຫາລື	-7909
ແລະແມ່ຍິງ	-7910
ໃນຕອນຕົ້ນ	-7911
ໃນໄລຍະຍາວ	-7912
ການຂົນສົ່ງ	-7913
ຄວາມສະຫງົບ	-7914
ທີ່ມີຊີວິດ	-7915
ລະມັດລະວັງ	-7916
▁ຄວາມກວ້າງ	-7917
ທີ່ຫນ້າສົນໃຈ	-7918
FF	-7919
HO	-7920
RL	-7921
ha	-7922
ອໍ	-7923
ams	-7924
bit	-7925
ral	-7926
ຄຽດ	-7927
ຊອນ	-7928
ລ້າ	-7929
ໂສກ	-7930
▁08	-7931
▁59	-7932
▁66	-7933
▁DJ	-7934
▁Du	-7935
▁ບຣ	-7936
mmer	-7937
ຊະຍະ	-7938
ຊິໂກ	-7939
ຊື່ອ	-7940
ເວີດ	-7941
ເຮັງ	-7942
▁(35	-7943
▁0.5	-7944
▁700	-7945
▁AUD	-7946
▁Led	-7947
▁ລອນ	-7948
▁ແມ້	-7949
inder	-7950
ຊຸມປີ	-7951
ຫາກໍ່	-7952
▁Flor	-7953
▁Foam	-7954
▁Roll	-7955
▁ຈ້າງ	-7956
▁ທ້ອນ	-7957
▁ສ່ຽງ	-7958
zhuang	-7959
ຊານຕົງ	-7960
ຕາມການ	-7961
ປະຫລາດ	-7962
ລູກຊາຍ	-7963
ວັນສຸກ	-7964
ໂປແກຼມ	-7965
▁Zhong	-7966
▁micro	-7967
▁ປອດໄພ	-7968
▁ປຶກສາ	-7969
ຈ່າຍຄ່າ	-7970
ຫຸ້ມຂອງ	-7971
ອອກເປັນ	-7972
ໄດ້ເປັນ	-7973
▁ສື່ສານ	-7974
▁ໃຫ້ແກ່	-7975
ມົນລະພິດ	-7976
ເທັກໂນໂລ	-7977
▁ພັນລ້ານ	-7978
▁ເປັນການ	-7979
ບ່າຍວັນທີ	-7980
ສ່ວນປະກອບ	-7981
▁........	-7982
▁Fittings	-7983
▁ຢູ່ນະຄອນ	-7984
ແຜ່ນດິນໄຫວ	-7985
ແມ່ນມີຄວາມ	-7986
▁ການທົດລອງ	-7987
ກັບຄືນໄປບ່ອນ	-7988
ທີ່ຄ້າຍຄືກັນ	-7989
ສິ່ງທີ່ພວກເຮົາ	-7990
eg	-7991
.25	-7992
Jar	-7993
gsm	-7994
nam	-7995
ຄິວ	-7996
ຍຶດ	-7997
ຍໍາ	-7998
ທູບ	-7999
ບາບ	-8000
ມາຍ	-8001
ເຣດ	-8002
ໂທຣ	-8003
▁0.	-8004
▁ຍູ	-8005
avor	-8006
ປຸ່ມ	-8007
ອິສະ	-8008
ຽງໄຮ	-8009
່ວາງ	-8010
▁(2)	-8011
▁0.0	-8012
▁160	-8013
▁Dub	-8014
▁Int	-8015
▁Mag	-8016
▁Sur	-8017
▁ຕານ	-8018
ຍາກໍາ	-8019
ີນ້ໍາ	-8020
ເຕົ້າ	-8021
ເສຍໃຈ	-8022
ໂຄສົກ	-8023
ໄດ້ໃນ	-8024
▁Aria	-8025
▁Mult	-8026
▁your	-8027
▁ປິ່ນ	-8028
▁ຢັ້ງ	-8029
▁ສ່ອງ	-8030
ະໂຍບາຍ	-8031
▁Basel	-8032
▁ກໍ່ຄື	-8033
▁ງ່າຍໆ	-8034
▁ເຍີ້ຍ	-8035
ຈາກນັ້ນ	-8036
▁ຄາດວ່າ	-8037
ພາດສະຕິກ	-8038
າກ່ຽວກັບ	-8039
ເຖິງຄວາມ	-8040
ເສດເຫຼືອ	-8041
ໂອລິມປິກ	-8042
▁phantom	-8043
▁ປະຊາຄົມ	-8044
▁ສິ່ງນີ້	-8045
ພື້ນເມືອງ	-8046
ແມ່ນຢູ່ໃນ	-8047
▁Dongguan	-8048
▁ກ້າວຫນ້າ	-8049
▁ຈັດພີມມາ	-8050
▁ມື້ຫນຶ່ງ	-8051
ທີ່ມີຢູ່ໃນ	-8052
ຫລັງຈາກທີ່	-8053
▁ຄໍາແນະນໍາ	-8054
▁ຕັ້ງຢູ່ໃນ	-8055
ຄວາມເຂົ້າໃຈ	-8056
ເຊື່ອມຕໍ່ກັບ	-8057
ໃນການພັດທະນາ	-8058
▁ຄວາມຕ້ອງການ	-8059
ແລະການບໍລິການ	-8060
▁ນັກວິທະຍາສາດ	-8061
ລັດຖະມົນຕີກະຊວງ	-8062
53	-8063
ep	-8064
ks	-8065
ໄຍ	-8066
▁u	-8067
400	-8068
for	-8069
ica	-8070
ຄືບ	-8071
ຈອງ	-8072
ນົມ	-8073
ຢິບ	-8074
ຫນູ	-8075
ຫມາ	-8076
ືອຍ	-8077
ໂປຼ	-8078
▁04	-8079
▁46	-8080
▁7:	-8081
▁Hi	-8082
▁IN	-8083
▁Im	-8084
▁PE	-8085
▁Pu	-8086
▁Rd	-8087
ages	-8088
burg	-8089
lymp	-8090
oney	-8091
udio	-8092
ພາລາ	-8093
ເພັດ	-8094
▁170	-8095
▁2.0	-8096
▁mon	-8097
▁ຄາມ	-8098
▁ຊາກ	-8099
▁ບົກ	-8100
▁ບໍາ	-8101
▁ປີນ	-8102
▁ແນນ	-8103
ຖາວອນ	-8104
ປະສາດ	-8105
▁Wood	-8106
▁ພາລະ	-8107
▁ເບົາ	-8108
▁ແຮ່ງ	-8109
ຊື່ສັດ	-8110
ນິວເຄຍ	-8111
ແຈກຢາຍ	-8112
ແລະນັກ	-8113
ໂຕ້ຕອບ	-8114
▁2019.	-8115
▁ລະວັງ	-8116
ຂົ່ມຂູ່	-8117
ຮ່ວມເພດ	-8118
▁ຊຸມຊົນ	-8119
▁ອອກຈາກ	-8120
▁ໂຮງຫມໍ	-8121
ຂອງຊີວິດ	-8122
ປະກົດຕົວ	-8123
ມຸດສະລິມ	-8124
▁SlotJar	-8125
▁ບໍລິເວນ	-8126
ຄັ້ງທີສອງ	-8127
ອາດຈະເປັນ	-8128
ເລິກເຊິ່ງ	-8129
ແຈ້ງເຕືອນ	-8130
▁ເຈົ້າຮູ້	-8131
elashstore	-8132
▁ເພີ່ມທະວີ	-8133
ດໍາເນີນຄະດີ	-8134
▁ອິນເຕີເນັດ	-8135
▁ການຄົ້ນຄວ້າ	-8136
**	-8137
ນໍ	-8138
The	-8139
ano	-8140
des	-8141
elf	-8142
fer	-8143
rif	-8144
ກີ້	-8145
ງວດ	-8146
ຈັງ	-8147
ບີບ	-8148
ຫິດ	-8149
ີຊີ	-8150
ແຊມ	-8151
ແບກ	-8152
▁My	-8153
▁Od	-8154
▁SD	-8155
▁SS	-8156
▁ອໍ	-8157
ກະສີ	-8158
ລິຍະ	-8159
ຫ່ວງ	-8160
ເດັດ	-8161
ເດີ້	-8162
ເພີນ	-8163
▁FSX	-8164
▁ext	-8165
▁ຈານ	-8166
▁ທອດ	-8167
▁ລົນ	-8168
▁ຫັກ	-8169
▁ເຫຍ	-8170
▁ແຂກ	-8171
orial	-8172
ຕົກໃຈ	-8173
ມີຄົນ	-8174
ລະທໍາ	-8175
▁86-1	-8176
▁Rock	-8177
▁Wire	-8178
▁csgo	-8179
▁plug	-8180
▁ຕໍ່ໆ	-8181
itting	-8182
ດຽວນີ້	-8183
ຢ່າງມີ	-8184
ສະຫລອງ	-8185
ສົມຜົນ	-8186
ິສະຖານ	-8187
ໂດຍຜູ້	-8188
ໄປສະນີ	-8189
▁ເຊືອກ	-8190
ຊັ້ນນໍາ	-8191
ສະໂມສອນ	-8192
ຫຸ່ນຍົນ	-8193
ຽນລະພາບ	-8194
▁ບັນດານ	-8195
▁ເຮົາຈະ	-8196
ຄະນິດສາດ	-8197
ຝ່າຍຄ້ານ	-8198
▁ຕ້ອນຮັບ	-8199
ຂອງອັງກິດ	-8200
ປາເລດສະໄຕ	-8201
▁ເປັນເວລາ	-8202
ategorized	-8203
▁ຕາເວັນອອກ	-8204
▁ຜົນໄດ້ຮັບ	-8205
▁ຢ່າງຫນ້ອຍ	-8206
▁ເຊິ່ງແມ່ນ	-8207
ຂອງອາເມລິກາ	-8208
ຄວາມສໍາເລັດ	-8209
ທີ່ເກີດຂຶ້ນ	-8210
▁ການຕິດຕັ້ງ	-8211
▁ເຕັກໂນໂລຢີ	-8212
ການຊ່ວຍເຫຼືອ	-8213
ຕັ້ງຂຶ້ນໃນປີ	-8214
▁ຄຸນນະສົມບັດ	-8215
▁ເຮັດໃຫ້ມີແສງ	-8216
LS	-8217
ael	-8218
ili	-8219
omb	-8220
ora	-8221
pal	-8222
ກາວ	-8223
ວາດ	-8224
ີ້ງ	-8225
ແບນ	-8226
ແມງ	-8227
▁CB	-8228
▁MS	-8229
▁Tw	-8230
▁ວໍ	-8231
ding	-8232
ream	-8233
reen	-8234
ຖ້ວນ	-8235
ປັ້ນ	-8236
ມະຕິ	-8237
ມ້ວນ	-8238
່ງໃສ	-8239
▁101	-8240
▁14,	-8241
▁3.0	-8242
▁CAD	-8243
▁Pri	-8244
▁Tem	-8245
▁Ter	-8246
▁are	-8247
▁ser	-8248
▁ງຽບ	-8249
▁ບຸດ	-8250
▁ເທີ	-8251
▁ແບກ	-8252
ities	-8253
riend	-8254
right	-8255
thank	-8256
ກະດານ	-8257
ກະບົດ	-8258
ກໍ່ຈະ	-8259
ປະສິດ	-8260
ມໍເຕີ	-8261
ຮໍໂມນ	-8262
▁ຝັ່ງ	-8263
▁ພາຍຸ	-8264
▁ລົ້ນ	-8265
▁ຫລາດ	-8266
▁ອະນຸ	-8267
apolis	-8268
ຈັບກຸມ	-8269
ີດເພີນ	-8270
▁10000	-8271
▁Model	-8272
▁ຈິດໃຈ	-8273
▁ນິດໄສ	-8274
▁ເດວິດ	-8275
ຄວາມບໍ່	-8276
ເປີດຕົວ	-8277
ໃນລະບົບ	-8278
▁wooden	-8279
▁ການສັກ	-8280
▁ລາຍຊື່	-8281
▁ສັບສົນ	-8282
ການກະທໍາ	-8283
▁ເຖິງວ່າ	-8284
ຂອງຮູບພາບ	-8285
ຫນ້ອຍກວ່າ	-8286
▁ບາງເທື່ອ	-8287
▁ຫຼາຍກວ່າ	-8288
▁ເຂົ້າຈີ່	-8289
▁ໄດ້ມີການ	-8290
ການສົ່ງອອກ	-8291
ຈິນຕະນາການ	-8292
ສັງເກດເຫັນ	-8293
ວ່າເປັນຫຍັງ	-8294
▁ບັນພະບຸລຸດ	-8295
▁ສໍານັກຂ່າວ	-8296
ອີເມວຂອງທ່ານ	-8297
ເປັນທີ່ຮູ້ຈັກ	-8298
CP	-8299
OG	-8300
ih	-8301
▁;	-8302
XVN	-8303
izh	-8304
ope	-8305
ງຽບ	-8306
າມິ	-8307
ົາດ	-8308
ແຊນ	-8309
▁im	-8310
▁ກີ	-8311
▁ຟໍ	-8312
▁ແຫ	-8313
3456	-8314
ader	-8315
isco	-8316
oker	-8317
onal	-8318
ກວາງ	-8319
ວຍອກ	-8320
ຫຍິບ	-8321
ຫມູນ	-8322
ອານຸ	-8323
ຮຸ່ນ	-8324
▁190	-8325
▁360	-8326
▁ກົກ	-8327
▁ຂັງ	-8328
▁ຟັນ	-8329
▁ມອງ	-8330
▁ວັງ	-8331
▁ເມວ	-8332
▁ໂງ່	-8333
ental	-8334
ethyl	-8335
ນໍາພາ	-8336
ເປືອກ	-8337
▁Hond	-8338
▁Hong	-8339
▁Land	-8340
▁Tool	-8341
▁cart	-8342
▁ດີ້ນ	-8343
▁ຕຸ້ນ	-8344
ບໍ່ທັນ	-8345
ປຽບທຽບ	-8346
▁Jizer	-8347
▁crate	-8348
▁ຈະຖືກ	-8349
▁ເກັ່ງ	-8350
ຊີວະພາບ	-8351
▁Luxury	-8352
▁ລໍາດັບ	-8353
ພຣະເຈົ້າ	-8354
ໃນວັນສຸກ	-8355
▁ປ່ຽນແປງ	-8356
ຂອງອົງການ	-8357
ນະຄອນຫຼວງ	-8358
ແສງຕາເວັນ	-8359
▁ຄວາມເປັນ	-8360
ເຕັມໄປດ້ວຍ	-8361
▁ຜູ້ທີ່ໄດ້	-8362
▁ເມື່ອທ່ານ	-8363
ບັນດາໂຄງການ	-8364
▁ການເຮັດວຽກ	-8365
▁ເດືອນພະຈິກ	-8366
ອີກເທື່ອຫນຶ່ງ	-8367
▁ແຜນຜັງເວັບໄຊ	-8368
91	-8369
94	-8370
RP	-8371
ມມ	-8372
ົ້	-8373
FTA	-8374
USD	-8375
ibr	-8376
ift	-8377
ony	-8378
rug	-8379
ດູນ	-8380
ຕຶກ	-8381
ບົກ	-8382
ບໄຊ	-8383
ຣິສ	-8384
ອິງ	-8385
▁52	-8386
▁DM	-8387
▁kg	-8388
heel	-8389
ract	-8390
ຊຸ່ມ	-8391
ຍື່ນ	-8392
ພາລະ	-8393
ຼລິກ	-8394
ເຢຊູ	-8395
▁16,	-8396
▁ຂັນ	-8397
▁ຜືນ	-8398
▁ແຄມ	-8399
ກົນໄກ	-8400
ຈໍເຈຍ	-8401
ຖືວ່າ	-8402
ໃຈກາງ	-8403
ໃນມື້	-8404
▁Thom	-8405
▁free	-8406
▁hand	-8407
ກະທັ້ງ	-8408
ກົດຈິດ	-8409
ຂອງຈີນ	-8410
ຂອງທີມ	-8411
ຂຶ້ນໄປ	-8412
ຄາດວ່າ	-8413
ຄົງທີ່	-8414
ປີກ່ອນ	-8415
ລົບກວນ	-8416
ສັກສິດ	-8417
ໄປເຖິງ	-8418
▁Crypt	-8419
▁Glass	-8420
▁Solom	-8421
▁ຍັງມີ	-8422
▁ທິພົນ	-8423
▁ອິດສະ	-8424
ບາງຄັ້ງ	-8425
ມັນແມ່ນ	-8426
ລົ້ມເຫຼ	-8427
ວິທີທີ່	-8428
ຫຼັກການ	-8429
ອະນຸລັກ	-8430
ຮູບຖ່າຍ	-8431
ແບ່ງແຍກ	-8432
▁Rights	-8433
▁ກວດສອບ	-8434
▁ກັບການ	-8435
▁ຈັດການ	-8436
▁ຍັງໄດ້	-8437
▁ຕໍ່ກັບ	-8438
▁ວຽກງານ	-8439
▁ສະຫມັກ	-8440
▁ແຕ່ກໍ່	-8441
▁ໂອບາມາ	-8442
ຕ້ອງເຮັດ	-8443
ທີ່ມາຈາກ	-8444
ປະສານງານ	-8445
ແລະສາມາດ	-8446
▁Virtual	-8447
▁virtual	-8448
▁ໂຄງສ້າງ	-8449
▁ໄດ້ເປັນ	-8450
ທໍາອິດທີ່	-8451
ວິສະວະກໍາ	-8452
ສູງສຸດຂອງ	-8453
ແນະນໍາໃຫ້	-8454
▁Reserved	-8455
▁ເຈົ້າຍັງ	-8456
ຂອງທ່ານແລະ	-8457
ບໍລິສັດທີ່	-8458
ມີຄວາມສ່ຽງ	-8459
ສໍາລັບທ່ານ	-8460
▁Machinery	-8461
▁ເທົ່ານັ້ນ	-8462
ງານວາງສະແດງ	-8463
ທີ່ບໍ່ສາມາດ	-8464
▁ສູດໂມເລກຸນ	-8465
ຂອງພວກເຮົາມີ	-8466
▁Mississippi	-8467
ຄໍາຫມັ້ນສັນຍາ	-8468
ຜູ້ໃຫ້ບໍລິການ	-8469
▁ການເຄື່ອນໄຫວ	-8470
▁Meyelashstore	-8471
1-	-8472
52	-8473
56	-8474
81	-8475
GD	-8476
ືງ	-8477
ais	-8478
ico	-8479
ler	-8480
rab	-8481
ຂະນ	-8482
ງົວ	-8483
ລິງ	-8484
ັອກ	-8485
່ວິ	-8486
▁56	-8487
▁Ag	-8488
▁HP	-8489
▁PU	-8490
▁RM	-8491
atin	-8492
atte	-8493
berg	-8494
ents	-8495
iles	-8496
ກ໊າຊ	-8497
ໆນີ້	-8498
▁Dec	-8499
▁Pal	-8500
▁Pen	-8501
▁ງົວ	-8502
▁ຊັນ	-8503
▁ຖອນ	-8504
▁ມອນ	-8505
▁ແລນ	-8506
osmos	-8507
ມັນຈະ	-8508
ສັດຕູ	-8509
▁Coil	-8510
▁Ninj	-8511
▁ຂື້ນ	-8512
▁ຊຶ້ງ	-8513
▁ບັນດ	-8514
▁ແຕ່ນ	-8515
▁ແອັບ	-8516
ກະເປົາ	-8517
ຊຸມນຸມ	-8518
ດຽວກັບ	-8519
ຕ້ອງມີ	-8520
ປະເດັນ	-8521
ລົດຖີບ	-8522
▁2018.	-8523
▁Dubai	-8524
▁River	-8525
▁Sheet	-8526
▁Slots	-8527
▁ແຫນ່ງ	-8528
.......	-8529
ຈັດຂື້ນ	-8530
ພັນລະຍາ	-8531
ສອງຄັ້ງ	-8532
ແມ່ນ້ໍາ	-8533
▁Global	-8534
▁ຕາມການ	-8535
▁ສົມທົບ	-8536
▁ຫນ້າຈໍ	-8537
▁ເຈົ້ານ	-8538
ອັນດັບທີ	-8539
ໄລຍະເວລາ	-8540
ໄຮໂດຼລິກ	-8541
▁ຮ້າຍແຮງ	-8542
▁ແຕ່ຂ້ອຍ	-8543
▁ແມ່ນຖືກ	-8544
ຢືນຢັນວ່າ	-8545
ເຫດສົມຜົນ	-8546
▁Archives	-8547
▁ປ່ອງຢ້ຽມ	-8548
ຂອງອຸປະກອນ	-8549
ຕາມກົດຫມາຍ	-8550
ພວກເຂົາໄດ້	-8551
▁transposh	-8552
▁ຜູ້ຈັດການ	-8553
▁ພວກເຮົາຍັງ	-8554
▁ກ່ອນຫນ້ານີ້	-8555
ຂອງພວກເຮົາໄດ້	-8556
96	-8557
AE	-8558
IM	-8559
ht	-8560
ັ໊	-8561
ໄຫ	-8562
-00	-8563
-40	-8564
ham	-8565
por	-8566
rit	-8567
ume	-8568
ຣອນ	-8569
ວີບ	-8570
ເວຍ	-8571
ໄຮ້	-8572
▁.:	-8573
▁Ba	-8574
▁DX	-8575
▁Ke	-8576
▁To	-8577
▁ap	-8578
▁la	-8579
2005	-8580
jack	-8581
ຊ້ອມ	-8582
ອັກຄ	-8583
ັກຄີ	-8584
ແມັກ	-8585
ແອັດ	-8586
▁Dom	-8587
▁Mat	-8588
▁Set	-8589
▁ຊວນ	-8590
▁ທິມ	-8591
▁ອວດ	-8592
▁ໂດດ	-8593
ensor	-8594
glish	-8595
light	-8596
ທີ່ມາ	-8597
ອກລວງ	-8598
ເທດສະ	-8599
▁Cast	-8600
▁York	-8601
▁mult	-8602
▁ເສີດ	-8603
ຂອງສານ	-8604
ທ່າແຮງ	-8605
ມັນໄດ້	-8606
ເປື້ອນ	-8607
▁Speed	-8608
▁ປາກົດ	-8609
▁ມຕົ້ນ	-8610
ຄັດຄ້ານ	-8611
ພີ່ນ້ອງ	-8612
▁(2015)	-8613
▁Length	-8614
▁Office	-8615
▁ທົ່ວໄປ	-8616
▁ວິທະຍຸ	-8617
ນັກສຶກສາ	-8618
ຜູ້ຫນຶ່ງ	-8619
ມັດທະຍົມ	-8620
ຫນາແຫນ້ນ	-8621
ໂດຍບໍ່ມີ	-8622
ການໂຄສະນາ	-8623
ຄ້າຍຄືກັບ	-8624
ບໍ່ມີຫຍັງ	-8625
ພົວພັນກັບ	-8626
ມີຄວາມສຸກ	-8627
ຢ່າງແທ້ຈິງ	-8628
ສິ່ງທ້າທາຍ	-8629
▁ການໂຄສະນາ	-8630
▁ທະນາຍຄວາມ	-8631
▁ສະຫນາມບິນ	-8632
▁ຫນັກຫນ່ວງ	-8633
▁ເນັ້ນຫນັກ	-8634
▁ໃນປະຈຸບັນ	-8635
ການຕັດສິນໃຈ	-8636
ມີຄວາມສາມາດ	-8637
▁ເພື່ອແນໃສ່	-8638
▁ແສງສະຫວ່າງ	-8639
ແລະພວກເຮົາຈະ	-8640
ພື້ນຖານໂຄງລ່າງ	-8641
ໃນການເລືອກຕັ້ງ	-8642
54	-8643
km	-8644
-16	-8645
-30	-8646
-86	-8647
EAN	-8648
acy	-8649
ife	-8650
ior	-8651
ple	-8652
ຄະລ	-8653
ງັບ	-8654
ດິບ	-8655
ຕີ້	-8656
ທິມ	-8657
ຫ້ວ	-8658
▁47	-8659
▁Jo	-8660
▁Ly	-8661
▁SH	-8662
▁TP	-8663
orts	-8664
ward	-8665
ຊິ້ນ	-8666
ຊ໊ອບ	-8667
ຫຍ້າ	-8668
ຮ່ອງ	-8669
ເທັກ	-8670
ເຟີນ	-8671
▁240	-8672
▁50%	-8673
▁ABS	-8674
▁LLC	-8675
▁SKU	-8676
▁Soc	-8677
▁ben	-8678
▁ຊິນ	-8679
▁ຕຶງ	-8680
▁ບູນ	-8681
▁ພຽນ	-8682
▁ລາງ	-8683
▁ເວີ	-8684
ision	-8685
ຕໍ່ປີ	-8686
ນີ້ມີ	-8687
ສະວິດ	-8688
ສິກອນ	-8689
ໂບນັດ	-8690
▁ITIL	-8691
▁Karn	-8692
▁Paul	-8693
▁Ther	-8694
▁plus	-8695
▁ຮ່ອງ	-8696
ipping	-8697
ຂັບຂີ່	-8698
ຄໍາວ່າ	-8699
ບັນຍາຍ	-8700
ຜູ້ຖືກ	-8701
ວິທະຍຸ	-8702
ສູງແລະ	-8703
ອັບອາຍ	-8704
▁Giant	-8705
▁Inter	-8706
▁Olymp	-8707
▁ແນວໃດ	-8708
ກ່າວກັບ	-8709
ມໍລະດົກ	-8710
ສົ່ງຜົນ	-8711
ໃນໂອກາດ	-8712
▁ໄດ້ໃຫ້	-8713
ຄໍາເວົ້າ	-8714
ນ້ໍາຖ້ວມ	-8715
ປ່ອງຢ້ຽມ	-8716
ລົ້ມເຫຼວ	-8717
ຫມູ່ບ້ານ	-8718
າລະໂອກາດ	-8719
▁ການອ່ານ	-8720
▁ບັງເກີດ	-8721
▁ໃນບັນດາ	-8722
ຄູ່ຮ່ວມມື	-8723
ທະນາຍຄວາມ	-8724
ທີ່ເຮັດວຽກ	-8725
ພວກເຮົາຍັງ	-8726
ວ່າພວກເຮົາ	-8727
ສະດວກສະບາຍ	-8728
ໄດ້ເຮັດໃຫ້	-8729
▁Butterfly	-8730
▁ບໍ່ພຽງແຕ່	-8731
▁ພຣະບັນຍັດ	-8732
ຜົນກະທົບຂອງ	-8733
▁ກົງກັນຂ້າມ	-8734
ນັບຕັ້ງແຕ່ປີ	-8735
▁ພວກເຮົາແມ່ນ	-8736
AY	-8737
GE	-8738
LL	-8739
OB	-8740
hi	-8741
ຍີ	-8742
ແຮ	-8743
໊ດ	-8744
anc	-8745
ini	-8746
lam	-8747
lee	-8748
opp	-8749
ris	-8750
ຕຣາ	-8751
ຕາກ	-8752
ຜົວ	-8753
ຟຸກ	-8754
ຫິນ	-8755
ເຈາ	-8756
ໂຟນ	-8757
໋ອງ	-8758
▁(6	-8759
▁TG	-8760
▁ສື	-8761
aker	-8762
alls	-8763
eder	-8764
long	-8765
rent	-8766
user	-8767
ປຶ້ມ	-8768
ວນໍາ	-8769
ເຊີດ	-8770
ແກັດ	-8771
ແຊ້ມ	-8772
▁(10	-8773
▁000	-8774
▁140	-8775
▁Act	-8776
▁Oct	-8777
▁Rom	-8778
▁Sar	-8779
▁sub	-8780
▁ຈອດ	-8781
▁ທຽມ	-8782
▁ຢິວ	-8783
▁ໂລດ	-8784
▁ໄຖ່	-8785
otrop	-8786
posit	-8787
ution	-8788
ຊີຟິກ	-8789
ສະເປນ	-8790
ຫາຍໃຈ	-8791
▁Idea	-8792
▁game	-8793
rusion	-8794
yelash	-8795
ຈອດລົດ	-8796
ຍາວນານ	-8797
ສິ່ງໃດ	-8798
ໃນກຸ່ມ	-8799
▁2017,	-8800
▁ນິຍົມ	-8801
ຫລັກຖານ	-8802
ອາໄສຢູ່	-8803
ແມ່ນຍໍາ	-8804
ໄວຫນຸ່ມ	-8805
▁123456	-8806
▁cheats	-8807
▁double	-8808
▁ກອງທຶນ	-8809
▁ວ່າການ	-8810
▁ສິດສອນ	-8811
neapolis	-8812
ປະຈໍາວັນ	-8813
ມິດຕະພາບ	-8814
ລົ້ມເຫລວ	-8815
ອັດຕາການ	-8816
ແຜ່ກະຈາຍ	-8817
▁ສະຫະພາບ	-8818
▁ເດັກຍິງ	-8819
▁ແຂ່ງຂັນ	-8820
ທີ່ສຸດຂອງ	-8821
ເນັ້ນຫນັກ	-8822
▁Solomons	-8823
▁ຄະນະກໍາມະ	-8824
▁ທີ່ສໍາຄັນ	-8825
categorized	-8826
ການທ່ອງທ່ຽວ	-8827
ດໍາລົງຊີວິດ	-8828
ປົກປັກຮັກສາ	-8829
ຢ່າງເຕັມທີ່	-8830
▁galvanized	-8831
▁ໄດ້ດໍາເນີນ	-8832
ສາມາດເຮັດໄດ້	-8833
ສົມເຫດສົມຜົນ	-8834
▁ຫລັງຈາກນັ້ນ	-8835
▁ແຫຼ່ງຂໍ້ມູນ	-8836
▁ພວກເຮົາກໍາລັງ	-8837
57	-8838
fe	-8839
ຮີ	-8840
▁]	-8841
.99	-8842
ana	-8843
oug	-8844
ຖຸດ	-8845
ຣິນ	-8846
ຫມູ	-8847
ອາງ	-8848
ເຄຣ	-8849
ເຟີ	-8850
ແງ່	-8851
ໂພງ	-8852
▁Ru	-8853
▁we	-8854
▁ລູ	-8855
▁ໄດ	-8856
ians	-8857
iece	-8858
inal	-8859
iner	-8860
unch	-8861
ກາລະ	-8862
ດ່ຽວ	-8863
ລະນາ	-8864
ລັ່ງ	-8865
ຫຼັບ	-8866
ເກິດ	-8867
▁15,	-8868
▁Gen	-8869
▁Sub	-8870
▁car	-8871
▁ຂວດ	-8872
▁ທວນ	-8873
▁ບວກ	-8874
▁ມວນ	-8875
▁ຫາດ	-8876
▁ໄຫ້	-8877
ພູມໃຈ	-8878
ສາຍຕາ	-8879
ສາດສະ	-8880
ໄປຈາກ	-8881
▁Inje	-8882
▁iPad	-8883
▁prin	-8884
▁ມຸ່ງ	-8885
▁ສັ່ນ	-8886
▁ຫງົບ	-8887
etooth	-8888
ຄົນດຽວ	-8889
ຕົວຕົນ	-8890
ສີ່ຄົນ	-8891
ຈົນກວ່າ	-8892
ຈໍາເພາະ	-8893
ທີ່ໃຫຍ່	-8894
ລີນິຍົມ	-8895
ວິຊາຊີບ	-8896
ສິນລະປະ	-8897
ສໍາມະນາ	-8898
ເຕືອນໄພ	-8899
ເວລານີ້	-8900
ເສລີພາບ	-8901
ແນວນັ້ນ	-8902
▁Driver	-8903
▁crypto	-8904
▁ສີເທົາ	-8905
▁ຮຸນແຮງ	-8906
▁ເຫຍື່ອ	-8907
▁ໄຕ່ຕອງ	-8908
inecolor	-8909
ຍົກລະດັບ	-8910
ປະເທດຊາດ	-8911
ຢ່າງຫນັກ	-8912
ຫລວງຫລາຍ	-8913
ຫຼາຍຂຶ້ນ	-8914
▁ຂຸດຄົ້ນ	-8915
▁ມາເລເຊຍ	-8916
▁ມື້ນັ້ນ	-8917
▁ສັດລ້ຽງ	-8918
ທີ່ຈະເປັນ	-8919
ທໍາອິດຂອງ	-8920
ສະຫນອງການ	-8921
ເດີນທາງໄປ	-8922
ໃນສະຫະລັດ	-8923
▁ການໂຈມຕີ	-8924
▁ຫນ່ວຍງານ	-8925
▁ຫມັ້ນຄົງ	-8926
▁ໃນທີ່ສຸດ	-8927
ຄິດກ່ຽວກັບ	-8928
ຍົກຕົວຢ່າງ	-8929
ຕ້ອງການໃຫ້	-8930
ລາຍງານຂ່າວ	-8931
ສົນທິສັນຍາ	-8932
ເສຍຊີວິດໃນ	-8933
ຄວາມແຕກຕ່າງ	-8934
▁ການຕໍ່ຕ້ານ	-8935
▁ມັນບໍ່ແມ່ນ	-8936
▁ອິນໂດເນເຊຍ	-8937
ສິ່ງເສດເຫຼືອ	-8938
ເອເລັກໂຕຣນິກ	-8939
▁ເດືອນມິຖຸນາ	-8940
ມີຜູ້ເສຍຊີວິດ	-8941
▁ມົນທົນຊານຕົງ	-8942
ພື້ນຖານເສດຖະກິດ	-8943
▁ກ່າວຄໍາເຫັນທີ່	-8944
92	-8945
ya	-8946
”,	-8947
="2	-8948
Com	-8949
bar	-8950
ced	-8951
ras	-8952
ທົວ	-8953
ຮັນ	-8954
▁Py	-8955
▁TS	-8956
▁Wu	-8957
▁ນູ	-8958
▁ວະ	-8959
▁ຮໍ	-8960
-100	-8961
auda	-8962
engo	-8963
luor	-8964
ຄ້າງ	-8965
ຊະນີ	-8966
ດີຈີ	-8967
ປັ່ນ	-8968
ອ່າວ	-8969
ະນັກ	-8970
ເບີຍ	-8971
ໂຊຕາ	-8972
▁12,	-8973
▁25,	-8974
▁Atl	-8975
▁BBC	-8976
▁Bra	-8977
▁Hat	-8978
▁Rod	-8979
▁Sun	-8980
▁USA	-8981
▁pet	-8982
▁ປອກ	-8983
▁ປົວ	-8984
▁ແມນ	-8985
▁ແຮ່	-8986
allow	-8987
ກະສັດ	-8988
ເລເຊີ	-8989
ເຫລໍກ	-8990
ໄດ້ດີ	-8991
ໄຕມາດ	-8992
້ນ້ໍາ	-8993
▁Brow	-8994
▁Last	-8995
▁that	-8996
▁ຍິ້ມ	-8997
▁ເເລະ	-8998
ກັນກັບ	-8999
ກໍາແພງ	-9000
ຄອບຄອງ	-9001
ຍົກສູງ	-9002
ລາຍຮັບ	-9003
ລົງຈອດ	-9004
ສອບຖາມ	-9005
ອົດທົນ	-9006
ເຄີຍມີ	-9007
ແຫວງຫາ	-9008
ໃຕ້ຂອງ	-9009
▁Hotel	-9010
▁dress	-9011
▁screw	-9012
▁ກະຈາຍ	-9013
▁ກະດູກ	-9014
ຂອງຂວັນ	-9015
ຊະຍາກໍາ	-9016
ທີ່ເຮົາ	-9017
ສະຖານນີ	-9018
ສ່ວນທີ່	-9019
ອີກດ້ວຍ	-9020
ອ້າງອີງ	-9021
ເນື້ອຫາ	-9022
▁0086-5	-9023
▁10,000	-9024
▁Island	-9025
▁Karnar	-9026
▁ການໃຊ້	-9027
▁ຂະແຫນງ	-9028
▁ນັ້ນຄື	-9029
▁ເອື້ອມ	-9030
▁ແລະຜູ້	-9031
▁ໄດ້ນໍາ	-9032
ຍາກທີ່ຈະ	-9033
ຕ່ໍາກວ່າ	-9034
ບັນຊາການ	-9035
ວກະສິກອນ	-9036
ໃນວັນຈັນ	-9037
ໄດ້ເລີ່ມ	-9038
▁Casengo	-9039
▁ປະເທດໄທ	-9040
▁ສະຫະພັນ	-9041
ທົນທານຕໍ່	-9042
ບັງຄັບໃຫ້	-9043
ປະເມີນຜົນ	-9044
▁ກໍາປູເຈຍ	-9045
▁ແມ່ນເປັນ	-9046
ຖະແຫຼງຂ່າວ	-9047
▁ທ່ານອາດຈະ	-9048
▁ປະກອບສ່ວນ	-9049
▁ພິເສດແມ່ນ	-9050
▁ໃບອະນຸຍາດ	-9051
ການສົ່ງເສີມ	-9052
▁ເຄື່ອງຫມາຍ	-9053
ເວລາທ້ອງຖິ່ນ	-9054
▁Minneapolis	-9055
ຈຸດຫມາຍປາຍທາງ	-9056
▁ການຊໍາລະເງິນ	-9057
▁ໃນການແຂ່ງຂັນ	-9058
▁ແລະຂ້າພະເຈົ້າ	-9059
▁...............	-9060
Se	-9061
ຫູ	-9062
.16	-9063
Air	-9064
ste	-9065
ຍົດ	-9066
ຮາດ	-9067
▁89	-9068
▁IC	-9069
acet	-9070
anda	-9071
head	-9072
ones	-9073
ຄວັນ	-9074
ນິ້ວ	-9075
ຟິລິ	-9076
ເປີ້	-9077
ແລ້ງ	-9078
ໆທີ່	-9079
▁1.2	-9080
▁API	-9081
▁Sec	-9082
▁Tab	-9083
▁mac	-9084
▁nad	-9085
▁ຈົງ	-9086
▁ດີດ	-9087
▁ຕຽງ	-9088
▁ຫນູ	-9089
aring	-9090
ather	-9091
ional	-9092
ocket	-9093
venue	-9094
ຄໍາພີ	-9095
ລົດເມ	-9096
ສາມັນ	-9097
ອິລັກ	-9098
ຮັບມື	-9099
ຸງການ	-9100
ໃນງານ	-9101
ໄປທາງ	-9102
ໍານຶງ	-9103
▁Link	-9104
▁Open	-9105
▁Over	-9106
▁Prof	-9107
▁Qual	-9108
▁wind	-9109
▁ແຍ່ງ	-9110
▁ໂຫຼດ	-9111
▁Forum	-9112
▁Honda	-9113
▁House	-9114
ກະເປົ໋າ	-9115
ຄາດຫມາຍ	-9116
ຖ້ຽວບິນ	-9117
ຫັນປ່ຽນ	-9118
ຫຼັກຊັບ	-9119
ັ້ງເດີມ	-9120
▁Fabric	-9121
▁ການນໍາ	-9122
▁ການພິມ	-9123
▁ທີ່ສຸດ	-9124
▁ຜູ້ຂຽນ	-9125
▁ລອນດອນ	-9126
ທາງທະຫານ	-9127
ສັນຍາລັກ	-9128
▁Company	-9129
▁English	-9130
▁Jizerou	-9131
▁ເຮືອບິນ	-9132
ກໍາລັງກາຍ	-9133
ບໍ່ຮູ້ວ່າ	-9134
ລົງສະຫມັກ	-9135
▁ບ່ອນນັ່ງ	-9136
ການເດີນທາງ	-9137
ພົນລະເຮືອນ	-9138
▁ສະຖານະການ	-9139
ສະພາແຫ່ງຊາດ	-9140
ໃນປະຫວັດສາດ	-9141
▁ການຄຸ້ມຄອງ	-9142
▁ຢູ່ຮ່າໂນ້ຍ	-9143
ດ້ານຈັນຍາບັນ	-9144
ໃນອຸດສາຫະກໍາ	-9145
ຂອງການແຂ່ງຂັນ	-9146
▁Uncategorized	-9147
▁ຂຸດຄົ້ນບໍ່ແຮ່	-9148
ເພີ່ມເຕີມກ່ຽວກັບ	-9149
8.	-9150
Pl	-9151
Un	-9152
ko	-9153
rd	-9154
ada	-9155
ani	-9156
bag	-9157
elt	-9158
ena	-9159
ots	-9160
uki	-9161
unt	-9162
war	-9163
ທຽນ	-9164
ມືດ	-9165
ຢ່າ	-9166
ຣັສ	-9167
ລີ້	-9168
ວິວ	-9169
ຫອມ	-9170
ເຫນ	-9171
ໂປຣ	-9172
▁5%	-9173
▁64	-9174
▁vs	-9175
▁ຟິ	-9176
akes	-9177
amin	-9178
ants	-9179
avic	-9180
ijia	-9181
uddy	-9182
yang	-9183
ຈິ່ງ	-9184
ດຍິງ	-9185
ຣ່ານ	-9186
▁Aug	-9187
▁Tor	-9188
▁rou	-9189
▁ຄອຍ	-9190
▁ນັດ	-9191
▁ລຸງ	-9192
▁ໂກງ	-9193
indle	-9194
urity	-9195
ຖຸດິບ	-9196
ອາລົມ	-9197
▁Chem	-9198
▁List	-9199
▁Nick	-9200
▁Phil	-9201
▁Tape	-9202
▁ຍ່ອຍ	-9203
▁ຖ່ານ	-9204
▁ແຂ້ວ	-9205
ການປິດ	-9206
ການອອກ	-9207
ກ້າຫານ	-9208
ວ່ານັກ	-9209
ສໍາອາງ	-9210
ຫ່າງໄກ	-9211
ອີເມລ໌	-9212
ເຕະບານ	-9213
ໃນຖານະ	-9214
▁2012.	-9215
▁Cauda	-9216
▁Panel	-9217
▁Union	-9218
▁mavic	-9219
▁ເຊົ່າ	-9220
ຂໍຂອບໃຈ	-9221
ຄວາມລັບ	-9222
ດີຈີຕອນ	-9223
ພາຍຫຼັງ	-9224
▁ພາກຮຽນ	-9225
atalogue	-9226
ເທົ່າທຽມ	-9227
ການກວດສອບ	-9228
ຂະແຫນງການ	-9229
ເສລີນິຍົມ	-9230
▁ຮອງປະທານ	-9231
ການຄາດຄະເນ	-9232
ປະຫານຊີວິດ	-9233
▁2006-2020	-9234
▁Guangzhou	-9235
▁ຜົນປະໂຫຍດ	-9236
ທີ່ຈະໄດ້ຮັບ	-9237
ບັນຊີລາຍການ	-9238
ເປັນປົກກະຕິ	-9239
ເປັນມືອາຊີບ	-9240
▁ຫລັງຈາກທີ່	-9241
ດັ່ງຕໍ່ໄປນີ້	-9242
ທໍາຄວາມສະອາດ	-9243
ຜະລິດຕະພັນຫຼື	-9244
▁ການເຊື່ອມຕໍ່	-9245
SI	-9246
UT	-9247
WS	-9248
ะน	-9249
ຝາ	-9250
ama	-9251
car	-9252
gin	-9253
ige	-9254
iti	-9255
umm	-9256
ura	-9257
ໄຂ່	-9258
ໄຫ້	-9259
▁63	-9260
▁IR	-9261
▁Ma	-9262
▁RH	-9263
▁up	-9264
▁ລື	-9265
▁ໄຣ	-9266
abol	-9267
chat	-9268
oriz	-9269
raft	-9270
ryst	-9271
ຈະລາ	-9272
ພ່ອງ	-9273
ສາຂາ	-9274
ເຂັມ	-9275
ເຊັດ	-9276
ໂທໂລ	-9277
ໂຫວດ	-9278
ໄອທີ	-9279
▁29,	-9280
▁Det	-9281
▁Sit	-9282
▁ຍຸກ	-9283
▁ລ່າ	-9284
▁ຮາວ	-9285
▁ແມງ	-9286
▁ແລງ	-9287
00:00	-9288
lythe	-9289
offee	-9290
ກະບອກ	-9291
ກະເສດ	-9292
ຄາບອນ	-9293
ລັກພາ	-9294
ລິຄອບ	-9295
ສະເຫນ	-9296
ັຟການ	-9297
▁1990	-9298
▁Belt	-9299
▁Visa	-9300
▁blog	-9301
▁over	-9302
▁ກິ່ນ	-9303
▁ຕ້ອນ	-9304
▁ທ່ຽງ	-9305
▁ນຶ່ງ	-9306
▁ຫລອກ	-9307
▁ຫຼວງ	-9308
eboard	-9309
ension	-9310
estern	-9311
ຂອງຫົວ	-9312
ຂື້ນມາ	-9313
ຈາກຜູ້	-9314
ຕອບໂຕ້	-9315
ທີ່ອາດ	-9316
ຢູ່ທາງ	-9317
ລ່າສຸດ	-9318
ຸ້ນວາຍ	-9319
ເອີລົບ	-9320
ໄດ້ໃຫ້	-9321
▁TTXVN	-9322
▁Warin	-9323
▁super	-9324
▁ພຽງພໍ	-9325
▁ມີຄົນ	-9326
▁ເດີ່ນ	-9327
▁ເຝົ້າ	-9328
ຄວາມຈໍາ	-9329
ຄວາມສູງ	-9330
ຈິງແລ້ວ	-9331
ດູດຝຸ່ນ	-9332
ປຸງແຕ່ງ	-9333
ລິມະສິດ	-9334
ອາຟຣິກາ	-9335
ແຫ່ງລັດ	-9336
ໄຂ້ຫວັດ	-9337
▁Commun	-9338
▁Rotary	-9339
▁Shijia	-9340
▁design	-9341
▁ຂ້ອຍຈະ	-9342
▁ສັນຍານ	-9343
▁ສິນຄ້າ	-9344
ຈະມາເຖິງ	-9345
ສະແດງອອກ	-9346
ອອກແບບມາ	-9347
ເຂັ້ມງວດ	-9348
▁Jiangsu	-9349
▁Program	-9350
▁ປະລິນຍາ	-9351
▁ອາຍແກັສ	-9352
▁ແລະຄວາມ	-9353
ຄຣິດສະມາດ	-9354
ຄວາມສະດວກ	-9355
ະລັດຖະທູດ	-9356
ເຫດການນີ້	-9357
ແມ່ນເພື່ອ	-9358
ໃນພາກພື້ນ	-9359
▁Pressure	-9360
▁Standard	-9361
ເຮັດວຽກຢູ່	-9362
ໂຮງພະຍາບານ	-9363
ໄດ້ກາຍເປັນ	-9364
▁Bluetooth	-9365
▁Injection	-9366
▁ການສະຫນອງ	-9367
▁ຂະແຫນງການ	-9368
▁ຜູ້ສະຫມັກ	-9369
ຂອງພຣະເຈົ້າ	-9370
ສາມາດນໍາໃຊ້	-9371
ໃນທົ່ວປະເທດ	-9372
▁Fiberglass	-9373
▁ການປ້ອງກັນ	-9374
▁ປະທານປະເທດ	-9375
▁ເດືອນທັນວາ	-9376
▁ສະຫະປະຊາຊາດ	-9377
ສະເພາະໃດຫນຶ່ງ	-9378
ອັກຄະລັດຖະທູດ	-9379
ແລະການພັດທະນາ	-9380
▁Shijiazhuang	-9381
▁ລະບົບຕ່ອງໂສ້	-9382
▁ລະຫັດບໍລິສັດ	-9383
ເຫດການດັ່ງກ່າວ	-9384
▁ຕອນເຊົ້າວັນທີ	-9385
ຕາເວັນອອກສ່ຽງໃຕ້	-9386
":	-9387
,"	-9388
83	-9389
9,	-9390
BR	-9391
It	-9392
LP	-9393
Bet	-9394
aft	-9395
bet	-9396
ຄອຍ	-9397
ນົກ	-9398
ເບນ	-9399
ແຟນ	-9400
ໂຈນ	-9401
ໄຕ່	-9402
▁93	-9403
▁Ga	-9404
▁Go	-9405
▁MY	-9406
▁SE	-9407
▁ຖຸ	-9408
▁ຟາ	-9409
fter	-9410
inyl	-9411
pack	-9412
ທໍລະ	-9413
ຫນີ້	-9414
ຫລຽນ	-9415
ເນົາ	-9416
ເມົາ	-9417
▁Ham	-9418
▁Mer	-9419
▁Mos	-9420
▁ste	-9421
▁ter	-9422
▁ງວນ	-9423
▁ທັກ	-9424
▁ນົງ	-9425
▁ສົກ	-9426
▁ແພ້	-9427
▁ແຫວ	-9428
▁ໂສດ	-9429
house	-9430
older	-9431
ublic	-9432
urner	-9433
wheel	-9434
ຈັກກະ	-9435
ບານອນ	-9436
ຫລົ່ມ	-9437
ຫາສຽງ	-9438
ເອເຊຍ	-9439
ໃບໄມ້	-9440
▁Camb	-9441
▁ບູຊາ	-9442
▁ລະບຸ	-9443
+00:00	-9444
ກິລິຍາ	-9445
ຄົນນີ້	-9446
ທີ່ເຄຍ	-9447
ລະນິທິ	-9448
ລົດລົງ	-9449
ວ່ານີ້	-9450
ຫາວິທີ	-9451
ອາເມກາ	-9452
ແລະຖືກ	-9453
▁State	-9454
▁ສາກົນ	-9455
▁ສົງໄສ	-9456
▁ແຕ່ໃນ	-9457
ization	-9458
ຄາດເດົາ	-9459
ຄືນໃຫມ່	-9460
ມີໂອກາດ	-9461
ລຸ່ມນີ້	-9462
ວິໄສທັດ	-9463
ເສັ້ນໃຍ	-9464
▁Avenue	-9465
▁Turkey	-9466
▁ກໍາຈັດ	-9467
▁ຕົວເລກ	-9468
▁ຮຽນຮູ້	-9469
▁ແຕ່ຍັງ	-9470
▁ແມ່ຕູ້	-9471
▁ໂຄສະນາ	-9472
ຢ່າງຍິ່ງ	-9473
ວໍຊິງຕັນ	-9474
ສ່ວນຮ່ວມ	-9475
ຫລາຍຂຶ້ນ	-9476
ະພະຍາຍາມ	-9477
ັບປຸງການ	-9478
▁Flatbed	-9479
▁ອາຟຣິກາ	-9480
ກັນແລະກັນ	-9481
ຄວາມໄວສູງ	-9482
ຄະນະກໍາມະ	-9483
ຍານພາຫະນະ	-9484
ທີ່ຈະເຮັດ	-9485
ບຸກຄົນທີ່	-9486
ບໍ່ໄດ້ຮັບ	-9487
ວິທີແກ້ໄຂ	-9488
ສະເຫນີໃຫ້	-9489
ສໍາລັບຜູ້	-9490
ໂດຍອີງໃສ່	-9491
▁tattoost	-9492
▁ຄວາມຮ້ອນ	-9493
▁ສາທາລະນະ	-9494
▁ເປັນຕ້ອງ	-9495
▁ເສຍຊີວິດ	-9496
ກະຕືລືລົ້ນ	-9497
ການປະກັນໄພ	-9498
ຫ້ອງທົດລອງ	-9499
ເວລາດົນນານ	-9500
ແລະອຸປະກອນ	-9501
ໃນວັນອາທິດ	-9502
▁ສາຍການບິນ	-9503
▁ຫົວຂໍ້ໄວ້	-9504
ການສ້າງຕັ້ງ	-9505
▁ງວນລິຂະສິດ	-9506
▁ແມ່ນໄດ້ຖືກ	-9507
ມີການປ່ຽນແປງ	-9508
▁ຄວາມຫນາແຫນ້ນ	-9509
▁ຕອນບ່າຍວັນທີ	-9510
▁ຢ່າງໃດກໍ່ຕາມ	-9511
ທາງດ້ານການເງິນ	-9512
ເພື່ອໃຫ້ໄດ້ຮັບ	-9513
ແລະຫຼັງຈາກນັ້ນ	-9514
▁ອົງການຈັດຕັ້ງ	-9515
▁ໂດຍສະເພາະແມ່ນ	-9516
Ar	-9517
II	-9518
bl	-9519
nd	-9520
sy	-9521
za	-9522
ຖີ	-9523
IAN	-9524
eta	-9525
get	-9526
ida	-9527
ugh	-9528
ງ່າ	-9529
ຈອກ	-9530
ຕ່າ	-9531
ພວມ	-9532
ມົງ	-9533
ລອບ	-9534
ເບວ	-9535
ໄຊ້	-9536
▁1%	-9537
▁57	-9538
▁98	-9539
▁Ta	-9540
▁ss	-9541
▁ດິ	-9542
▁ນໍ	-9543
▁ປູ	-9544
cial	-9545
cont	-9546
gang	-9547
ktop	-9548
roid	-9549
roll	-9550
ບົ່ງ	-9551
ຝ້າຍ	-9552
▁115	-9553
▁86-	-9554
▁Apr	-9555
▁Day	-9556
▁Oxy	-9557
▁Vir	-9558
▁off	-9559
▁ງົດ	-9560
▁ຍາຍ	-9561
▁ຍົງ	-9562
▁ສາບ	-9563
▁ແສນ	-9564
ipper	-9565
odium	-9566
ການປະ	-9567
ກໍລະນ	-9568
ປືກສາ	-9569
ວັນນະ	-9570
ສອງປີ	-9571
ຫ້າປີ	-9572
ໂປແກມ	-9573
ໄຂມັນ	-9574
▁2021	-9575
▁mini	-9576
▁ຮົ້ວ	-9577
▁ເລີກ	-9578
ຈໍາຄຸກ	-9579
ຕະຫລົກ	-9580
ປະຫວັດ	-9581
ປະເພນີ	-9582
ສະຫລົດ	-9583
ຫດຮ້າຍ	-9584
ໂດຍລວມ	-9585
ໂມຊັ່ນ	-9586
ໃນທ້າຍ	-9587
ໄວ້ວ່າ	-9588
▁Grand	-9589
▁Saint	-9590
▁buddy	-9591
▁ຕາລາງ	-9592
▁ລົດໄຟ	-9593
▁ສີຂຽວ	-9594
▁ເສຍໃຈ	-9595
utorial	-9596
ຂັດຂວາງ	-9597
ຄູ່ແຂ່ງ	-9598
ຈະມີການ	-9599
ຈະລາຈອນ	-9600
ທີ່ຜ່ານ	-9601
ທໍາຮ້າຍ	-9602
ປັບແຕ່ງ	-9603
ລູກເຮືອ	-9604
ລູມິນຽມ	-9605
ອົບອຸ່ນ	-9606
ເຈດຕະນາ	-9607
ແລະເຮັດ	-9608
▁Thread	-9609
▁ກັງວົນ	-9610
▁ຄ້າຍຄື	-9611
▁ຍັງຄົງ	-9612
▁ປີກ່ອນ	-9613
▁ຮັ່ງມີ	-9614
▁ເສື່ອມ	-9615
ກ່າວເຖິງ	-9616
ບັນຍາກາດ	-9617
ຢູ່ໃນການ	-9618
ລະດູຫນາວ	-9619
ອອກມາຈາກ	-9620
ອິດສະຫຼະ	-9621
▁Manager	-9622
▁Package	-9623
▁ການສ້າງ	-9624
▁ຂຶ້ນກັບ	-9625
▁ຄໍາເຫັນ	-9626
▁ພ້ອມກັນ	-9627
▁ເຊິ່ງມີ	-9628
ການປະທ້ວງ	-9629
ຄ່າທໍານຽມ	-9630
ທີ່ຈະແຈ້ງ	-9631
▁modified	-9632
▁ການກະທໍາ	-9633
▁ສີເຫຼືອງ	-9634
▁ເປີດເຜີຍ	-9635
ຄວາມຜິດພາດ	-9636
ຕ່າງໆເຊັ່ນ	-9637
ສິ້ນສຸດລົງ	-9638
ເຂົ້າລະຫັດ	-9639
ເຂົ້າເມືອງ	-9640
ເປັນຕົວແທນ	-9641
▁ເລຂາທິການ	-9642
ສ່ວນຫນຶ່ງຂອງ	-9643
ສ່ວນໃຫຍ່ແມ່ນ	-9644
▁ຈີນຜູ້ຜະລິດ	-9645
ເພື່ອຮັບປະກັນ	-9646
▁ປະທານາທິບໍດີ	-9647
▁ໂດຍສື່ມວນຊົນ	-9648
ຄວາມສາມາດໃນການ	-9649
ທີ່ທ່ານຕ້ອງການ	-9650
ທຸກສິ່ງທຸກຢ່າງ	-9651
ຢູ່ໃນການສໍາພັດ	-9652
ເປັນຄັ້ງທໍາອິດ	-9653
ເຮັດວຽກຮ່ວມກັບ	-9654
ລູກຄ້າຂອງພວກເຮົາ	-9655
3}	-9656
AG	-9657
CM	-9658
FL	-9659
FS	-9660
IG	-9661
-18	-9662
-80	-9663
.05	-9664
24.	-9665
ali	-9666
inn	-9667
ism	-9668
ຂີດ	-9669
ຈົກ	-9670
ຕຽງ	-9671
ນາວ	-9672
ປອງ	-9673
ອໍາ	-9674
ເປຍ	-9675
ເວວ	-9676
ແກມ	-9677
ໂກງ	-9678
▁BL	-9679
▁do	-9680
▁fe	-9681
▁gl	-9682
▁it	-9683
▁sl	-9684
▁ສປ	-9685
▁ໄຕ	-9686
ally	-9687
ient	-9688
ipit	-9689
ຄລິກ	-9690
ວາລະ	-9691
ະລາຍ	-9692
າກັບ	-9693
ເຄືອ	-9694
ເຕັດ	-9695
▁13,	-9696
▁230	-9697
▁3.5	-9698
▁750	-9699
▁Koo	-9700
▁Out	-9701
▁PET	-9702
▁ບອດ	-9703
▁ຜົມ	-9704
▁ຟຸດ	-9705
▁ມຸງ	-9706
▁ລະຫ	-9707
▁ລິນ	-9708
▁ລຸດ	-9709
▁ເຈດ	-9710
fiber	-9711
olone	-9712
other	-9713
ruity	-9714
ໄວຣັດ	-9715
▁2001	-9716
▁4000	-9717
▁Code	-9718
▁Oper	-9719
▁Viet	-9720
▁Wars	-9721
▁cont	-9722
▁ເມນູ	-9723
▁ແຫນງ	-9724
ograph	-9725
ຂອງຖົງ	-9726
ຂັບໄລ່	-9727
ຂື້ນໃນ	-9728
ລາສສິກ	-9729
ລໍາບາກ	-9730
ຫມໍ້ໄຟ	-9731
ອ່ອນແອ	-9732
ີສະຖານ	-9733
ເຊີແລນ	-9734
ເຊື່ອງ	-9735
ເອັດຈ໌	-9736
ໃຕ້ດິນ	-9737
ໄວລຸ້ນ	-9738
▁Innov	-9739
▁Organ	-9740
▁Touch	-9741
ຄວາມສຸກ	-9742
ອິດສະລະ	-9743
▁86-574	-9744
▁Market	-9745
▁ກັບຄືນ	-9746
▁ກໍ່ໄດ້	-9747
▁ຂອງຜູ້	-9748
▁ເຫລືອງ	-9749
▁ໃກ້ກັບ	-9750
ຕ່າງໆຂອງ	-9751
ທີ່ນິຍົມ	-9752
ໄດ້ມີການ	-9753
ໄດ້ແນວໃດ	-9754
▁ກັນນ້ໍາ	-9755
▁ສອດຄ່ອງ	-9756
▁ສະບາຍດີ	-9757
ification	-9758
ຈັດການກັບ	-9759
ພ້ອມທີ່ຈະ	-9760
ອາໄສຢູ່ໃນ	-9761
ເວົ້າເຖິງ	-9762
▁ການບັນຈຸ	-9763
ການຄ້າເສລີ	-9764
ຜູ້ບໍລິໂພກ	-9765
▁ກ່ອນທີ່ຈະ	-9766
▁ຕົ້ນສະບັບ	-9767
ຂອງເດັກນ້ອຍ	-9768
ທີ່ເອີ້ນວ່າ	-9769
ອຸນຫະພູມສູງ	-9770
▁ບັນດາປະເທດ	-9771
ຄວາມໄວ້ວາງໃຈ	-9772
ຊີ້ໃຫ້ເຫັນວ່າ	-9773
ຖ້າຫາກວ່າທ່ານ	-9774
ວຽກເຮັດງານທໍາ	-9775
ເຫຼົ່ານີ້ແມ່ນ	-9776
▁ວິວັດທະນາການ	-9777
▁ລະຫັດການປະກັນໄພ	-9778
/5	-9779
:.	-9780
JS	-9781
ຄ່	-9782
een	-9783
pon	-9784
vis	-9785
ກຽວ	-9786
ທຸງ	-9787
ຣອຍ	-9788
ລົນ	-9789
ສຸນ	-9790
ັ໊ມ	-9791
ໃຫຍ	-9792
▁!!	-9793
▁em	-9794
▁ຈູ	-9795
ishi	-9796
west	-9797
ຈື່ງ	-9798
ຫນານ	-9799
▁Bur	-9800
▁Pul	-9801
▁ind	-9802
▁ຊິງ	-9803
▁ລຽບ	-9804
▁ແອບ	-9805
▁ໄຂ້	-9806
amine	-9807
minal	-9808
ກຸສົນ	-9809
ກູ້ໄພ	-9810
ຈະໃຊ້	-9811
ຊີມັງ	-9812
ໂຄວິດ	-9813
▁Cool	-9814
▁Doll	-9815
▁Ling	-9816
▁Nash	-9817
▁Size	-9818
▁Will	-9819
▁ເຄັດ	-9820
▁ເມີນ	-9821
▁ໄມໂຄ	-9822
ກັບຄົນ	-9823
ຈົບລົງ	-9824
ຊີ້ແຈງ	-9825
ດາວທຽມ	-9826
ຢູ່ນອກ	-9827
ຢູ່ນີ້	-9828
ລິບປິນ	-9829
ວີດີໂອ	-9830
ສັນຍາກ	-9831
ຫວັດດີ	-9832
ຫຼາຍປີ	-9833
▁2008.	-9834
▁Price	-9835
▁ກາຕູນ	-9836
▁ພາກັນ	-9837
▁ມະຊາດ	-9838
avorite	-9839
ຄືບຫນ້າ	-9840
ຊະຍະຊົນ	-9841
ບໍ່ມີໃຜ	-9842
ພະເຈົ້າ	-9843
ລົບລ້າງ	-9844
ຮອບດ້ານ	-9845
ເມື່ອປີ	-9846
▁Tagged	-9847
▁cosmos	-9848
▁ທຸກຄົນ	-9849
▁ລາວບໍ່	-9850
▁ເພື່ອກ	-9851
ບ່ອນນັ່ງ	-9852
ປາດຖະຫນາ	-9853
ລະດັບຊາດ	-9854
ຫ້ອງນ້ໍາ	-9855
▁Express	-9856
▁Trading	-9857
▁ໂທລະພາບ	-9858
Catalogue	-9859
ຂອງອິນເດຍ	-9860
ຕະເວັນຕົກ	-9861
ທີ່ຊັດເຈນ	-9862
▁ອົງປະກອບ	-9863
▁ແລະເມື່ອ	-9864
▁ໃນວັນສຸກ	-9865
▁ການປັບປຸງ	-9866
ມີຄວາມສົນໃຈ	-9867
ສະມາຊິກສະພາ	-9868
ສົ່ງເສີມການ	-9869
ຫລັງຈາກນັ້ນ	-9870
ຂອງອົດສະຕາລີ	-9871
ຄາຂອງພວກເຮົາ	-9872
ດ້ານເສດຖະກິດ	-9873
▁ສາດສະຫນາຈັກ	-9874
ທີ່ຈະໃຫ້ພວກເຮົາ	-9875
AF	-9876
BO	-9877
CI	-9878
HL	-9879
df	-9880
ໂວ	-9881
▁່	-9882
.35	-9883
2.1	-9884
lan	-9885
ody	-9886
rig	-9887
une	-9888
ນະລ	-9889
ນ້ໍ	-9890
ລອກ	-9891
ລີດ	-9892
ຫາງ	-9893
ເນວ	-9894
ແຖບ	-9895
▁2)	-9896
▁Er	-9897
▁SM	-9898
▁ar	-9899
▁mg	-9900
▁ຄີ	-9901
▁ຜາ	-9902
▁ມູ	-9903
iano	-9904
ival	-9905
ural	-9906
ແບັກ	-9907
▁(25	-9908
▁Cup	-9909
▁Dem	-9910
▁NZD	-9911
▁PHP	-9912
▁Sal	-9913
▁pvc	-9914
▁ຕອງ	-9915
▁ບ່າ	-9916
▁ເອນ	-9917
prise	-9918
ປະລາດ	-9919
ລາດຊະ	-9920
ລາເອວ	-9921
ຫຍຸ່ນ	-9922
ເຖິ່ງ	-9923
ເຖົ່າ	-9924
ໂລຫິດ	-9925
▁2030	-9926
▁Back	-9927
▁Feng	-9928
▁Hero	-9929
▁comp	-9930
▁ຈົ່ມ	-9931
▁ມຸ້ງ	-9932
▁ມ້ວນ	-9933
▁ຫລັບ	-9934
▁ຫິມະ	-9935
▁ອ້ອນ	-9936
▁ໄປຫາ	-9937
google	-9938
ກົນຈັກ	-9939
ຂອງຊາດ	-9940
ຂອງພວກ	-9941
ຂຶ້ນມາ	-9942
ຊົງຈໍາ	-9943
ຍິນຍອມ	-9944
ດັດແກ້	-9945
ຖືງການ	-9946
ລົດຊາດ	-9947
ສະຫລາດ	-9948
ແລະມັນ	-9949
ໍານ້ໍາ	-9950
▁2020,	-9951
▁Trans	-9952
▁Water	-9953
▁©2005	-9954
▁ຖັດໄປ	-9955
▁ພົນລະ	-9956
ຕ້ານການ	-9957
ຕໍ່ຫນ້າ	-9958
ນາທິການ	-9959
ບາງສ່ວນ	-9960
ປະທັບຕາ	-9961
ຜິວຫນັງ	-9962
ມະຫາຊົນ	-9963
ຮ້ອຍຄົນ	-9964
ເກີດຈາກ	-9965
ແລະຂ້ອຍ	-9966
ແລ້ວນີ້	-9967
໊ອກນ້ໍາ	-9968
▁Galaxy	-9969
▁ຂອງລາວ	-9970
▁ຕາມທີ່	-9971
▁ຕົ້ນຕໍ	-9972
▁ມັນຖືກ	-9973
▁ຣັດເຊຍ	-9974
▁ລູກຊາຍ	-9975
▁ແຕ່ບໍ່	-9976
ຄົນອື່ນໆ	-9977
ປະຫລາດໃຈ	-9978
ພຣະວິຫານ	-9979
ພາກວິຈານ	-9980
ເຍຍລະມັນ	-9981
ເຕົ້າໂຮມ	-9982
ເທົ່າກັບ	-9983
▁Casting	-9984
▁ຄວາມບໍ່	-9985
▁ພາລະກິດ	-9986
▁ລັງເຮັດ	-9987
▁ເຊິ່ງຈະ	-9988
▁ໂມເລກຸນ	-9989
ຂອງຂໍ້ມູນ	-9990
ຢ່າງລະອຽດ	-9991
ວິສະວະກອນ	-9992
▁ບັນຍາກາດ	-9993
▁ເປັນຕົ້ນ	-9994
▁ໄດ້ເລີ່ມ	-9995
ດ້ວຍຕົນເອງ	-9996
ເທັກໂນໂລຊີ	-9997
ແລະປະຕິບັດ	-9998
ໃນວັນພະຫັດ	-9999
▁ການຮ່ວມມື	-10000
▁ຄົນອັບເດດ	-10001
▁ລະຫັດພາສີ	-10002
▁ເມື່ອເຮົາ	-10003
ສິ່ງທີ່ຂ້ອຍ	-10004
ໄດ້ເສຍຊີວິດ	-10005
▁Foundation	-10006
▁©2005-2018	-10007
▁ດ້ວຍຫົວຂໍ້	-10008
▁ໂດຍກ່າວວ່າ	-10009
ຄວາມເຂັ້ມແຂງ	-10010
ເພື່ອປ້ອງກັນ	-10011
ແລະຜະລິດຕະພັນ	-10012
▁ຕິດຕໍ່ພວກເຮົາ	-10013
")	-10014
EX	-10015
TT	-10016
gu	-10017
ki	-10018
.30	-10019
999	-10020
ily	-10021
ipe	-10022
ixi	-10023
ker	-10024
lud	-10025
mon	-10026
ove	-10027
ser	-10028
ຕັບ	-10029
ປອນ	-10030
ຟິວ	-10031
ມີດ	-10032
ຢືດ	-10033
ຣັບ	-10034
ລຽມ	-10035
▁76	-10036
▁CA	-10037
▁DS	-10038
▁TV	-10039
▁cy	-10040
▁eB	-10041
▁ri	-10042
flix	-10043
icle	-10044
inch	-10045
mont	-10046
ຖິ່ນ	-10047
ເຊັບ	-10048
ເທດຍ	-10049
ເບີນ	-10050
ເມັນ	-10051
ແຫຼວ	-10052
▁Bus	-10053
▁GPS	-10054
▁Jer	-10055
▁NAS	-10056
▁Wik	-10057
▁ant	-10058
▁fil	-10059
▁opt	-10060
▁rot	-10061
▁ດານ	-10062
▁ຖັງ	-10063
▁ທອມ	-10064
▁ບວນ	-10065
▁ເຄນ	-10066
▁ເພີ	-10067
▁ແທກ	-10068
iness	-10069
izhou	-10070
ຕີພິມ	-10071
ສັ້ນໆ	-10072
ໃຫມ່ນ	-10073
▁1999	-10074
▁Call	-10075
▁pass	-10076
▁ກວາງ	-10077
▁ກູໂກ	-10078
▁ສ້ອມ	-10079
▁ຫຍ້າ	-10080
▁ເດີມ	-10081
ນິວຍອກ	-10082
ວັນຈັນ	-10083
ສໍາຜັດ	-10084
ສໍາຮອງ	-10085
ັກຊິໂກ	-10086
ໃຫ້ໄດ້	-10087
▁Conne	-10088
▁Enter	-10089
ຖືກສົ່ງ	-10090
ທີ່ຕ້ອງ	-10091
ທ່ານເອງ	-10092
ສາສະຫນາ	-10093
ສູງອາຍຸ	-10094
ອັບໂຫລດ	-10095
ໄດ້ສົ່ງ	-10096
▁plugin	-10097
▁ທ່ານມີ	-10098
▁ນັບແຕ່	-10099
▁ລວມຖືງ	-10100
▁ສະຫມອງ	-10101
ການສືກສາ	-10102
ຍືດຫຍຸ່ນ	-10103
ທີ່ປອດໄພ	-10104
ທີ່ເມືອງ	-10105
ຜົນຜະລິດ	-10106
ແບບພິເສດ	-10107
▁Ceramic	-10108
▁charter	-10109
▁ການເຮັດ	-10110
▁ຄວາມວ່າ	-10111
▁ບາດເຈັບ	-10112
▁ຮຽບຮ້ອຍ	-10113
▁ເກົາຫຼີ	-10114
ການຊື້ຂາຍ	-10115
ຂອງກອງທັບ	-10116
ດ້ວຍຄະແນນ	-10117
ຖ້າຫາກວ່າ	-10118
ວາງລະເບີດ	-10119
ສໍາຄັນຂອງ	-10120
ເລື່ອງການ	-10121
▁ບັນດານັກ	-10122
▁ເວົ້າຂອງ	-10123
ກໍ່ໃຫ້ເກີດ	-10124
ຂອງພຣະຄຣິດ	-10125
ຄວາມກັງວົນ	-10126
ທາງກົດຫມາຍ	-10127
ປະທານອາຫານ	-10128
▁Blackjack	-10129
▁ລາຍງານວ່າ	-10130
▁ໃນເວລານັ້ນ	-10131
▁ພວກເຮົາຕ້ອງ	-10132
ທີ່ເປັນປະໂຫຍດ	-10133
▁ສ້າງຕັ້ງຂຶ້ນ	-10134
▁ເດືອນພຶດສະພາ	-10135
ມີຄວາມຫຍຸ້ງຍາກ	-10136
ທາງດ້ານການເມືອງ	-10137
▁ການປ່ອຍສິນເຊື່ອ	-10138
DS	-10139
UV	-10140
hy	-10141
lr	-10142
-60	-10143
700	-10144
olf	-10145
ulf	-10146
utt	-10147
zip	-10148
ຄັງ	-10149
ຊາມ	-10150
ຕຸກ	-10151
ບີ້	-10152
ບຸດ	-10153
ບ້າ	-10154
ພົດ	-10155
ຣາດ	-10156
ລວດ	-10157
ສອດ	-10158
ຫາວ	-10159
ັ້ຍ	-10160
ໂຫຍ	-10161
▁Wi	-10162
▁sn	-10163
▁sw	-10164
▁ໃຍ	-10165
ergy	-10166
flex	-10167
neum	-10168
ບົ່ມ	-10169
ພະຍຸ	-10170
ສະຕີ	-10171
ສາມີ	-10172
ຫມຸນ	-10173
ເພິງ	-10174
ແຄ້ນ	-10175
ແຕ່ນ	-10176
ແຫວນ	-10177
▁Acc	-10178
▁Cur	-10179
▁Imp	-10180
▁Lot	-10181
▁Pos	-10182
▁TED	-10183
▁Vol	-10184
▁bon	-10185
▁ງົບ	-10186
▁ນິກ	-10187
▁ວາຍ	-10188
▁ວົນ	-10189
▁ເຈີ	-10190
▁ແວດ	-10191
▁ໂທຣ	-10192
▁ໄຫຼ	-10193
ainer	-10194
etate	-10195
leton	-10196
oline	-10197
phone	-10198
proof	-10199
rader	-10200
ການສະ	-10201
ການໂທ	-10202
ຕາມິນ	-10203
ເຖົ້າ	-10204
▁Matt	-10205
▁this	-10206
▁ທະວີ	-10207
ການສົມ	-10208
ດູດຊຶມ	-10209
ນັກໂທດ	-10210
ປະເສີດ	-10211
ປານກາງ	-10212
ອອກສຽງ	-10213
ໂປ່ງໃສ	-10214
ໂອບາມາ	-10215
ໃນທົ່ວ	-10216
▁1,000	-10217
▁Clash	-10218
▁Frank	-10219
▁James	-10220
▁Pharm	-10221
▁Poker	-10222
▁Range	-10223
▁Times	-10224
▁ພັກດີ	-10225
ຄໍາຮ້ອງ	-10226
ບໍ່ເປັນ	-10227
ຜູ້ປ່ວຍ	-10228
ສາດສະດາ	-10229
ສູງກວ່າ	-10230
ເງິນສົດ	-10231
▁Engine	-10232
▁ຊໍານານ	-10233
▁ລົດຖີບ	-10234
ateboard	-10235
ຂອງແຕ່ລະ	-10236
ຄືກັນກັບ	-10237
ມ່ວນຊື່ນ	-10238
ເບິ່ງວ່າ	-10239
▁acrylic	-10240
ຄ່ໍາວັນທີ	-10241
▁Deduster	-10242
▁favorite	-10243
▁ຄາດວ່າຈະ	-10244
▁ສິນລະທໍາ	-10245
▁ເວທີປາໄສ	-10246
▁ເວັບໄຊຕ໌	-10247
ການຕິດຕັ້ງ	-10248
ຂອງຮ່າງກາຍ	-10249
ຊາວກະສິກອນ	-10250
ຜູ້ບໍລິຫານ	-10251
ພື້ນຖານຂອງ	-10252
▁Converter	-10253
▁ການວິເຄາະ	-10254
▁ການສື່ສານ	-10255
▁ມື້ວານນີ້	-10256
ກ້ອງຖ່າຍຮູບ	-10257
ຕິດຕາມກວດກາ	-10258
ສ່ວນຫນ້າຂອງ	-10259
▁ການປົກປ້ອງ	-10260
▁ຂະຫນາດໃຫຍ່	-10261
▁ຜູ້ພິພາກສາ	-10262
ຕາເວັນອອກກາງ	-10263
ເພີ່ມຂຶ້ນຂອງ	-10264
▁ເຊັ່ນດຽວກັນ	-10265
▁ແມ່ນຫນຶ່ງໃນ	-10266
▁ໄດ້ເສຍຊີວິດ	-10267
ທີ່ທ່ານໄດ້ຮັບ	-10268
▁ຂອງເຂົາເຈົ້າ	-10269
ແລະຄວາມຕ້ອງການ	-10270
On	-10271
yi	-10272
ມູ	-10273
ໄຣ	-10274
INE	-10275
elo	-10276
ese	-10277
irc	-10278
ouk	-10279
pad	-10280
ຕັກ	-10281
ຖອດ	-10282
ພົມ	-10283
ສອກ	-10284
ເບດ	-10285
▁..	-10286
▁GD	-10287
▁NE	-10288
▁Sl	-10289
▁no	-10290
▁{_	-10291
▁ປໍ	-10292
emap	-10293
ency	-10294
ixer	-10295
ject	-10296
ober	-10297
ສ່ອງ	-10298
ຸນລະ	-10299
ເພັງ	-10300
ເມືອ	-10301
ເສີຍ	-10302
ໂມແຄ	-10303
▁0.2	-10304
▁1.6	-10305
▁Cou	-10306
▁Ink	-10307
▁Lee	-10308
▁Log	-10309
▁Mus	-10310
▁ODM	-10311
▁Reg	-10312
▁Sem	-10313
▁cat	-10314
▁int	-10315
▁spe	-10316
▁ຊຸກ	-10317
▁ແຕະ	-10318
▁ໂຫຍ	-10319
umblr	-10320
ປີກາຍ	-10321
ສືກສາ	-10322
▁6000	-10323
▁Fair	-10324
▁Snap	-10325
▁ຊີວະ	-10326
▁ຍ່ອມ	-10327
▁ຍ້ອງ	-10328
▁ວິກິ	-10329
▁ຫມຶກ	-10330
▁ເງົາ	-10331
ຈຸດສຸມ	-10332
ຕອບຮັບ	-10333
ຣັດເຊຍ	-10334
ລໍາເບຍ	-10335
ສັນຊາດ	-10336
ສຸດຍອດ	-10337
ຫລັງຄາ	-10338
ອຍະການ	-10339
ແຊກແຊງ	-10340
ແບບຟອມ	-10341
ໃນຄວາມ	-10342
▁Clear	-10343
▁forex	-10344
▁hydro	-10345
▁ຄ່ອຍໆ	-10346
▁ປະສານ	-10347
▁ປີນີ້	-10348
▁ພິສູດ	-10349
▁ລວມມີ	-10350
▁ສະດວກ	-10351
▁ຫຼາຍໆ	-10352
ກວ່ານີ້	-10353
ຂອງສະພາ	-10354
ຄົນນັ້ນ	-10355
ຈົນເຖິງ	-10356
ຖະຫລົ່ມ	-10357
ນັກກິລາ	-10358
ມອບຫມາຍ	-10359
ລ້ານຄົນ	-10360
ສູງເຖິງ	-10361
ຫັນເປັນ	-10362
ອານາຄົດ	-10363
ເອກະພາບ	-10364
ແບບນັ້ນ	-10365
▁Chrome	-10366
▁Option	-10367
▁roller	-10368
▁ຊີ້ຂາດ	-10369
▁ສີນ້ໍາ	-10370
ນໍາໄປສູ່	-10371
ປະກາດວ່າ	-10372
ປະຈໍາການ	-10373
ລ່ວງຫນ້າ	-10374
ວັນພະຫັດ	-10375
ຫນ້ານັ້ນ	-10376
ແທນທີ່ຈະ	-10377
ໃນລາຍການ	-10378
▁Netflix	-10379
▁Western	-10380
▁ຄວາມຖີ່	-10381
▁ຕັ້ງຢູ່	-10382
▁ຜິວຫນັງ	-10383
▁ມໍລະດົກ	-10384
ການສັງເກດ	-10385
ຂະຫນາດກາງ	-10386
ສະຫນອງໃຫ້	-10387
ແລະຊຸມຊົນ	-10388
▁Chemical	-10389
▁Koowheel	-10390
▁Passport	-10391
▁ສ້າງຕັ້ງ	-10392
▁ຫຼາຍກ່ວາ	-10393
▁ເຈົ້າຢາກ	-10394
▁ໄລຍະເວລາ	-10395
ການສ້ອມແປງ	-10396
ຈໍານວນເງິນ	-10397
ບໍ່ເທົ່າໃດ	-10398
ວິພາກວິຈານ	-10399
ເຮັດວຽກກັບ	-10400
▁Nashville	-10401
▁ຕົວຊີ້ວັດ	-10402
▁ເລືອກເອົາ	-10403
ຄຸນນະສົມບັດ	-10404
ຈໍານວນຫນຶ່ງ	-10405
ທາງເສດຖະກິດ	-10406
ມານະພະຍາຍາມ	-10407
ລັດຖະບານກາງ	-10408
ສາມາດໃຊ້ໄດ້	-10409
ຫນ້າເຊື່ອຖື	-10410
▁Production	-10411
▁ເດືອນກຸມພາ	-10412
▁ໄດ້ເຮັດໃຫ້	-10413
ໄດ້ຮັບຜົນກະທົບ	-10414
▁ຂໍ້ມູນຈໍາເພາະ	-10415
DC	-10416
ຣຍ	-10417
ເຝ	-10418
-11	-10419
-50	-10420
-90	-10421
.06	-10422
.23	-10423
ela	-10424
jet	-10425
och	-10426
ທາມ	-10427
ຝືນ	-10428
ວູດ	-10429
ຫິວ	-10430
ຮີບ	-10431
ເກຍ	-10432
ແອງ	-10433
ໂກນ	-10434
▁07	-10435
▁92	-10436
▁HU	-10437
▁RO	-10438
▁Sa	-10439
▁UL	-10440
▁px	-10441
anth	-10442
back	-10443
cess	-10444
edia	-10445
illa	-10446
omet	-10447
pher	-10448
ping	-10449
rich	-10450
urga	-10451
weet	-10452
ກິ່ນ	-10453
ຖືພາ	-10454
ີເມວ	-10455
ເທັດ	-10456
ເອີນ	-10457
▁(11	-10458
▁-20	-10459
▁26,	-10460
▁Alb	-10461
▁DIN	-10462
▁Sil	-10463
▁dev	-10464
▁net	-10465
▁par	-10466
▁ກອດ	-10467
▁ຄວາ	-10468
▁ງຫາ	-10469
▁ຍັດ	-10470
▁ຕັກ	-10471
▁ທຸງ	-10472
▁ນາໆ	-10473
▁ນ້າ	-10474
▁ມາຍ	-10475
▁ລ້າ	-10476
▁ຫົນ	-10477
28113	-10478
aging	-10479
ieces	-10480
ility	-10481
ludge	-10482
ments	-10483
ophil	-10484
ຜະສົມ	-10485
ມູນິດ	-10486
ສະເຕີ	-10487
▁1980	-10488
▁5000	-10489
▁CNIL	-10490
▁Coun	-10491
▁Mass	-10492
▁Song	-10493
▁mach	-10494
▁type	-10495
▁ປ່ຽວ	-10496
▁ເມລິ	-10497
ending	-10498
ການສຶກ	-10499
ກູ້ຢືມ	-10500
ກໍາກັບ	-10501
ຄົບຮອບ	-10502
ຍ້າຍໄປ	-10503
ພາກຮຽນ	-10504
ອັບການ	-10505
ຮັ່ງມີ	-10506
ໄດ້ປຽບ	-10507
▁Cheng	-10508
▁Epson	-10509
▁Khaki	-10510
▁Paris	-10511
▁Skype	-10512
▁Techn	-10513
▁gener	-10514
▁ອາຈານ	-10515
▁ໃຫມ່ໆ	-10516
rugated	-10517
ຊ່ວຍເຫຼ	-10518
ຕາຫນ່າງ	-10519
ມູນນິທິ	-10520
ເຊື້ອໄຟ	-10521
▁Oxygen	-10522
▁Thomas	-10523
▁ການຈັດ	-10524
▁ມັນບໍ່	-10525
▁ໄຊຊະນະ	-10526
▁ໄບເບິນ	-10527
alloween	-10528
ຂີ້ເຖົ່າ	-10529
ທາງປັນຍາ	-10530
ທາດເຫຼັກ	-10531
ທີ່ຜະລິດ	-10532
ອອກອາກາດ	-10533
ເຂົ້າກັນ	-10534
ເຖິງແມ່ນ	-10535
ໂສກເສົ້າ	-10536
ໄວ້ວາງໃຈ	-10537
▁1528113	-10538
▁Bowflex	-10539
▁Quality	-10540
▁ກະສິກໍາ	-10541
▁ໄດ້ເຮັດ	-10542
ກວ່າເກົ່າ	-10543
ທີ່ສົມບູນ	-10544
ຢູ່ພາຍໃຕ້	-10545
ສາຍພົວພັນ	-10546
ເງິນເດືອນ	-10547
▁ຍົກເວັ້ນ	-10548
▁ລົງທະບຽນ	-10549
▁ເວົ້າລົມ	-10550
ວ່າຈະມີການ	-10551
ເກີດຂື້ນໃນ	-10552
ໂດຍຜ່ານການ	-10553
ໃນທ້ອງຖິ່ນ	-10554
ໃຫ້ປະຊາຊົນ	-10555
▁unlimited	-10556
▁ການຊື້ຂາຍ	-10557
▁ອະລູມິນຽມ	-10558
ດັ່ງກ່າວນີ້	-10559
ພຽງເລັກນ້ອຍ	-10560
ສາທາລະນະລັດ	-10561
ເປັນສິ່ງທີ່	-10562
▁ຂະຫນາດນ້ອຍ	-10563
▁ເດືອນກັນຍາ	-10564
▁ດໍາລົງຊີວິດ	-10565
ທີ່ເຊື່ອຖືໄດ້	-10566
▁ຈໍານວນຕົວແບບ	-10567
▁ເດືອນກໍລະກົດ	-10568
ບໍ່ຈໍາເປັນຕ້ອງ	-10569
%,	-10570
Ex	-10571
FP	-10572
Re	-10573
TO	-10574
fa	-10575
ua	-10576
-25	-10577
1.5	-10578
ECT	-10579
bul	-10580
cam	-10581
dra	-10582
hem	-10583
met	-10584
rel	-10585
ຈູ່	-10586
າວາ	-10587
ໂຊນ	-10588
້ອາ	-10589
▁."	-10590
▁69	-10591
▁BP	-10592
▁EU	-10593
▁Fu	-10594
▁HK	-10595
▁NW	-10596
▁PS	-10597
▁TW	-10598
▁``	-10599
▁te	-10600
▁ຄຸ	-10601
cker	-10602
face	-10603
ging	-10604
isha	-10605
pert	-10606
yuan	-10607
ຊະຍາ	-10608
ທົ່ງ	-10609
ວິດີ	-10610
ຫລາກ	-10611
ແກ່ງ	-10612
ໂປໂລ	-10613
້ນີ້	-10614
▁1.1	-10615
▁DVD	-10616
▁Ele	-10617
▁Hum	-10618
▁Inf	-10619
▁Lad	-10620
▁Pac	-10621
▁Pot	-10622
▁Que	-10623
▁Rep	-10624
▁dis	-10625
▁inc	-10626
▁not	-10627
▁ຈິກ	-10628
▁ຈິນ	-10629
▁ຈ້າ	-10630
▁ພັງ	-10631
▁ຫມີ	-10632
▁ແຮມ	-10633
amber	-10634
aming	-10635
embly	-10636
xiang	-10637
ທະພັນ	-10638
ນັບຖື	-10639
ບໄຊທ໌	-10640
ປັດໄຈ	-10641
ຜູ້ໃດ	-10642
ພະຍົນ	-10643
ມາເລຍ	-10644
ເພີ້ມ	-10645
ໂປແລນ	-10646
ໄດ້ມາ	-10647
▁1800	-10648
▁Bank	-10649
▁Bill	-10650
▁Mart	-10651
▁Work	-10652
▁ຄ້ານ	-10653
▁ປັ່ນ	-10654
▁ລະຍະ	-10655
▁ຫມວກ	-10656
▁ເອັມ	-10657
Script	-10658
ration	-10659
ການສິດ	-10660
ງານບຸນ	-10661
ຕົວຂອງ	-10662
ທີ່ພົບ	-10663
ທຽບກັບ	-10664
ນອກຈາກ	-10665
ນິວເຄຼ	-10666
ລາວກໍ່	-10667
ສົມຄວນ	-10668
▁2019!	-10669
▁Chain	-10670
▁Media	-10671
▁fiber	-10672
▁ຍຸດຕິ	-10673
▁ສີຟ້າ	-10674
▁ສຸພາບ	-10675
▁ອີຣັກ	-10676
▁ເທືອນ	-10677
charger	-10678
ຕ້ອງໃຊ້	-10679
ຖ່າຍທອດ	-10680
ທີ່ຕັ້ງ	-10681
ວັດທະນະ	-10682
ອາບນ້ໍາ	-10683
ໂຫດຮ້າຍ	-10684
ໃກ້ຂ້ອຍ	-10685
▁Oxford	-10686
▁ຊອບທໍາ	-10687
▁ຊັດເຈນ	-10688
▁ທໍານາຍ	-10689
▁ສະຫລຸບ	-10690
▁ສົງສານ	-10691
▁ເປື້ອນ	-10692
▁ແຂງແຮງ	-10693
neumatic	-10694
ກອງທະຫານ	-10695
ຖົງປະເພດ	-10696
ບຽງອາຫານ	-10697
ສະເຫມີໄປ	-10698
ເຄື່ອນໄຫ	-10699
ໄດ້ສະແດງ	-10700
▁ຂອງຂວັນ	-10701
▁ຍ້ອນວ່າ	-10702
▁ດາວໂຫຼດ	-10703
▁ທ່ານຫມໍ	-10704
▁ພະຍາກອນ	-10705
▁ແມ່ນແຕ່	-10706
ກາລະໂອກາດ	-10707
ທີ່ຈະສ້າງ	-10708
ປາກີສະຖານ	-10709
ເຮັດວຽກໃນ	-10710
ແບບຈໍາລອງ	-10711
▁Electron	-10712
▁facebook	-10713
▁solenoid	-10714
▁ວາດສະຫນາ	-10715
▁ເພີດເພີນ	-10716
ກັບພວກເຮົາ	-10717
ຄຸນະພາບສູງ	-10718
ນັບຕັ້ງແຕ່	-10719
ມະຫັດສະຈັນ	-10720
ເຊື່ອຫມັ້ນ	-10721
ໃນກອງປະຊຸມ	-10722
▁ມັນໄດ້ຖືກ	-10723
otechnology	-10724
ການເສຍຊີວິດ	-10725
ຂອງພະນັກງານ	-10726
ດ້ານການເງິນ	-10727
ທີ່ສຸດໃນໂລກ	-10728
ເຫມາະສົມກັບ	-10729
▁ກະຕືລືລົ້ນ	-10730
▁ການສົນທະນາ	-10731
▁ຜູ້ບໍລິຫານ	-10732
▁ໄດ້ສົມທົບກັບ	-10733
ສ້າງຕັ້ງຂຶ້ນໃນປີ	-10734
ask	-10735
ean	-10736
lue	-10737
ຊິມ	-10738
ລຸນ	-10739
ໄຖ່	-10740
໋ອກ	-10741
▁88	-10742
▁AN	-10743
▁FN	-10744
▁PA	-10745
▁RS	-10746
▁bi	-10747
▁ຕໍ	-10748
▁ານ	-10749
1000	-10750
2019	-10751
ailb	-10752
elin	-10753
feng	-10754
ming	-10755
ston	-10756
ປ໋ອງ	-10757
ອະໄພ	-10758
▁3.2	-10759
▁Buy	-10760
▁Feb	-10761
▁Str	-10762
▁cnc	-10763
▁mag	-10764
▁rel	-10765
▁ມິນ	-10766
▁ສີດ	-10767
▁ເອດ	-10768
▁ໂອນ	-10769
iller	-10770
inger	-10771
ຄູຝຶກ	-10772
ຕຣາລີ	-10773
ນະລົງ	-10774
ມີຜົນ	-10775
ລະບອບ	-10776
ລະບົດ	-10777
ວະກາດ	-10778
ເອົາມ	-10779
ໂອເນຍ	-10780
▁Diff	-10781
▁Prem	-10782
▁ວ່າງ	-10783
▁ເຟີນ	-10784
▁ແກ່ນ	-10785
▁ແວ່ນ	-10786
change	-10787
rystal	-10788
ກັນວ່າ	-10789
ຂອງຕົວ	-10790
ຈະຊ່ວຍ	-10791
ຈະເລີນ	-10792
ຊວນຟຸກ	-10793
ຕາຂ່າຍ	-10794
ຕໍ່ມື້	-10795
ນີ້ແລະ	-10796
ປັບໄຫມ	-10797
ຜູກມັດ	-10798
ວ່ານາງ	-10799
ອາຫລັບ	-10800
ເທີແລນ	-10801
ເຫລືອງ	-10802
ເອື້ອຍ	-10803
ແມງໄມ້	-10804
ໃນນ້ໍາ	-10805
ໄດ້ໃຊ້	-10806
▁2006.	-10807
▁ASEAN	-10808
▁Opera	-10809
▁Plate	-10810
▁Width	-10811
▁neuro	-10812
▁ສະກັດ	-10813
▁ໃນທາງ	-10814
ການເຮັດ	-10815
ຈາລະຈອນ	-10816
ຍ້ອນວ່າ	-10817
ຕົກແຕ່ງ	-10818
ພື້ນຜິວ	-10819
ສ້ອມແປງ	-10820
ຫ້ອງຮຽນ	-10821
ເຕົາອົບ	-10822
▁Blythe	-10823
▁Energy	-10824
▁Posted	-10825
▁Tumblr	-10826
▁ການໃຫ້	-10827
▁ຂຶ້ນມາ	-10828
▁ມັນຍັງ	-10829
▁ຮ່ວມມື	-10830
ລອດຊີວິດ	-10831
ວກ່ຽວກັບ	-10832
ສະຖານທູດ	-10833
ເນື້ອທີ່	-10834
ເຮັດຫຍັງ	-10835
ໃນກໍລະນີ	-10836
▁Michael	-10837
▁Network	-10838
▁Related	-10839
▁William	-10840
▁ຫຼັກຖານ	-10841
▁ອ້ອນວອນ	-10842
▁ແລະເປັນ	-10843
▁ໃຊ້ເວລາ	-10844
ມີຄວາມຜິດ	-10845
ຫຼາຍປານໃດ	-10846
ຫຼີກເວັ້ນ	-10847
ເລື່ອງທີ່	-10848
ແຄລິຟໍເນຍ	-10849
▁ການເຄືອບ	-10850
▁ທາງເລືອກ	-10851
▁ທ່ອງທ່ຽວ	-10852
▁ບໍ່ມີການ	-10853
▁ແຕ່ງຕັ້ງ	-10854
▁ແມ່ນແລ້ວ	-10855
ຕົວທ່ານເອງ	-10856
ລັກສະນະຂອງ	-10857
ເສີມຂະຫຍາຍ	-10858
ເຮັດໃຫ້ການ	-10859
ໃນສະຖານທີ່	-10860
▁instagram	-10861
▁ກອງກໍາລັງ	-10862
▁ອາດຈະເປັນ	-10863
▁ເພື່ອສ້າງ	-10864
ທັງຫມົດແມ່ນ	-10865
ສັ່ນສະເທືອນ	-10866
ໄດ້ເວົ້າວ່າ	-10867
▁ການບໍລິຫານ	-10868
▁ເພາະສະນັ້ນ	-10869
ຜູ້ເປັນເຈົ້າ	-10870
ໄດ້ເລີ່ມຕົ້ນ	-10871
ເກັບກໍາຂໍ້ມູນ	-10872
ໄດ້ຮັບອະນຸຍາດ	-10873
▁ການເກັບຮັກສາ	-10874
▁ຂ້າພະເຈົ້າຢາກ	-10875
ວ່າພວກເຂົາເຈົ້າ	-10876
AA	-10877
CB	-10878
Qu	-10879
RC	-10880
\)	-10881
uo	-10882
ປິ	-10883
ວ່	-10884
ອູ	-10885
ERI	-10886
UST	-10887
aga	-10888
bus	-10889
ety	-10890
lon	-10891
xin	-10892
ມູມ	-10893
ເກງ	-10894
ເບກ	-10895
ແຄບ	-10896
ແດ່	-10897
▁0,	-10898
▁68	-10899
▁94	-10900
▁EM	-10901
▁GT	-10902
▁\(	-10903
▁ຮູ	-10904
acle	-10905
itar	-10906
orge	-10907
ulic	-10908
ກ້າມ	-10909
ຖ່ອມ	-10910
ອະນຸ	-10911
ເຟີ້	-10912
▁(0)	-10913
▁(19	-10914
▁25%	-10915
▁Hub	-10916
▁Hun	-10917
▁UTC	-10918
▁man	-10919
▁out	-10920
▁ກັງ	-10921
▁ຊຶມ	-10922
▁ຖືງ	-10923
▁ຝາກ	-10924
▁ສີມ	-10925
▁ອີ່	-10926
▁ເດິ	-10927
-2019	-10928
755-2	-10929
ກັບໄປ	-10930
ດົນໃຈ	-10931
ບິກັນ	-10932
ປະກວດ	-10933
ປັດໃຈ	-10934
ມີສິດ	-10935
ລາອອກ	-10936
ສົດໃສ	-10937
ຫານີ້	-10938
ເກັ່ງ	-10939
ໂດເມນ	-10940
▁Braz	-10941
▁Fort	-10942
▁Game	-10943
▁Tele	-10944
▁Yang	-10945
▁play	-10946
▁will	-10947
▁ກາເຟ	-10948
▁ກຸ້ມ	-10949
▁ຖ້ວມ	-10950
▁ລ້ໍາ	-10951
▁ອະໄພ	-10952
▁ເທົາ	-10953
ຄຸກຄາມ	-10954
ຊີເອັນ	-10955
ດິນແດນ	-10956
ຕໍາຫນິ	-10957
ທັນຫັນ	-10958
ນັກບິນ	-10959
ປະຫມາດ	-10960
ຢືນຢູ່	-10961
ສາຍແອວ	-10962
ສົນທະນ	-10963
ເຂັ້ມຂ	-10964
▁spark	-10965
▁ຄົນໃນ	-10966
▁ຕໍ່ມາ	-10967
▁ບັນຊາ	-10968
▁ເວືອງ	-10969
aterial	-10970
otropin	-10971
ກໍ່ແມ່ນ	-10972
ຊົມເຊີຍ	-10973
ບາດກ້າວ	-10974
ຢູ່ອາໄສ	-10975
ລວມເຖິງ	-10976
ອ້າງອິງ	-10977
ເຮລິຄອບ	-10978
ໄດ້ງ່າຍ	-10979
▁ການຂາຍ	-10980
▁ງານບຸນ	-10981
▁ທີ່ພັກ	-10982
▁ທົນທານ	-10983
▁ນິວຢອກ	-10984
▁ບໍ່ດົນ	-10985
▁ລາວຍັງ	-10986
▁ສະຖານະ	-10987
▁ເຫຼັ້ມ	-10988
▁ໄວຮຸ່ນ	-10989
lication	-10990
ດັ້ງເດີມ	-10991
ນໍາເຂົ້າ	-10992
▁Deposit	-10993
▁Limited	-10994
▁ceramic	-10995
▁twitter	-10996
▁ການເກັບ	-10997
▁ຄົ້ນພົບ	-10998
▁ຕື້ໂດລາ	-10999
▁ບໍລິຫານ	-11000
▁ພາກພື້ນ	-11001
▁ຫຼັກສູດ	-11002
▁ອົບອຸ່ນ	-11003
▁ຮູບຮ່າງ	-11004
▁ເຂົາໄດ້	-11005
▁ໄພໂອເນຍ	-11006
ການຕະຫຼາດ	-11007
ການສະຫນອງ	-11008
ຖະແຫລງການ	-11009
ອະນາໄມໂລກ	-11010
ເພື່ອຊ່ວຍ	-11011
▁Supplier	-11012
▁ເຈົ້າວ່າ	-11013
▁ເພິ່ນໄດ້	-11014
ຂອງທ່ານເອງ	-11015
ມະຫາສະຫມຸດ	-11016
ຢູ່ໃນລະດັບ	-11017
ເພື່ອນບ້ານ	-11018
ເຮັດໃຫ້ມັນ	-11019
▁Certified	-11020
▁Dedusting	-11021
▁ການຂະຫຍາຍ	-11022
▁ເຄື່ອງບິນ	-11023
ຂອງຮູບພາບຫາ	-11024
ແຫຼ່ງຂໍ້ມູນ	-11025
▁Galvanized	-11026
▁Innovative	-11027
▁JavaScript	-11028
▁ການແກ້ໄຂໃນ	-11029
▁ຂ້ອຍຄິດວ່າ	-11030
▁ຍົກຕົວຢ່າງ	-11031
▁ມະຫັດສະຈັນ	-11032
ທີ່ກໍານົດໄວ້	-11033
ແລະຕ່າງປະເທດ	-11034
▁ຂະຫນາດບັນຈຸ	-11035
▁ລະຍະຫ່າງຈາກ	-11036
▁ສິ່ງແວດລ້ອມ	-11037
▁ການເລືອກຕັ້ງ	-11038
▁ຂ້າພະເຈົ້າຈະ	-11039
▁ສູງສຸດທີ່ເຄຍ	-11040
▁ເປັນຜູ້ຜະລິດ	-11041
▁ໄດ້ເຂົ້າຮ່ວມ	-11042
ຂອງສະຫະປະຊາຊາດ	-11043
ທາງດ້ານຮ່າງກາຍ	-11044
ເຖິງຜົມສ່ວນບົນ	-11045
ເຫມາະສົມສໍາລັບ	-11046
▁ຄວາມສູງຂອງຫົວ	-11047
Cl	-11048
IB	-11049
ba	-11050
oe	-11051
ws	-11052
-05	-11053
110	-11054
day	-11055
jin	-11056
uch	-11057
ຕາດ	-11058
ຝ່າ	-11059
ສາງ	-11060
ເພີ	-11061
ໂຄນ	-11062
ໂອກ	-11063
▁6.	-11064
▁78	-11065
▁DK	-11066
▁SU	-11067
▁gr	-11068
▁ໂຟ	-11069
Chat	-11070
Outs	-11071
iper	-11072
reat	-11073
ຕົ້ມ	-11074
ພິພິ	-11075
ວກໍ່	-11076
ສະຖາ	-11077
ສະມາ	-11078
ຮຸ່ງ	-11079
▁Aqu	-11080
▁CAS	-11081
▁Gar	-11082
▁Hel	-11083
▁JPY	-11084
▁Lab	-11085
▁Mor	-11086
▁Rab	-11087
▁SMS	-11088
▁Sex	-11089
▁art	-11090
▁end	-11091
▁equ	-11092
▁etc	-11093
▁ຊີບ	-11094
▁ອິສ	-11095
▁ຮັດ	-11096
▁ເຈນ	-11097
▁ແບດ	-11098
▁ໂຢບ	-11099
erson	-11100
field	-11101
ience	-11102
owder	-11103
rogen	-11104
ພູມມິ	-11105
ລະຍາຍ	-11106
ວກວ່າ	-11107
ຫລ່ານ	-11108
ຮອດປີ	-11109
ເຊືອກ	-11110
▁2002	-11111
▁2500	-11112
▁Anti	-11113
▁Rich	-11114
▁test	-11115
▁ງຸ່ນ	-11116
▁ຢ່ອນ	-11117
▁ເຖີດ	-11118
urnace	-11119
ຈາກພັກ	-11120
ຜ່ານໄປ	-11121
ພໍ່ຄ້າ	-11122
ຢ່າງດີ	-11123
ອີງຕາມ	-11124
ົ້ານົມ	-11125
ເລັກໂຕ	-11126
ເຮັດໃນ	-11127
ໃນບ້ານ	-11128
ໄດ້ພົບ	-11129
ໄວໆນີ້	-11130
ໍ້າມັນ	-11131
▁2017.	-11132
▁Graph	-11133
▁Horiz	-11134
▁ທັນໃດ	-11135
▁ມໍເຕີ	-11136
▁ສາຍຕາ	-11137
▁ໃນບາງ	-11138
ຂ້າງຄຽງ	-11139
ດັບເພີງ	-11140
ຕະວັດທີ	-11141
ຕື່ມອີກ	-11142
ທີ່ສ້າງ	-11143
ອຸປະສັກ	-11144
ຮັບເອົາ	-11145
ໄດ້ສ້າງ	-11146
▁Tablet	-11147
▁ກະເປົາ	-11148
▁ການຕັດ	-11149
▁ການບິນ	-11150
▁ຂອງພວກ	-11151
▁ພວກມັນ	-11152
▁ຮັບຮອງ	-11153
ailbreak	-11154
ological	-11155
osilicon	-11156
ຂ້າງຫນ້າ	-11157
ຊື່ອີເມວ	-11158
ຫລາກຫລາຍ	-11159
ຫລາຍຢ່າງ	-11160
ເສຍສະຫຼະ	-11161
ແລະລະບົບ	-11162
ໃນຄອບຄົວ	-11163
▁100,000	-11164
▁Fitness	-11165
▁ຂອງຂ້ອຍ	-11166
▁ຊ່ຽວຊານ	-11167
▁ນັກກິລາ	-11168
▁ບັນເທົາ	-11169
▁ລາຄາຂອງ	-11170
▁ສິງກະໂປ	-11171
▁ແມ່ນບໍ່	-11172
▁ໄດ້ສົ່ງ	-11173
▁ໄດ້ສ້າງ	-11174
ການລະເບີດ	-11175
ງ່າຍທີ່ຈະ	-11176
ເຊິ່ງເປັນ	-11177
ໄດ້ຮັບຮູ້	-11178
▁ການສັກຢາ	-11179
▁ຊຶ່ງເປັນ	-11180
▁ທີ່ສາມາດ	-11181
▁ທ່ານຕ້ອງ	-11182
▁ໃຊ້ລະຫັດ	-11183
ດ້ານການຄ້າ	-11184
ລະຫວ່າງສອງ	-11185
ສະຖຽນລະພາບ	-11186
ຫນ້າທໍາອິດ	-11187
ຫຼັງຈາກການ	-11188
ໃນຕອນເຊົ້າ	-11189
▁Diaphragm	-11190
▁Unlimited	-11191
▁butterfly	-11192
▁ເຂົ້າໄປໃນ	-11193
ແບ່ງອອກເປັນ	-11194
ດັ່ງກ່າວແມ່ນ	-11195
ມີຄວາມສໍາຄັນ	-11196
ະລາຊະອານາຈັກ	-11197
ເປັນຜູ້ຜະລິດ	-11198
ເຮັດໃຫ້ມີແສງ	-11199
ໄດ້ຮັບຂໍ້ມູນ	-11200
▁ຄຸນນະພາບສູງ	-11201
▁ເຈົ້າຮູ້ສຶກ	-11202
ແລະເຕັກໂນໂລຊີ	-11203
▁ຄ່າໃຊ້ຈ່າຍທັງ	-11204
▁ທີ່ຢູ່ເວັບໄຊທ໌	-11205
▁ເຄື່ອງນຸ່ງຫົ່ມ	-11206
ເຄື່ອງຫມາຍການຄ້າ	-11207
5.	-11208
Co	-11209
gg	-11210
la	-11211
ຊໍ	-11212
ບິ	-11213
-13	-11214
-88	-11215
015	-11216
BET	-11217
urb	-11218
ຂົວ	-11219
ຈູງ	-11220
ຍິວ	-11221
ປອກ	-11222
ວຍະ	-11223
ຮອນ	-11224
ເກນ	-11225
ເນດ	-11226
▁EC	-11227
▁EX	-11228
▁QC	-11229
ains	-11230
cast	-11231
ship	-11232
sych	-11233
tech	-11234
ucks	-11235
unny	-11236
ດາລາ	-11237
ດີໃຈ	-11238
ີເຈີ	-11239
ເຫ້ວ	-11240
ໂຫຍກ	-11241
▁105	-11242
▁198	-11243
▁650	-11244
▁Add	-11245
▁Big	-11246
▁CAN	-11247
▁CBD	-11248
▁Cnc	-11249
▁Jul	-11250
▁Nov	-11251
▁Pol	-11252
▁ກາວ	-11253
▁ຈອກ	-11254
▁ບີບ	-11255
▁ຢາຍ	-11256
▁ຮີດ	-11257
▁ແຟນ	-11258
▁ໄຮ້	-11259
ember	-11260
ທີການ	-11261
ລະງັບ	-11262
ລົງມາ	-11263
ສະທໍາ	-11264
ສິບປີ	-11265
ອັດສະ	-11266
ໃນນາມ	-11267
ໄວຣັສ	-11268
▁1080	-11269
▁Anal	-11270
▁Camp	-11271
▁Fire	-11272
▁Fram	-11273
▁Jing	-11274
▁Phot	-11275
▁Ring	-11276
▁cake	-11277
▁ເດັດ	-11278
▁ເຜົາ	-11279
lamode	-11280
ຈູ່ໂຈມ	-11281
ດັດແປງ	-11282
ທອງແດງ	-11283
ທ່ານມີ	-11284
ພັດລົມ	-11285
ສໍານັກ	-11286
ເຄຣດິດ	-11287
ໂປຼຕີນ	-11288
ໄດ້ໂດຍ	-11289
▁Admin	-11290
▁Azure	-11291
▁Metro	-11292
▁Night	-11293
▁Paper	-11294
▁Silic	-11295
▁ລາມົກ	-11296
▁ອັກຄະ	-11297
▁ໂຄມໄຟ	-11298
ຄັ້ງທີ່	-11299
ທີ່ຈະມີ	-11300
ສາມັກຄີ	-11301
ອິດສະຣາ	-11302
ອ້ອມຮອບ	-11303
ິວຊີແລນ	-11304
ເຂົ້າຫາ	-11305
ແລະທ່ານ	-11306
ໃນປີນີ້	-11307
▁Carbon	-11308
▁Guitar	-11309
▁Paypal	-11310
▁Spring	-11311
▁corros	-11312
▁ຂອງນາງ	-11313
▁ຊຶ່ງມີ	-11314
▁ທ້າທາຍ	-11315
▁ປະເມີນ	-11316
▁ມີຫນ້າ	-11317
▁ສຸມໃສ່	-11318
▁ອິຕາລີ	-11319
rostatic	-11320
ກຕ່າງຫາກ	-11321
ຄວາມຫມາຍ	-11322
ຈັກກະວານ	-11323
ຕົວເລືອກ	-11324
ປັບອາກາດ	-11325
ລະດັບໂລກ	-11326
ລະບົດບາດ	-11327
ລົງນາມໃນ	-11328
ວັນອາທິດ	-11329
ເຜົາໄຫມ້	-11330
ໃນວັນພຸດ	-11331
ໄປບໍ່ໄດ້	-11332
▁Instrum	-11333
▁flicker	-11334
▁ກັບຄວາມ	-11335
▁ນີ້ເປັນ	-11336
▁ບໍ່ມີໃຜ	-11337
▁ຜູ້ນັ້ນ	-11338
▁ລັບຂ້ອຍ	-11339
▁ແມ່ນ້ໍາ	-11340
ifunction	-11341
ການຮຽນຮູ້	-11342
ຄິດວ່າມັນ	-11343
ຄົນອັບເດດ	-11344
ລັກອັກສອນ	-11345
ເບິ່ງເຫັນ	-11346
ເພື່ອຄວາມ	-11347
ເລຂາທິການ	-11348
ໃນບໍລິເວນ	-11349
▁ຍິ່ງໃຫຍ່	-11350
▁ນິວຊີແລນ	-11351
▁ອື່ນໆທີ່	-11352
▁ເສື້ອຜ້າ	-11353
ຜູ້ພິພາກສາ	-11354
ວ່ານີ້ແມ່ນ	-11355
ສິ່ງສໍາຄັນ	-11356
ສຸດທ້າຍຂອງ	-11357
ຫລາຍທີ່ສຸດ	-11358
ເຂດພື້ນທີ່	-11359
ເປັນຜູ້ນໍາ	-11360
ເລືອກທີ່ຈະ	-11361
▁Cartridge	-11362
▁ການຈັດການ	-11363
▁ວິສະວະກອນ	-11364
ຄວາມຖືກຕ້ອງ	-11365
ບໍາລຸງຮັກສາ	-11366
▁Misslamode	-11367
▁corrugated	-11368
▁ຄວາມຮູ້ສຶກ	-11369
▁ພວກເຂົາຍັງ	-11370
▁ຫຼັງຈາກການ	-11371
ການເຂົ້າເຖິງ	-11372
ຄວາມຫຍຸ້ງຍາກ	-11373
ໃນການເຮັດວຽກ	-11374
▁ກ້ອງຖ່າຍຮູບ	-11375
▁ເຄື່ອງປະດັບ	-11376
ສິ່ງທີ່ພວກເຂົາ	-11377
HZ	-11378
IU	-11379
MO	-11380
We	-11381
pc	-11382
wp	-11383
10,	-11384
CSA	-11385
IFI	-11386
Ind	-11387
aha	-11388
arp	-11389
emy	-11390
inc	-11391
kgs	-11392
osp	-11393
vol	-11394
yle	-11395
ທັກ	-11396
ບູດ	-11397
ມະໂ	-11398
ຣັນ	-11399
ລຽບ	-11400
ເພນ	-11401
▁62	-11402
▁Bh	-11403
▁CC	-11404
▁Fr	-11405
▁MX	-11406
▁SN	-11407
▁UP	-11408
▁el	-11409
▁us	-11410
aber	-11411
airs	-11412
arak	-11413
asma	-11414
itor	-11415
odia	-11416
ould	-11417
rone	-11418
ກະວີ	-11419
ກາຊາ	-11420
ຕລາຍ	-11421
ຫລໍ່	-11422
ູດານ	-11423
ໂຕ້ວ	-11424
▁AAS	-11425
▁APK	-11426
▁BTC	-11427
▁Den	-11428
▁Nic	-11429
▁Pox	-11430
▁XML	-11431
▁dji	-11432
▁est	-11433
▁pcs	-11434
▁tok	-11435
▁val	-11436
▁ຄະນ	-11437
▁ງ່າ	-11438
▁ນວຍ	-11439
▁ປອນ	-11440
▁ປ້າ	-11441
▁ຜັກ	-11442
▁ມິວ	-11443
▁ມົວ	-11444
▁ຫມູ	-11445
▁ແຄບ	-11446
▁ໂປຣ	-11447
cheng	-11448
ifier	-11449
itute	-11450
izing	-11451
ປະຖົມ	-11452
ສະຕິງ	-11453
ອົງຄະ	-11454
ັດທົວ	-11455
ົບຫນີ	-11456
ເຕເລຍ	-11457
ເພິ່ງ	-11458
ໍ້ໂກງ	-11459
▁Flex	-11460
▁Hard	-11461
▁Site	-11462
▁Xing	-11463
▁prof	-11464
▁ດ່ວນ	-11465
▁ປະຈຸ	-11466
▁ປັ້ນ	-11467
▁ເຊີດ	-11468
▁ເລຂາ	-11469
▁ໃກ້ໆ	-11470
covery	-11471
edding	-11472
ການສູງ	-11473
ຂ້ອຍຈະ	-11474
ຊົມໃຊ້	-11475
ຖາມວ່າ	-11476
ຖືເປັນ	-11477
ທີ່ໃຫ້	-11478
ທໍານຽບ	-11479
ບັນຫາກ	-11480
ລູກສາວ	-11481
ສົມມຸດ	-11482
ເຕັມໃຈ	-11483
ໂທໂລຈີ	-11484
ໃຫ້ຄໍາ	-11485
▁2,000	-11486
▁Screw	-11487
▁Share	-11488
▁Views	-11489
▁ຄົບຫາ	-11490
▁ວຸດທິ	-11491
▁ເຜິ້ງ	-11492
▁ໃນໂລກ	-11493
ຄໍາກ່າວ	-11494
ຕ່ໍາສຸດ	-11495
ທຸກໆຄົນ	-11496
ຜ່ານແດນ	-11497
ຢາງພາລາ	-11498
ຢ່າງບໍ່	-11499
ຢ່າງແຮງ	-11500
ອັນຕລາຍ	-11501
ເດັກຊາຍ	-11502
▁Brazil	-11503
▁carton	-11504
▁ຕົນເອງ	-11505
▁ລັບການ	-11506
▁ສາຍແອວ	-11507
▁ສົມສັກ	-11508
▁ແຕ່ການ	-11509
ຄວາມເຢັນ	-11510
ຈອນເຕັ້ນ	-11511
ທາງລົດໄຟ	-11512
ບົ່ມຊ້ອນ	-11513
ລະບຽບການ	-11514
ຫນື່ງຂອງ	-11515
ໄວທີ່ສຸດ	-11516
▁Chamber	-11517
▁printer	-11518
▁ຂອງເຮົາ	-11519
▁ຈົນເຖິງ	-11520
▁ທີ່ທ່ານ	-11521
▁ພິພາກສາ	-11522
ຂອງຄອບຄົວ	-11523
ຂໍ້ສັງເກດ	-11524
ຜູ້ຈັດການ	-11525
▁Diffuser	-11526
▁ການພະນັນ	-11527
▁ຍຸດທະສາດ	-11528
▁ລະຫັດທົວ	-11529
▁ເວົ້າກັບ	-11530
ປົກຫຸ້ມຂອງ	-11531
ມີປະສົບການ	-11532
ຮູ້ກ່ຽວກັບ	-11533
ັຟການິສຖານ	-11534
▁Pneumatic	-11535
▁ຂໍ້ມູນເກມ	-11536
▁ຊື່ຍີ່ຫໍ້	-11537
ຕົ້ນກໍາເນີດ	-11538
ເປັນເອກະລັກ	-11539
ເລົ່າເລື່ອງ	-11540
ແລະການຜະລິດ	-11541
ໄດ້ເກີດຂຶ້ນ	-11542
▁ການບໍລິໂພກ	-11543
▁ບໍລິສັດໄດ້	-11544
▁ລະມັດລະວັງ	-11545
ຍິນດີຕ້ອນຮັບ	-11546
ເຂົ້າຮ່ວມຂອງ	-11547
▁ຄວາມພະຍາຍາມ	-11548
▁ປີທີ່ຜ່ານມາ	-11549
▁ສາທາລະນະລັດ	-11550
ທີ່ມີຄຸນນະພາບ	-11551
▁ຕອນຄ່ໍາວັນທີ	-11552
ຂອງການຄົ້ນຄວ້າ	-11553
ເຊັ່ນດຽວກັນກັບ	-11554
▁Biotechnology	-11555
ກອງປະຊຸມສໍາມະນາ	-11556
ການສະຫນັບສະຫນູນ	-11557
%)	-11558
Al	-11559
Fi	-11560
yr	-11561
ຣກ	-11562
125	-11563
20)	-11564
="0	-11565
IVE	-11566
TER	-11567
axi	-11568
ror	-11569
ຄອດ	-11570
ບົວ	-11571
ປົນ	-11572
ພອດ	-11573
ພິກ	-11574
ໂຕະ	-11575
▁Cu	-11576
▁DI	-11577
▁EP	-11578
▁ER	-11579
▁Ft	-11580
▁LC	-11581
▁km	-11582
▁ms	-11583
▁vk	-11584
▁ດ້	-11585
qing	-11586
ures	-11587
uter	-11588
vert	-11589
ດ່ານ	-11590
ຕັ້ນ	-11591
ຕຸ້ງ	-11592
ຮຸ້ນ	-11593
ຮ່ຈິ	-11594
ໄວຍະ	-11595
▁30,	-11596
▁315	-11597
▁91;	-11598
▁Bat	-11599
▁Emb	-11600
▁SQL	-11601
▁cam	-11602
▁csg	-11603
▁pad	-11604
▁tri	-11605
▁ກັກ	-11606
▁ມີດ	-11607
▁ສາງ	-11608
▁ອວຍ	-11609
▁ຮາດ	-11610
▁ເຕະ	-11611
▁ເວນ	-11612
Point	-11613
ading	-11614
annel	-11615
arius	-11616
ening	-11617
otton	-11618
ragon	-11619
ຂໍໂທດ	-11620
ຄືການ	-11621
ຄ່ອຍໆ	-11622
ຕໍານິ	-11623
ສາມປີ	-11624
ສາຫັດ	-11625
ສູບຢາ	-11626
ຫາກໍາ	-11627
ອົກຊີ	-11628
ເວລາກ	-11629
ເຫລັກ	-11630
ໂຊກດີ	-11631
▁Alex	-11632
▁Apps	-11633
▁Form	-11634
▁Hall	-11635
▁Plug	-11636
▁Text	-11637
▁serv	-11638
▁ລ້ວນ	-11639
▁ຫົ່ມ	-11640
▁ເອັນ	-11641
ກະລຸນາ	-11642
ກໍ່ຖືກ	-11643
ຄວາມດີ	-11644
ຄອນເທນ	-11645
ຍ້ອງຍໍ	-11646
ບໍານານ	-11647
ຜົວເມຍ	-11648
ມະເຮັງ	-11649
ຢາກໃຫ້	-11650
ສົ່ງໄປ	-11651
ໄວຍະວະ	-11652
ໍລິສັດ	-11653
▁Hydra	-11654
▁Hydro	-11655
▁Metal	-11656
▁Photo	-11657
▁Print	-11658
▁Spong	-11659
▁Start	-11660
▁ມີຜູ້	-11661
▁ເບື່ອ	-11662
▁ເຮືອງ	-11663
▁ໂມດູນ	-11664
ຄິດສ້າງ	-11665
ຄົບຖ້ວນ	-11666
ຍົກຍ້າຍ	-11667
ຕັດຫຍິບ	-11668
ທີ່ເຄີຍ	-11669
ປ່ອຍຕົວ	-11670
ມະໂຫລານ	-11671
ລອຍນ້ໍາ	-11672
ລາຄາແພງ	-11673
ວົງເງິນ	-11674
ຫມູນວຽນ	-11675
ອິສະຫລະ	-11676
ເງິນຂອງ	-11677
▁Crypto	-11678
▁Odisha	-11679
▁Router	-11680
▁Royale	-11681
▁ຄໍານຶງ	-11682
▁ຕໍ່ໆໄປ	-11683
▁ມີຫຼາຍ	-11684
▁ສິລະປະ	-11685
▁ສີສົ້ມ	-11686
ຊື່ງເປັນ	-11687
ຕັ້ງຫນ້າ	-11688
ທີ່ສະອາດ	-11689
ບັນດາຜູ້	-11690
ພ້ອມດ້ວຍ	-11691
ວິກິດການ	-11692
ຫນຶ່ງຄົນ	-11693
ຫຸ້ນສ່ວນ	-11694
ອາຫານແລະ	-11695
ເຊື້ອຊາດ	-11696
ເຕົ້ານົມ	-11697
ໃຊ້ເພື່ອ	-11698
▁Acetate	-11699
▁Crusher	-11700
▁Sitemap	-11701
▁Village	-11702
▁ຂາຍສົ່ງ	-11703
▁ຂຶ້ນຢູ່	-11704
▁ບາງຄັ້ງ	-11705
▁ມື້ຄ່ໍາ	-11706
ophilized	-11707
ຕົ້ນເດືອນ	-11708
ລະອຽດອ່ອນ	-11709
▁Assembly	-11710
▁Hangzhou	-11711
▁roulette	-11712
▁ຕ່າງໆຂອງ	-11713
▁ທີ່ປຶກສາ	-11714
▁ນັກສະແດງ	-11715
▁ພະບັນຍັດ	-11716
▁ເຈົ້າຄິດ	-11717
▁ເຫມາະສົມ	-11718
ແລະບໍລິການ	-11719
ໄປກວ່ານັ້ນ	-11720
▁Connector	-11721
▁ການລະເບີດ	-11722
▁ພວກເຂົາຈະ	-11723
ສາມາດໄດ້ຮັບ	-11724
ຮູບພາບໄປສູ່	-11725
ໃນການອອກແບບ	-11726
▁ສາດສະດາຈານ	-11727
▁ອຸບັດຕິເຫດ	-11728
▁ເກີດຂຶ້ນຄື	-11729
ຕໍ່ໄປຂອງທ່ານ	-11730
ທີ່ມີຢູ່ແລ້ວ	-11731
ຜູ້ອໍານວຍການ	-11732
▁ເສົ້າສະຫລົດ	-11733
▁ແລະດັ່ງນັ້ນ	-11734
ຄວາມຊ່ວຍເຫລືອ	-11735
▁ໄດ້ລາຍງານວ່າ	-11736
ກ່ຽວຂ້ອງກັບການ	-11737
ຂອງສາດສະຫນາຈັກ	-11738
ດໍາລົງຕໍາແຫນ່ງ	-11739
ຕາມຄວາມຕ້ອງການ	-11740
ທີ່ເປັນເອກະລັກ	-11741
ສະຫະລາດອານາຈັກ	-11742
0)	-11743
DM	-11744
Fl	-11745
HA	-11746
MH	-11747
SE	-11748
iw	-11749
so	-11750
ຊ໌	-11751
ເເ	-11752
ໃຕ	-11753
▁%	-11754
-02	-11755
-14	-11756
-21	-11757
.15	-11758
380	-11759
ALE	-11760
EMA	-11761
EST	-11762
ala	-11763
apy	-11764
iro	-11765
uth	-11766
vas	-11767
vid	-11768
ຊອງ	-11769
ບົບ	-11770
ປີດ	-11771
ລິສ	-11772
ຮຽກ	-11773
ເລສ	-11774
ໂຄດ	-11775
▁::	-11776
▁CL	-11777
▁FI	-11778
▁MC	-11779
ason	-11780
ists	-11781
rain	-11782
star	-11783
test	-11784
xBet	-11785
ຄິ່ງ	-11786
ຄ່າຍ	-11787
ພລາສ	-11788
ພົ່ນ	-11789
ລ໊ອກ	-11790
ລໍາລ	-11791
ສະຕາ	-11792
ຮອບຄ	-11793
ິເຈີ	-11794
ື້ອກ	-11795
▁0.9	-11796
▁135	-11797
▁Bao	-11798
▁Bit	-11799
▁GED	-11800
▁Han	-11801
▁How	-11802
▁Mad	-11803
▁RSS	-11804
▁Ros	-11805
▁SGS	-11806
▁Sea	-11807
▁Suz	-11808
▁bug	-11809
▁ຂວາ	-11810
▁ຍົມ	-11811
▁ດັກ	-11812
▁ຕົງ	-11813
▁ຟລີ	-11814
▁ຣິກ	-11815
▁ລາດ	-11816
▁ລິບ	-11817
▁ອົສ	-11818
▁ເຈມ	-11819
▁ເສບ	-11820
▁ແມກ	-11821
▁ແວງ	-11822
▁ແສດ	-11823
/2017	-11824
anges	-11825
ratch	-11826
retch	-11827
ກໍ່ມີ	-11828
ຈັດຫາ	-11829
ຍະກໍາ	-11830
ຕິຄຸນ	-11831
ທະວີບ	-11832
ທິຍານ	-11833
ບາງທີ	-11834
ປະມູນ	-11835
ລາວຈະ	-11836
ສາວົກ	-11837
ອາກອນ	-11838
ັກຮຽນ	-11839
ົາມັກ	-11840
▁1.0%	-11841
▁Edge	-11842
▁Hill	-11843
▁Rand	-11844
▁ບຣາວ	-11845
▁ເດັນ	-11846
▁ເລີນ	-11847
acking	-11848
urgaon	-11849
ຂອງເກມ	-11850
ຄຸມຂັງ	-11851
ຕອບແທນ	-11852
ຕັດສິດ	-11853
ຕາມທີ່	-11854
ທີ່ຕິດ	-11855
ບຸກຄະລ	-11856
ປີໃຫມ່	-11857
ມີອາຍຸ	-11858
ລະເສີນ	-11859
ຫຼືການ	-11860
ຮາກຖານ	-11861
ເຟສບຸກ	-11862
ເມື່ອກ	-11863
ໃນທຸກໆ	-11864
ໃຫມ່ໃນ	-11865
▁2020.	-11866
▁Adder	-11867
▁Beige	-11868
▁Brush	-11869
▁Peter	-11870
▁Sihan	-11871
▁ຈຸລັງ	-11872
▁ປະດິດ	-11873
▁ມາຮອດ	-11874
▁ລະບາຍ	-11875
▁ສາບານ	-11876
▁ຫມ້າຍ	-11877
ography	-11878
ກຽມພ້ອມ	-11879
ຄວາມຖີ່	-11880
ບັນເທີງ	-11881
ຢູ່ແລ້ວ	-11882
ສູງຂຶ້ນ	-11883
ແລະສ້າງ	-11884
ໄຕ້ຫວັນ	-11885
▁Castle	-11886
▁Corpor	-11887
▁Fruity	-11888
▁ກໍາແພງ	-11889
▁ທອງແດງ	-11890
▁ລົດຈັກ	-11891
▁ສູນກາງ	-11892
▁ອະໄຫລ່	-11893
▁ອ່ອນແອ	-11894
▁ແຜນທີ່	-11895
ກັບຄືນມາ	-11896
ຂອງລາວໃນ	-11897
ບັນດາການ	-11898
ບັນດານໃຈ	-11899
ຜູ້ເຂົ້າ	-11900
ວັດຖຸດິບ	-11901
ຫນຶ່ງທີ່	-11902
ອ້ອມຂ້າງ	-11903
ເສຍອົງຄະ	-11904
▁Atlanta	-11905
▁Bonuses	-11906
▁October	-11907
▁jackpot	-11908
▁youjian	-11909
▁ຄວາມຮັກ	-11910
▁ຊົ່ວຄາວ	-11911
▁ສະຊອບແວ	-11912
ກໍລະນີນີ້	-11913
ຕອບຄໍາຖາມ	-11914
ທົ່ວໄປຂອງ	-11915
ປະເຊີນກັບ	-11916
ຜູ້ສະຫມັກ	-11917
ພົ້ນເດັ່ນ	-11918
ອະລູມິນຽມ	-11919
ເລັກໂຕນິກ	-11920
ແລະຂະຫນາດ	-11921
ໃກ້ຊິດກັບ	-11922
ໃນການເຮັດ	-11923
▁tutorial	-11924
▁ຈະສືບຕໍ່	-11925
▁ບັນລະຍາຍ	-11926
▁ເຂົ້າສູ່	-11927
▁ໂຄສົກຂອງ	-11928
ຄະນະຜູ້ແທນ	-11929
ສໍາເລັດຮູບ	-11930
ເຫັນເຫດການ	-11931
ແຍກຕ່າງຫາກ	-11932
ໄລຍະດຽວກັນ	-11933
▁ການສະເຫນີ	-11934
▁ລະຫັດຜ່ານ	-11935
ຄັ້ງສຸດທ້າຍ	-11936
ໃນວັນອັງຄານ	-11937
▁ຖ້າພວກເຮົາ	-11938
▁ສິ່ງທ້າທາຍ	-11939
ຄວາມປອດໄພຂອງ	-11940
ມີຄວາມຮູ້ສຶກ	-11941
ວິວັດທະນາການ	-11942
▁ຫງວຽນຊວນຟຸກ	-11943
▁ເຮັດໃຫ້ເກີດ	-11944
▁ໂດຍບໍ່ມີການ	-11945
ການເຊື່ອມໂລຫະ	-11946
ຂອງພວກເຮົາແລະ	-11947
ຂຸດຄົ້ນບໍ່ແຮ່	-11948
ທາງອິນເຕີເນັດ	-11949
ເກັບຂີ້ເຫຍື້ອ	-11950
▁ເຊິ່ງເຮັດໃຫ້	-11951
RO	-11952
SW	-11953
js	-11954
ön	-11955
/19	-11956
1.0	-11957
="3	-11958
GSM	-11959
ORD	-11960
aya	-11961
can	-11962
ear	-11963
ibo	-11964
ດີນ	-11965
ຕື້	-11966
ພີກ	-11967
ຟອກ	-11968
ຣີກ	-11969
ອົສ	-11970
ເຊລ	-11971
ແທງ	-11972
▁(8	-11973
▁(9	-11974
▁3)	-11975
▁GW	-11976
▁Iq	-11977
▁Na	-11978
▁TC	-11979
▁TM	-11980
▁ve	-11981
aked	-11982
arat	-11983
aret	-11984
case	-11985
ense	-11986
hong	-11987
ides	-11988
rine	-11989
xbet	-11990
ກູໂກ	-11991
ຂົ້ວ	-11992
ຄຸ້ນ	-11993
ຊາກິ	-11994
ດິ່ງ	-11995
ຢື່ນ	-11996
ຣິໂອ	-11997
ເລຂາ	-11998
ເລັນ	-11999
ເສືອ	-12000
▁2.4	-12001
▁320	-12002
▁Ash	-12003
▁CEO	-12004
▁CIS	-12005
▁Del	-12006
▁Die	-12007
▁Enc	-12008
▁End	-12009
▁GMP	-12010
▁HDL	-12011
▁Her	-12012
▁Lou	-12013
▁Mah	-12014
▁Nan	-12015
▁SEC	-12016
▁TPU	-12017
▁Yue	-12018
▁acc	-12019
▁bar	-12020
▁col	-12021
▁str	-12022
▁ຂົວ	-12023
▁ຄັກ	-12024
▁ຊອງ	-12025
▁ຊິບ	-12026
▁ຍືນ	-12027
▁ພິດ	-12028
▁ມັງ	-12029
▁ອາບ	-12030
▁ຮີບ	-12031
▁ເມກ	-12032
▁້ໍາ	-12033
enger	-12034
oshan	-12035
ຂອງອາ	-12036
ດັບໄຟ	-12037
ຖະກໍາ	-12038
ທັນໃດ	-12039
ລັງກາ	-12040
າຊາກິ	-12041
ເຝົ້າ	-12042
ໃນບາງ	-12043
▁Bang	-12044
▁Cixi	-12045
▁Fast	-12046
▁Gall	-12047
▁Show	-12048
▁[...	-12049
▁cage	-12050
▁have	-12051
▁ຈັ່ງ	-12052
▁ພາສີ	-12053
▁ຫມຸດ	-12054
▁ອຸປະ	-12055
▁ຮ່ອມ	-12056
▁ແຊ່ງ	-12057
irates	-12058
ການສອນ	-12059
ຈະຫຼວດ	-12060
ຜູ້ຮັບ	-12061
ພຣະກິດ	-12062
ຟິນແລນ	-12063
ສາຍພັນ	-12064
ສູງຂອງ	-12065
ຫລາຍປີ	-12066
ຮາງວັນ	-12067
ັ່ງຄັດ	-12068
ໃນຫຼາຍ	-12069
▁2004.	-12070
▁2007.	-12071
▁Angel	-12072
▁EVFTA	-12073
▁Promo	-12074
▁Strip	-12075
▁games	-12076
▁ຂໍໃຫ້	-12077
▁ທີ່ດີ	-12078
▁ມານີ້	-12079
▁ສະມັດ	-12080
▁ເມດຕາ	-12081
▁ໃນຮອບ	-12082
content	-12083
ດິນເຜົາ	-12084
ດີເດັ່ນ	-12085
ຖະແຫລ່ງ	-12086
ບອກທ່ານ	-12087
ພຣະເຢຊູ	-12088
ລົ້ມລົງ	-12089
ວັນເສົາ	-12090
ສໍາຫລວດ	-12091
ອາດຈະມີ	-12092
ຮ່ຈິມິນ	-12093
ແຫ່ງການ	-12094
ໃຫມ່ນີ້	-12095
▁(2016)	-12096
▁Armati	-12097
▁Master	-12098
▁String	-12099
▁invent	-12100
▁ປະເດັນ	-12101
▁ຜິດພາດ	-12102
▁ວັນທີ່	-12103
▁ວັນສຸກ	-12104
▁ອະນາໄມ	-12105
▁ເຊື່ອງ	-12106
▁ເຕີບໂຕ	-12107
▁ເອີລົບ	-12108
ກວາງຕຸ້ງ	-12109
ກໍ່ສາມາດ	-12110
ຊົງກະບອກ	-12111
ພັບບິກັນ	-12112
ສອງອາທິດ	-12113
ອື່ນໆຂອງ	-12114
ໃນທີ່ສຸດ	-12115
▁Gurgaon	-12116
▁crusher	-12117
▁ຖ່ານຫີນ	-12118
▁ປ່ຽນກັບ	-12119
▁ຢັ້ງຢືນ	-12120
▁ສະຕະວັດ	-12121
▁ຫຼຸດລົງ	-12122
▁ອະນຸມັດ	-12123
▁ອຸທິຍານ	-12124
▁ຮ້ອງໄຫ້	-12125
ຄອນເທນເນີ	-12126
ຊອກຫາວິທີ	-12127
ບໍ່ໄດ້ຖືກ	-12128
ວິກິພີເດຍ	-12129
ສຸມໃສ່ການ	-12130
ອຸປະຕິເຫດ	-12131
▁Cambodia	-12132
▁Sihanouk	-12133
▁ສະຖານທູດ	-12134
▁ຫນູນຊ່ວຍ	-12135
▁ອັດຕາການ	-12136
▁ອິດທິພົນ	-12137
▁ເຊື່ອວ່າ	-12138
▁ເຊື້ອສາຍ	-12139
ການປຸງແຕ່ງ	-12140
ສະບັບເລກທີ	-12141
ສາມາດບັນລຸ	-12142
ເທດຍີ່ປຸ່ນ	-12143
ເມື່ອເດືອນ	-12144
▁Extrusion	-12145
▁ເດືອນມີນາ	-12146
▁ເພື່ອຊ່ວຍ	-12147
ຢ່າງຖືກຕ້ອງ	-12148
ເທົ່າທຽມກັນ	-12149
ເວັບໄຊທ໌ນີ້	-12150
ແຜ່ນດິນໃຫຍ່	-12151
▁ມັນເປັນການ	-12152
ບໍ່ໄດ້ຮັບການ	-12153
ສໍາລັບເຄື່ອງ	-12154
ອັບການິສະຖານ	-12155
ເຂົ້າຮ່ວມການ	-12156
ແລະຄວາມສາມາດ	-12157
▁Lyophilized	-12158
▁ຄວາມຕ້ານທານ	-12159
ການດໍາເນີນການ	-12160
ການປ່ຽນແປງຂອງ	-12161
ທີ່ມີປະສົບການ	-12162
ຢ່າງວ່ອງໄວແລະ	-12163
ສະທ້ອນໃຫ້ເຫັນ	-12164
ໂດຍສະເພາະແມ່ນ	-12165
▁ໃນຂະນະດຽວກັນ	-12166
▁Organosilicon	-12167
▁ຂອງຂ້າພະເຈົ້າ	-12168
ຂໍ້ມູນຂອງພວກເຮົາ	-12169
ເອກອັກຄະລັດຖະທູດ	-12170
▁ການສະຫນັບສະຫນູນ	-12171
DN	-12172
PN	-12173
mA	-12174
-03	-12175
-04	-12176
.08	-12177
.19	-12178
220	-12179
TPP	-12180
asy	-12181
omi	-12182
rav	-12183
set	-12184
udy	-12185
ຂູ່	-12186
ຊາບ	-12187
ດົງ	-12188
ຕິ້	-12189
ຖັນ	-12190
ທາວ	-12191
ບຣາ	-12192
ບອງ	-12193
ຟາມ	-12194
ິ່ມ	-12195
ເອສ	-12196
ໂຫມ	-12197
ໂອດ	-12198
▁$1	-12199
▁1)	-12200
▁67	-12201
▁87	-12202
▁CZ	-12203
▁GP	-12204
▁HT	-12205
▁IB	-12206
▁Je	-12207
▁Ji	-12208
▁kn	-12209
▁ox	-12210
▁ກມ	-12211
▁ດຸ	-12212
9999	-12213
enna	-12214
etra	-12215
wood	-12216
ຊ່າງ	-12217
ຊ້າງ	-12218
ດີຊີ	-12219
ມະຕະ	-12220
ລາມິ	-12221
ສະກີ	-12222
ສຸ່ມ	-12223
ົາວະ	-12224
▁0.6	-12225
▁24)	-12226
▁27,	-12227
▁365	-12228
▁7.5	-12229
▁Non	-12230
▁THB	-12231
▁Upd	-12232
▁Yan	-12233
▁Yin	-12234
▁cre	-12235
▁ຂຸມ	-12236
▁ຈົມ	-12237
▁ວິວ	-12238
▁ເດຍ	-12239
▁ເລດ	-12240
▁ໄກ່	-12241
Shirt	-12242
witch	-12243
ປະການ	-12244
ພິເດຍ	-12245
ລາມົກ	-12246
ສະພານ	-12247
ສະແກນ	-12248
ສີສັນ	-12249
ແລະຈະ	-12250
ໃນພາກ	-12251
ໃນສານ	-12252
▁1600	-12253
▁HBOT	-12254
▁Kids	-12255
▁Sale	-12256
▁Spot	-12257
▁Tech	-12258
▁from	-12259
▁ຊ້ອນ	-12260
▁ເຄມີ	-12261
Casino	-12262
enturi	-12263
intage	-12264
ກວດພົບ	-12265
ດ້ວຍມື	-12266
ຕົວຕາຍ	-12267
ຖະແຫລງ	-12268
ຖົງຢາງ	-12269
ວິນາທີ	-12270
ສັນຖານ	-12271
ຫາດຊາຍ	-12272
ເດໂມແຄ	-12273
ເຫຼົ້າ	-12274
່າຍແພ້	-12275
▁Huang	-12276
▁Proxy	-12277
▁Relay	-12278
▁Santa	-12279
▁latte	-12280
▁under	-12281
▁ທັກສະ	-12282
▁ວາງໃຈ	-12283
▁ເຜົ່າ	-12284
▁ເລັ່ງ	-12285
ຄູອາຈານ	-12286
ບໍ່ເຫັນ	-12287
ປາຊີຟິກ	-12288
ວິກິນິວ	-12289
ສາມຄັ້ງ	-12290
ສິງກະໂປ	-12291
ຫລອກລວງ	-12292
ອິຫລ່ານ	-12293
ຮີບດ່ວນ	-12294
ິດສະຖານ	-12295
ົາວະຊົນ	-12296
ເງິນທຶນ	-12297
ໂຕ້ວາທີ	-12298
ໃນອະດີດ	-12299
ໄລຍະຍາວ	-12300
▁(2012)	-12301
▁AASraw	-12302
▁Burner	-12303
▁hacker	-12304
▁ຈະຕ້ອງ	-12305
▁ລົງທຶນ	-12306
▁ແຮງງານ	-12307
ຂອງປະທານ	-12308
ດ້ານໄອທີ	-12309
ປະເທດຈີນ	-12310
ສິ່ງນັ້ນ	-12311
ອຸທິດຕົນ	-12312
ເຟີນີເຈີ	-12313
ໃນຊຸມຊົນ	-12314
▁Ninjago	-12315
▁machine	-12316
▁ຄາດຄະເນ	-12317
▁ຊຶ່ງພວກ	-12318
▁ຕາຫນ່າງ	-12319
▁ຕົ້ນໄມ້	-12320
▁ສັງກະສີ	-12321
ການຕິດຕໍ່	-12322
ຂອງຊຸມຊົນ	-12323
ຈໍານວນຂອງ	-12324
ທີ່ລາວໄດ້	-12325
ວັນອັງຄານ	-12326
ຫນ້າສົນໃຈ	-12327
ອອກແຮງງານ	-12328
ອາເມລິກາກ	-12329
ເປີດກວ້າງ	-12330
ເມື່ອຂ້ອຍ	-12331
▁ກ່ຽວຂ້ອງ	-12332
▁ທີ່ມີການ	-12333
▁ຫມາຍຄວາມ	-12334
▁ຫຼຸດຜ່ອນ	-12335
▁ເວັ້ນຈາກ	-12336
▁ໃນຮູບແບບ	-12337
▁ໄດ້ສະແດງ	-12338
ປະເຊີນຫນ້າ	-12339
ຢ່າງແນ່ນອນ	-12340
ລ່ວງລະເມີດ	-12341
ແມ່ນໄດ້ຖືກ	-12342
ແລະພັດທະນາ	-12343
▁Institute	-12344
▁ແຕ່ວ່າມັນ	-12345
▁ໃນວັນເສົາ	-12346
ພື້ນຖານແລ້ວ	-12347
▁Enterprise	-12348
▁insulation	-12349
▁ໃນວັນພະຫັດ	-12350
ຜົນບັງຄັບໃຊ້	-12351
ໃນເບື້ອງຕົ້ນ	-12352
ໃຫ້ຄໍາແນະນໍາ	-12353
▁Application	-12354
▁ຫໍສັງເກດການ	-12355
▁ແຮງດັນໄຟຟ້າ	-12356
ຂອງອຸດສາຫະກໍາ	-12357
ຫຼີ້ນການພະນັນ	-12358
ເຂົ້າສູ່ລະບົບ	-12359
ເສຍສະຫຼະຊີວິດ	-12360
ໂລກລະບາດໂຄວິດ	-12361
▁ຄວາມເຂັ້ມແຂງ	-12362
▁ໃນເວລາດຽວກັນ	-12363
▁Sihanoukville	-12364
▁ນອກເຫນືອຈາກການ	-12365
%;	-12366
GL	-12367
TH	-12368
tr	-12369
ui	-12370
zi	-12371
-08	-12372
.38	-12373
/10	-12374
COM	-12375
Man	-12376
OMO	-12377
ivo	-12378
ref	-12379
ປາມ	-12380
ປີ້	-12381
ວກາ	-12382
ຮາວ	-12383
ຼາມ	-12384
ແທດ	-12385
▁(+	-12386
▁-.	-12387
▁53	-12388
▁73	-12389
▁CT	-12390
▁Vo	-12391
▁ab	-12392
▁gu	-12393
▁ງູ	-12394
▁ບະ	-12395
9001	-12396
bank	-12397
jing	-12398
omes	-12399
oung	-12400
phor	-12401
qiao	-12402
ries	-12403
ຊີວາ	-12404
ວກກີ	-12405
ຽນມາ	-12406
ເຊັກ	-12407
ເບີ້	-12408
ແອັນ	-12409
▁(2,	-12410
▁(20	-12411
▁(40	-12412
▁195	-12413
▁2.8	-12414
▁316	-12415
▁Cre	-12416
▁Gir	-12417
▁HIV	-12418
▁HKD	-12419
▁PLN	-12420
▁Rog	-12421
▁pay	-12422
▁ult	-12423
▁ຄາງ	-12424
▁ຊູນ	-12425
▁ດວກ	-12426
▁ດ່າ	-12427
▁ນອງ	-12428
▁ຢຽບ	-12429
▁ວານ	-12430
▁ອຽງ	-12431
▁ເລີ	-12432
▁ເວດ	-12433
aking	-12434
atory	-12435
aylor	-12436
lines	-12437
ກໍໄດ້	-12438
ຄົນໃນ	-12439
ຊຽງໄຮ	-12440
ນໍາໄປ	-12441
ປະຖໍາ	-12442
ພາສິດ	-12443
ວິວັດ	-12444
ສະຫມີ	-12445
ສຸດທິ	-12446
ອົດສະ	-12447
ເຍື່ອ	-12448
ເບີຍູ	-12449
ແປກໃຈ	-12450
ໂຕຕາຍ	-12451
▁More	-12452
▁Pipe	-12453
▁cent	-12454
▁hard	-12455
▁ກ່ວາ	-12456
▁ປຸ່ນ	-12457
▁ຝ້າຍ	-12458
▁ຫວຽດ	-12459
▁ຫຼ້າ	-12460
▁ເມືອ	-12461
▁ເສິກ	-12462
angers	-12463
ຖືຫຸ້ນ	-12464
ທີ່ມັກ	-12465
ນີ້ຖືກ	-12466
ຝັງດິນ	-12467
ຝ່າຝືນ	-12468
ມອບໃຫ້	-12469
ມື້ນັບ	-12470
ຢຸດການ	-12471
ສຸດຂອງ	-12472
ຫ້າຄົນ	-12473
ອິຕາລີ	-12474
ເພດຍິງ	-12475
▁Brown	-12476
▁Chips	-12477
▁Color	-12478
▁Piece	-12479
▁Royal	-12480
▁Space	-12481
▁Tread	-12482
▁elect	-12483
▁shopp	-12484
▁ຫນ່າຍ	-12485
▁ອິດສາ	-12486
ຍຸຕິທໍາ	-12487
ທີ່ສົ່ງ	-12488
ທົ່ວທຸກ	-12489
ປາຖະຫນາ	-12490
ປ່ອຍໃຫ້	-12491
ຢູ່ຂ້າງ	-12492
ລາມິເຕີ	-12493
ລົດໃຫຍ່	-12494
ວຸ້ນວາຍ	-12495
ສິ່ງຂອງ	-12496
ອານຸລັກ	-12497
ອີກແລ້ວ	-12498
ເທັດຈິງ	-12499
ເປີເຊັນ	-12500
ເລບານອນ	-12501
ແຈ້ງການ	-12502
ໂຊມາເລຍ	-12503
▁(2013)	-12504
▁Linked	-12505
▁Nickel	-12506
▁Pocket	-12507
▁ຟື້ນຟູ	-12508
▁ສະຫຼາດ	-12509
▁ເປັນຕາ	-12510
▁ໂດຍກົງ	-12511
essenger	-12512
ipitator	-12513
perature	-12514
ທີ່ອາດຈະ	-12515
ລັກພາຕົວ	-12516
ຫຼາຍຂື້ນ	-12517
ແຫ່ງຄວາມ	-12518
ໃນຂອບເຂດ	-12519
ໃບຄ້າຍຄື	-12520
▁Eyelash	-12521
▁Midwest	-12522
▁Molding	-12523
▁Olympic	-12524
▁Premium	-12525
▁Unthank	-12526
▁ກັນນັ້ນ	-12527
▁ການສົ່ງ	-12528
▁ຄວາມຈິງ	-12529
▁ດັດຊະນີ	-12530
▁ນອກນັ້ນ	-12531
▁ຫລັກຖານ	-12532
▁ອາບນ້ໍາ	-12533
▁ເກົາຫລີ	-12534
▁ເຕົາອົບ	-12535
▁ໂດຍຜ່ານ	-12536
ຂໍ້ຈໍາກັດ	-12537
ຄໍາຕັດສິນ	-12538
ຜູ້ທີ່ໄດ້	-12539
ພາກໃຕ້ຂອງ	-12540
ລົດບັນທຸກ	-12541
ສ່ວນຫນຶ່ງ	-12542
ີດັ່ງກ່າວ	-12543
ເຂົ້າມາໃນ	-12544
ແລະໄດ້ຮັບ	-12545
ໄດ້ຮັບຮອງ	-12546
▁ລະບົບການ	-12547
▁ເອີ້ນວ່າ	-12548
▁ໃນວັນຈັນ	-12549
▁ໄດ້ເວົ້າ	-12550
ທີ່ເກີດເຫດ	-12551
ປະຕິກິລິຍາ	-12552
ຢູ່ຫວຽດນາມ	-12553
ວິທີການທີ່	-12554
ຫລາຍພັນຄົນ	-12555
ເຂົ້າໃນການ	-12556
ເຄິ່ງຫນຶ່ງ	-12557
▁Hydraulic	-12558
▁Precision	-12559
▁ຂໍ້ສະເຫນີ	-12560
▁ຖານຂໍ້ມູນ	-12561
▁ນະຄອນຫຼວງ	-12562
▁ຜູ້ໂດຍສານ	-12563
ກຸ່ມບໍລິສັດ	-12564
ບັນດາອົງການ	-12565
ປົກກະຕິແລ້ວ	-12566
ເສດຖະກິດໂລກ	-12567
▁Downloader	-12568
▁ຂໍ້ກໍາຫນົດ	-12569
▁ຜູ້ຕາງຫນ້າ	-12570
▁ສະພາບອາກາດ	-12571
▁ອະນຸຍາດໃຫ້	-12572
▁ໄດ້ປະຕິເສດ	-12573
ຂອງເຄື່ອງຈັກ	-12574
ຢ່າງເຕັມສ່ວນ	-12575
ໃນລະຫວ່າງການ	-12576
ໄດ້ລາຍງານວ່າ	-12577
▁ສະມາຊິກສະພາ	-12578
▁ອຸປະກອນເສີມ	-12579
ແລະອຸດສາຫະກໍາ	-12580
▁ການນໍາສະເຫນີ	-12581
▁ໂທຣຫາພວກເຮົາ	-12582
ທາງສ່ວນຫນ້າຂອງ	-12583
ເພື່ອຕອບສະຫນອງ	-12584
▁ແຕ່ຂ້າພະເຈົ້າ	-12585
ພັດທະນາເສດຖະກິດ	-12586
▁tattoostattoos	-12587
CA	-12588
EE	-12589
EI	-12590
ci	-12591
ds	-12592
pi	-12593
yu	-12594
ທູ	-12595
ອລ	-12596
.20	-12597
Des	-12598
ely	-12599
fil	-12600
oul	-12601
rim	-12602
sss	-12603
ຊຽມ	-12604
ຟາກ	-12605
ຼິກ	-12606
ເຊດ	-12607
ໂງ່	-12608
ໂຍກ	-12609
▁+1	-12610
▁4)	-12611
▁BO	-12612
▁IS	-12613
▁MD	-12614
▁ip	-12615
▁pr	-12616
▁ຊໍ	-12617
1390	-12618
chor	-12619
grad	-12620
hane	-12621
heng	-12622
ning	-12623
oven	-12624
prop	-12625
tain	-12626
word	-12627
ຫນຽວ	-12628
ຫລົງ	-12629
ະລູກ	-12630
ເຣັນ	-12631
ແກຣມ	-12632
ໃກ້ໆ	-12633
ໆກັນ	-12634
▁(3)	-12635
▁0.7	-12636
▁225	-12637
▁Ann	-12638
▁But	-12639
▁CRM	-12640
▁Ret	-12641
▁SAP	-12642
▁Tro	-12643
▁UAE	-12644
▁alt	-12645
▁cap	-12646
▁cur	-12647
▁sim	-12648
▁ຄາຍ	-12649
▁ນົມ	-12650
▁ຣົບ	-12651
▁ລິມ	-12652
▁ຮັງ	-12653
▁ຮິວ	-12654
▁ເບຍ	-12655
▁ເບນ	-12656
▁ແຄນ	-12657
9001:	-12658
etter	-12659
istan	-12660
netic	-12661
urich	-12662
ຍຸດຕິ	-12663
ຕອບສະ	-12664
ທຸກໍາ	-12665
ບລັອກ	-12666
ປະພຶດ	-12667
ມາກັບ	-12668
ລະຍຸດ	-12669
ຫ່ວາງ	-12670
ໂຄຈອນ	-12671
▁....	-12672
▁Bulk	-12673
▁Cond	-12674
▁Corn	-12675
▁Food	-12676
▁From	-12677
▁Lead	-12678
▁Spin	-12679
▁disc	-12680
▁ກະແສ	-12681
▁ຄວັນ	-12682
▁ຊ້າງ	-12683
▁ມະດາ	-12684
▁ຣັ່ງ	-12685
▁ເນັດ	-12686
▁ເລັງ	-12687
ຈິງຈັງ	-12688
ຕິດຄຸກ	-12689
ທາງລົບ	-12690
ທີ່ນາງ	-12691
ຜົນຂອງ	-12692
ມາແລ້ວ	-12693
ຢູ່ລອດ	-12694
ລວມຖືງ	-12695
ົ້ານີ້	-12696
ເຫລົ່າ	-12697
ໄປແລ້ວ	-12698
ໄຮ້ສາຍ	-12699
▁2005.	-12700
▁Neuro	-12701
▁Point	-12702
▁Shell	-12703
▁Smith	-12704
▁Tower	-12705
▁black	-12706
▁ກະດານ	-12707
▁ກະບົດ	-12708
▁ຕົກໃຈ	-12709
▁ຖືວ່າ	-12710
▁ລາວຈະ	-12711
▁ວິບັດ	-12712
▁ສຸຂຸມ	-12713
▁ໃນພາກ	-12714
itioner	-12715
parator	-12716
ຂາຍສົ່ງ	-12717
ຄິດເຖິງ	-12718
ຈະເລີ່ມ	-12719
ຈົນກ່ວາ	-12720
ດາວເຄາະ	-12721
ຕ່າງຊາດ	-12722
ທາງທະເລ	-12723
ບັນເທົາ	-12724
ມະຫາກໍາ	-12725
ຮົ່ວໄຫຼ	-12726
ຮຽບຮ້ອຍ	-12727
າວັກຊີນ	-12728
ເຈລະຈາກ	-12729
▁Darius	-12730
▁Oracle	-12731
▁Robert	-12732
▁Roller	-12733
▁Suzuki	-12734
▁ມານັ້ນ	-12735
▁ລິດເດດ	-12736
▁ວັນຈັນ	-12737
▁ຫາດຊາຍ	-12738
▁ເກມອອນ	-12739
▁ເມື່ອນ	-12740
▁ໂດຍໃຊ້	-12741
▁ໃນຄວາມ	-12742
ຄຸ້ນເຄີຍ	-12743
ສາມາດຖືກ	-12744
ຫນ້ອຍລົງ	-12745
ຫລີກລ້ຽງ	-12746
ຮັກສາການ	-12747
ີມສະຫລອງ	-12748
ໃຊ້ໄຟຟ້າ	-12749
ໃນໂຮງຮຽນ	-12750
▁Belmont	-12751
▁Crystal	-12752
▁Pacific	-12753
▁ຂີ້ຝຸ່ນ	-12754
▁ຄລາສສິກ	-12755
▁ຖ້ອຍຄໍາ	-12756
▁ທົ່ວໂລກ	-12757
▁ປັບແຕ່ງ	-12758
▁ລຸກຂຶ້ນ	-12759
▁ເງິນສົດ	-12760
▁ເບິ່ງຄື	-12761
▁ເພື່ອຈະ	-12762
▁ໄດ້ເປີດ	-12763
ຂອງນັກຮຽນ	-12764
ຂ້າຕົວຕາຍ	-12765
ຂໍ້ມູນຈາກ	-12766
ຈິດວິນຍານ	-12767
ທີ່ມີອາຍຸ	-12768
ມາຢ້ຽມຢາມ	-12769
ຢູ່ໃນຫ້ອງ	-12770
ຫົວຮຸນແຮງ	-12771
າມາດຕະຖານ	-12772
ເພື່ອນມິດ	-12773
ເພື່ອເຮັດ	-12774
ໃນວັນເສົາ	-12775
▁Landmark	-12776
▁ກົດລະບຽບ	-12777
▁ກ໊ອກນ້ໍາ	-12778
▁ຄາວາຊາກິ	-12779
▁ຢາເສບຕິດ	-12780
ຂ້ອຍຄິດວ່າ	-12781
ຊ່ວຍເຫຼືອບ	-12782
ລະບາຍອາກາດ	-12783
ສິດທິໃນການ	-12784
ເພື່ອແນໃສ່	-12785
ແຕກຕ່າງຈາກ	-12786
▁Generator	-12787
▁ທີ່ກໍາລັງ	-12788
▁ທີ່ມີຄວາມ	-12789
▁ສົມທົບກັບ	-12790
▁ອຸປະຕິເຫດ	-12791
▁ເຈົ້າຕ້ອງ	-12792
▁ເດືອນຕຸລາ	-12793
▁ເດືອນເມສາ	-12794
ຄໍາສັບຕ່າງໆ	-12795
ທີ່ມີຄຸນຄ່າ	-12796
ທີ່ໂດດເດັ່ນ	-12797
ປັ້ນດິນເຜົາ	-12798
ແຂກທ່ອງທ່ຽວ	-12799
ແລະສະຖານທີ່	-12800
ໃນການທົດລອງ	-12801
▁fiberglass	-12802
ລາຍລັກອັກສອນ	-12803
ສາມາດເຮັດໃຫ້	-12804
ອອກກໍາລັງກາຍ	-12805
▁ຄວາມແຕກຕ່າງ	-12806
▁ບັນຊີລາຍຊື່	-12807
▁ຫງວນລິຂະສິດ	-12808
ກໍາຈັດຂີ້ຝຸ່ນ	-12809
ຂອງການເຮັດວຽກ	-12810
ຢູ່ໃນສະຖານທີ່	-12811
ກົດຫມາຍວ່າດ້ວຍ	-12812
ທີ່ຈະໄດ້ຮັບການ	-12813
ສໍາລັບຈຸດປະສົງ	-12814
▁ເນື່ອງໃນໂອກາດ	-12815
▁ແມ່ນໄດ້ຮັບການ	-12816
▁ເປັນຄັ້ງທໍາອິດ	-12817
ກັບຈຸດຫມາຍປາຍທາງ	-12818
LA	-12819
da	-12820
ga	-12821
hr	-12822
nh	-12823
xi	-12824
ຈູ	-12825
ສູ	-12826
ັ້	-12827
ແດ	-12828
ໄຄ	-12829
.09	-12830
.14	-12831
.95	-12832
120	-12833
180	-12834
IFA	-12835
PDF	-12836
bow	-12837
ech	-12838
eda	-12839
era	-12840
jie	-12841
rem	-12842
tot	-12843
ກຸນ	-12844
ຈົງ	-12845
ດືງ	-12846
ຕຸນ	-12847
ນິງ	-12848
ນີ່	-12849
ັອດ	-12850
ເຟດ	-12851
ເຫງ	-12852
ແພ່	-12853
ໂຊມ	-12854
ໂຟມ	-12855
ໄລກ	-12856
▁("	-12857
▁7.	-12858
▁AW	-12859
▁MO	-12860
▁cr	-12861
▁fo	-12862
▁nh	-12863
▁ov	-12864
▁ຕົ	-12865
▁ອງ	-12866
▁ຮີ	-12867
2000	-12868
acqu	-12869
base	-12870
ices	-12871
orld	-12872
stan	-12873
uses	-12874
well	-12875
ຫນ່ຽ	-12876
ຫຼືອ	-12877
ເລັບ	-12878
▁-10	-12879
▁2.2	-12880
▁21:	-12881
▁80%	-12882
▁Bal	-12883
▁Bor	-12884
▁Cut	-12885
▁Dry	-12886
▁EVA	-12887
▁Gab	-12888
▁ILS	-12889
▁Los	-12890
▁MYR	-12891
▁Mil	-12892
▁RUB	-12893
▁Rec	-12894
▁Wen	-12895
▁lin	-12896
▁ຄິວ	-12897
▁ຊອນ	-12898
▁ຕິກ	-12899
▁ປຽກ	-12900
▁ມອດ	-12901
▁ມົງ	-12902
▁ຫຍາ	-12903
▁ອັລ	-12904
▁ຮຽບ	-12905
▁ເຟີ	-12906
▁ແຊນ	-12907
▁ແຖບ	-12908
▁ໂກນ	-12909
▁ໂຫດ	-12910
▁ໄຊ້	-12911
iforn	-12912
ished	-12913
ising	-12914
itian	-12915
sssss	-12916
ກະດາດ	-12917
ບາດແຜ	-12918
ສີ່ປີ	-12919
ຶນາມິ	-12920
ເຜິ້ງ	-12921
ເມດຕາ	-12922
ໃນກຸງ	-12923
▁1960	-12924
▁CSGO	-12925
▁Core	-12926
▁Data	-12927
▁Fest	-12928
▁Note	-12929
▁PayP	-12930
▁Vict	-12931
▁ກວາດ	-12932
▁ກິໂລ	-12933
▁ປຸ້ນ	-12934
▁ຫລໍ່	-12935
▁ຫຼົງ	-12936
▁ເນີດ	-12937
▁ເຝິກ	-12938
actory	-12939
ewater	-12940
osting	-12941
ການສັນ	-12942
ການສຸກ	-12943
ຂະຫນານ	-12944
ຊໍານານ	-12945
ດວງຈັນ	-12946
ຕົວລາວ	-12947
ທີ່ຄົນ	-12948
ທີ່ຜິດ	-12949
ທີ່ອອກ	-12950
ທໍາງານ	-12951
ປີເກີດ	-12952
ສົມດຸນ	-12953
ອາຍພິດ	-12954
ເສື້ອຍ	-12955
ໂດຍນັກ	-12956
▁5,000	-12957
▁Autom	-12958
▁Ether	-12959
▁Ocean	-12960
▁Parad	-12961
▁Sales	-12962
▁Scott	-12963
▁Shirt	-12964
▁ຕະກໍາ	-12965
▁ນາຍົກ	-12966
▁ປັດໄຈ	-12967
▁ປີເຕີ	-12968
▁ເພີ້ມ	-12969
▁ໃນມື້	-12970
ifornia	-12971
ຖ່ອມຕົວ	-12972
ປັກກິ່ງ	-12973
ປິດກັ້ນ	-12974
ພ້ອມກັນ	-12975
ລວມເອົາ	-12976
ສອບເສັງ	-12977
ອາດເປັນ	-12978
▁Friend	-12979
▁Sponge	-12980
▁ຂອງຕົນ	-12981
▁ຊື່ສຽງ	-12982
▁ດີກວ່າ	-12983
▁ບັນຍັດ	-12984
▁ວິທະຍາ	-12985
▁ສະຫຼອງ	-12986
▁ສີມ່ວງ	-12987
▁ແບບຟອມ	-12988
ຄົວເຮືອນ	-12989
ຈັດກະຈາຍ	-12990
ຈາກເມືອງ	-12991
ຜົນກໍາໄລ	-12992
ພວກເຈົ້າ	-12993
ມີບົດບາດ	-12994
ຫນ່ຽວນໍາ	-12995
ຫມາຍເຖິງ	-12996
ເງິນເຟີ້	-12997
ເຊັ່ນນີ້	-12998
ເຫຼັກກ້າ	-12999
▁Control	-13000
▁Textile	-13001
▁ຕ່າງໆໃນ	-13002
▁ທ່ານຄວນ	-13003
▁ທ່ານຮູ້	-13004
▁ພັນລະຍາ	-13005
▁ລາຄາຖືກ	-13006
▁ອຸປະສັກ	-13007
ingdirect	-13008
ການຄົ້ນຫາ	-13009
ຂອງຕະຫຼາດ	-13010
ຂອງແມ່ຍິງ	-13011
ຊ່ວຍຊີວິດ	-13012
ຕະຫຼາດນັດ	-13013
ມຸ່ງຫມັ້ນ	-13014
ລະຫັດຜ່ານ	-13015
ລົ້ມລະລາຍ	-13016
ສະກັດກັ້ນ	-13017
ສາມາດສ້າງ	-13018
ອັດສະລິຍະ	-13019
ເຊື້ອເຊີນ	-13020
ເມື່ອທ່ານ	-13021
ໃນຕອນທ້າຍ	-13022
່ຽວກັບການ	-13023
▁Exchange	-13024
▁ຊອບແວທີ່	-13025
▁ພຶດຕິກໍາ	-13026
▁ວັນອາທິດ	-13027
ຕໍ່ຊົ່ວໂມງ	-13028
ຕໍ່ຕ້ານການ	-13029
ບາງສ່ວນຂອງ	-13030
ໃນເວລານັ້ນ	-13031
▁Christian	-13032
▁ການກວດສອບ	-13033
▁ຍັງບໍ່ທັນ	-13034
▁ຕາເວັນຕົກ	-13035
▁ສະກຸນເງິນ	-13036
▁ສ່ວນປະກອບ	-13037
▁ເຂົ້າຫນົມ	-13038
ດ້ານສຸຂະພາບ	-13039
ທີ່ຈະນໍາໃຊ້	-13040
ສວນສາທາລະນະ	-13041
ເດືອນປີເກີດ	-13042
ເປັນຫນຶ່ງໃນ	-13043
ເພື່ອປັບປຸງ	-13044
ແຮງບັນດານໃຈ	-13045
▁California	-13046
▁Electronic	-13047
▁ການຕັ້ງຄ່າ	-13048
▁ຊື່ຂອງທ່ານ	-13049
▁ດໍາເນີນການ	-13050
▁ແລະເຮັດໃຫ້	-13051
ຕາເວັນອອກສຽງ	-13052
ສະຫະພາບຍຸໂຣບ	-13053
ຫວັງວ່າຈະໄດ້	-13054
ເປັນເຈົ້າພາບ	-13055
ແລະຜູ້ສະຫນອງ	-13056
▁Dariussssss	-13057
▁ຈະເປັນແນວໃດ	-13058
ຂອງບັນດາປະເທດ	-13059
ພວກເຮົາກໍາລັງ	-13060
ແລະຂ້າພະເຈົ້າ	-13061
▁ການຊ່ວຍເຫຼືອ	-13062
▁ບໍ່ວ່າຈະເປັນ	-13063
▁ຜູ້ເຂົ້າຮ່ວມ	-13064
ກໍ່ຕັ້ງຂຶ້ນໃນປີ	-13065
ທີ່ມີຄຸນະພາບສູງ	-13066
ສ່ວນບຸກຄົນທີ່ມີ	-13067
6.	-13068
HE	-13069
PH	-13070
bi	-13071
iC	-13072
ຂີ	-13073
-17	-13074
/12	-13075
101	-13076
350	-13077
40)	-13078
Box	-13079
MPa	-13080
fit	-13081
iac	-13082
ima	-13083
ona	-13084
quo	-13085
ຄີມ	-13086
ຊີ່	-13087
ຕູດ	-13088
ຟານ	-13089
ມວຍ	-13090
ມອດ	-13091
ມົດ	-13092
ຢຸງ	-13093
ລຶບ	-13094
ວ່ງ	-13095
ອຶດ	-13096
ຮຸກ	-13097
ູບາ	-13098
ເມກ	-13099
ແມກ	-13100
ແລ້	-13101
ແອດ	-13102
ໂດນ	-13103
▁++	-13104
▁3/	-13105
▁77	-13106
▁81	-13107
▁JB	-13108
▁KT	-13109
▁RE	-13110
▁ນ້	-13111
▁ຣູ	-13112
▁ໄຍ	-13113
..."	-13114
Sets	-13115
enan	-13116
etty	-13117
flon	-13118
iana	-13119
icon	-13120
list	-13121
oday	-13122
rier	-13123
xing	-13124
ກ໊າດ	-13125
ທຸລະ	-13126
ປະດາ	-13127
ັນດາ	-13128
ແອັບ	-13129
▁1.8	-13130
▁108	-13131
▁16:	-13132
▁ATV	-13133
▁BRL	-13134
▁CZK	-13135
▁DKK	-13136
▁Fin	-13137
▁Ger	-13138
▁HUF	-13139
▁MXN	-13140
▁SGD	-13141
▁TWD	-13142
▁Tit	-13143
▁Wil	-13144
▁aut	-13145
▁bro	-13146
▁new	-13147
▁she	-13148
▁ກາກ	-13149
▁ຈອມ	-13150
▁ຈູງ	-13151
▁ດົມ	-13152
▁ຫໍ່	-13153
▁ເຮີ	-13154
▁ແຊກ	-13155
2.168	-13156
ATION	-13157
ander	-13158
atuit	-13159
eller	-13160
ellow	-13161
ollow	-13162
ylene	-13163
ຊີເຣຍ	-13164
ນະວັດ	-13165
ປະນາມ	-13166
ປະມົງ	-13167
ສະມຸດ	-13168
ອິຣານ	-13169
ເດືອດ	-13170
ເບື່ອ	-13171
ແກະສະ	-13172
ໃນເກມ	-13173
▁Auto	-13174
▁Cook	-13175
▁Full	-13176
▁Lace	-13177
▁Mesh	-13178
▁Para	-13179
▁Reed	-13180
▁Saga	-13181
▁Tail	-13182
▁matt	-13183
▁soft	-13184
▁wifi	-13185
▁ຄລິກ	-13186
▁ຊ້າຍ	-13187
▁ທໍລະ	-13188
▁ຫຍາຍ	-13189
▁ຫມອກ	-13190
▁ຫຸ້ມ	-13191
▁ຫຼັບ	-13192
▁ເຕັກ	-13193
▁ໂນ້ມ	-13194
ickets	-13195
iscuit	-13196
ubarak	-13197
ກັກຂັງ	-13198
ຄືນນີ້	-13199
ຈຸດນີ້	-13200
ຍູ້ແຮງ	-13201
ຍົນມິດ	-13202
ທີ່ສູນ	-13203
ທີ່ຮັກ	-13204
ພາກລັດ	-13205
ຟິລິກາ	-13206
ວັກຊີນ	-13207
ວັນທີ່	-13208
ສິບຄົນ	-13209
ເຮົາຈະ	-13210
ແຮ່ທາດ	-13211
ໃຈຮ້າຍ	-13212
ໃນລາຄາ	-13213
ໃບຫນ້າ	-13214
ໄດ້ບອກ	-13215
່າວກັບ	-13216
ໍານັ້ນ	-13217
▁2015)	-13218
▁Cable	-13219
▁Intel	-13220
▁crack	-13221
▁ກໍໄດ້	-13222
▁ຊຽງໄຮ	-13223
▁ແຕ່ມີ	-13224
tattoos	-13225
ກັບບ້ານ	-13226
ຂະນະນີ້	-13227
ດັບເພິງ	-13228
ດາວໂຫຼດ	-13229
ທີ່ນັ່ງ	-13230
ນໍາເອົາ	-13231
ພລາສຕິກ	-13232
ພ່າຍແພ້	-13233
ສື່ຂ່າວ	-13234
ສໍາເນົາ	-13235
ເອົາມັນ	-13236
ແຖວຫນ້າ	-13237
ໂຣມາເນຍ	-13238
▁20,000	-13239
▁PayPal	-13240
▁Review	-13241
▁School	-13242
▁Tester	-13243
▁Zurich	-13244
▁ຄິດວ່າ	-13245
▁ຄ່າໄຖ່	-13246
▁ຍົກສູງ	-13247
▁ທໍານຽມ	-13248
▁ພໍ່ແມ່	-13249
▁ຢູ່ທາງ	-13250
▁ລູກສາວ	-13251
▁ສະຫງວນ	-13252
▁ສໍາພາດ	-13253
▁ອົງກອນ	-13254
▁ໄດ້ຈັດ	-13255
.05.2018	-13256
ຄວາມເຫັນ	-13257
ຄາດຕະກໍາ	-13258
ຊີວິດຂອງ	-13259
ທຽບເທົ່າ	-13260
ທ່ອງເວັບ	-13261
ປະເທດທີ່	-13262
ຮັບມືກັບ	-13263
▁Display	-13264
▁ຂົນສົ່ງ	-13265
▁ທ່ານບໍ່	-13266
▁ທໍາຮ້າຍ	-13267
▁ສັ່ງສອນ	-13268
▁ເພິ່ນຈະ	-13269
ການຕໍ່ສູ້	-13270
ຕົວຊີ້ວັດ	-13271
ລາຍງານຂອງ	-13272
ວ່າການລັດ	-13273
ສິ່ງທີ່ດີ	-13274
ເຂົ້າຫນົມ	-13275
ເຊັ່ນນັ້ນ	-13276
ໂຄງການນີ້	-13277
ໃນແຕ່ລະປີ	-13278
ໃຫ້ຮູ້ວ່າ	-13279
▁Paradise	-13280
▁Printing	-13281
▁ປະເພດຂອງ	-13282
▁ໃນຂອບເຂດ	-13283
ທຸກທໍລະມານ	-13284
ປະເທດອື່ນໆ	-13285
ຢັ້ງຢືນວ່າ	-13286
ສະບຽງອາຫານ	-13287
ສູນບໍລິການ	-13288
ຫາດັ່ງກ່າວ	-13289
▁ການປະທ້ວງ	-13290
▁ຕອບສະຫນອງ	-13291
▁ຕາລາງແມັດ	-13292
▁ຕື່ນເຕັ້ນ	-13293
▁ລາວໄດ້ຖືກ	-13294
▁ເຊື່ອມຕໍ່	-13295
▁ໂລຫະປະສົມ	-13296
ຂ້າງລຸ່ມນີ້	-13297
ພວກເຮົາຕ້ອງ	-13298
▁ການສໍາຫຼວດ	-13299
▁ຂອງພວກເຂົາ	-13300
▁ພົນລະເມືອງ	-13301
ລະບົບຕ່ອງໂສ້	-13302
ສະພາບອາກາດໃນ	-13303
ສໍາລັບລູກຄ້າ	-13304
▁ການສະກົດຈິດ	-13305
▁ນັ້ນແມ່ນການ	-13306
▁ນ້ໍາຫນັກຂອງ	-13307
▁ປົກປັກຮັກສາ	-13308
▁ອຸດົມສົມບູນ	-13309
▁ແມ່ນຖືກຕ້ອງ	-13310
ທີ່ຜິດກົດຫມາຍ	-13311
ສັດລ້ຽງຍົນມິດ	-13312
ແລະການປະຕິບັດ	-13313
▁ເຄື່ອງສໍາອາງ	-13314
▁ເພື່ອເຮັດໃຫ້	-13315
ທາງດ້ານກົດຫມາຍ	-13316
▁Electrostatic	-13317
▁shoppingdirect	-13318
ທີ່ຫນ້າຕື່ນເຕັ້ນ	-13319
97	-13320
??	-13321
PT	-13322
RH	-13323
ດຣ	-13324
ແຝ	-13325
▁!	-13326
.12	-13327
122	-13328
30,	-13329
ACH	-13330
Pir	-13331
afu	-13332
cil	-13333
fin	-13334
ien	-13335
ito	-13336
pez	-13337
pha	-13338
rib	-13339
urs	-13340
uxi	-13341
win	-13342
ຕຶງ	-13343
ຕຽມ	-13344
ບ່າ	-13345
ຟລີ	-13346
ລຽງ	-13347
ຫົດ	-13348
ອີດ	-13349
ັອນ	-13350
ເທບ	-13351
ແວນ	-13352
▁74	-13353
▁Av	-13354
▁Ep	-13355
▁GU	-13356
▁SW	-13357
▁TN	-13358
▁ZM	-13359
▁me	-13360
▁ອູ	-13361
0000	-13362
ache	-13363
alth	-13364
cted	-13365
enny	-13366
ison	-13367
rink	-13368
ugby	-13369
ຄຣີດ	-13370
ດ້າຍ	-13371
ບ້ວງ	-13372
ມິຕິ	-13373
ລະກີ	-13374
ລ້ຽມ	-13375
ຫລຽວ	-13376
ເຊີງ	-13377
່ນີ້	-13378
▁(30	-13379
▁123	-13380
▁15:	-13381
▁22:	-13382
▁AST	-13383
▁Bad	-13384
▁Bld	-13385
▁Dar	-13386
▁SEA	-13387
▁Ske	-13388
▁Tel	-13389
▁Tex	-13390
▁Yam	-13391
▁all	-13392
▁bit	-13393
▁mar	-13394
▁sec	-13395
▁ski	-13396
▁top	-13397
▁ຄາບ	-13398
▁ຊາມ	-13399
▁ບຣາ	-13400
▁ວີດ	-13401
▁ຫາບ	-13402
▁ຮານ	-13403
▁ເພຍ	-13404
▁ແທງ	-13405
entai	-13406
ibbon	-13407
pport	-13408
ທີສີ່	-13409
ທີ່ສະ	-13410
ນິເວດ	-13411
ພາກັນ	-13412
ພຸດທະ	-13413
ມີຢູ່	-13414
ຫມ້າຍ	-13415
ຫລີ້ນ	-13416
ເຮືອງ	-13417
ໃສ່ໃນ	-13418
ໃຫມ່ໆ	-13419
ໍານີ້	-13420
▁Coca	-13421
▁Cord	-13422
▁Film	-13423
▁Guan	-13424
▁Mail	-13425
▁Sign	-13426
▁Teen	-13427
▁Wash	-13428
▁Watt	-13429
▁Weld	-13430
▁dust	-13431
▁live	-13432
▁park	-13433
▁whit	-13434
▁ຊີ້ນ	-13435
▁ຫມຸນ	-13436
▁ຫມົກ	-13437
▁ຫລວດ	-13438
▁ເມົາ	-13439
▁ເອີຍ	-13440
hereum	-13441
ington	-13442
ources	-13443
ການສູບ	-13444
ຂອງເຂດ	-13445
ປະຖິ້ມ	-13446
ປ່າໄມ້	-13447
ພິມໄດ້	-13448
ມົນທົນ	-13449
ລູກປືນ	-13450
ເພດຊາຍ	-13451
ເມື່ອຍ	-13452
ໃຫ້ລາວ	-13453
▁Louis	-13454
▁Villa	-13455
▁Wuhan	-13456
▁ກະຕ່າ	-13457
▁ບລັອກ	-13458
▁ບຸລຸດ	-13459
▁ເຊື່ງ	-13460
ທ່າເຮືອ	-13461
ຜ່ານທາງ	-13462
ມື້ນັ້ນ	-13463
ສອງຝ່າຍ	-13464
ຮ້ານຄ້າ	-13465
ເຈັດຄົນ	-13466
ໂຍກຍ້າຍ	-13467
ໄລຍະທາງ	-13468
▁(2014)	-13469
▁Motors	-13470
▁Player	-13471
▁Soccer	-13472
▁Studio	-13473
▁Zipper	-13474
▁equine	-13475
▁ຄົນຈາກ	-13476
▁ຍາກຈົນ	-13477
▁ບໍ່ວ່າ	-13478
▁ຢ່າງໃດ	-13479
▁ຢ່າລືມ	-13480
▁ວົງຈອນ	-13481
▁ວ່າບໍ່	-13482
▁ອີກວ່າ	-13483
▁ອໍານວຍ	-13484
▁ເຂົາຈະ	-13485
▁ໂດຍລວມ	-13486
▁ໂມງແລງ	-13487
ຂ້າໂຕຕາຍ	-13488
ຄົນພິການ	-13489
ທີ່ເຈົ້າ	-13490
ບ້ານເກີດ	-13491
ພູມມິພາກ	-13492
ຢາວັກຊີນ	-13493
ຫັດຖະກໍາ	-13494
ອີກຕໍ່ໄປ	-13495
ເຮັດແຕ້ມ	-13496
ໂຄລໍາເບຍ	-13497
▁Channel	-13498
▁Collect	-13499
▁Dresses	-13500
▁Patrick	-13501
▁spindle	-13502
▁ຄຸ້ມຄອງ	-13503
▁ນໍ້າມັນ	-13504
▁ພັນລະນາ	-13505
▁ສົ່ງອອກ	-13506
▁ໄຕ້ຫວັນ	-13507
ewatering	-13508
ການບັນທຶກ	-13509
ການປຽບທຽບ	-13510
ຂອງລັດເຊຍ	-13511
ຂອງອົງກອນ	-13512
ຈະເປັນການ	-13513
ຍັງບໍ່ໄດ້	-13514
ທຸລະກິດໃນ	-13515
ນັກລົງທຶນ	-13516
ບັດເຄຣດິດ	-13517
ບໍ່ເສຍຄ່າ	-13518
ຜົນສະທ້ອນ	-13519
ມູນລະນິທິ	-13520
ອັດຕາສ່ວນ	-13521
ຮູບແບບຂອງ	-13522
ເປັນພິເສດ	-13523
▁Festival	-13524
▁Shipping	-13525
▁Silicone	-13526
▁Skeleton	-13527
▁Ultimate	-13528
▁ການປະກາດ	-13529
▁ງົບປະມານ	-13530
▁ປາກິສຖານ	-13531
▁ມິດຕະພາບ	-13532
▁ສັນຕິພາບ	-13533
▁ເຖິງຄວາມ	-13534
▁ໃນວັນພຸດ	-13535
ການສຸກເສີນ	-13536
ການແລກປ່ຽນ	-13537
ການໄກ່ເກ່ຍ	-13538
ຢ່າງຊັດເຈນ	-13539
ສາມາດຜະລິດ	-13540
ຫຼັງຈາກທີ່	-13541
ອານຸຍາດໃຫ້	-13542
ເງິນລົງທຶນ	-13543
ເທດສະມົນຕີ	-13544
ແລະວິທີການ	-13545
▁cardboard	-13546
▁ການຮັບຮອງ	-13547
▁ກາລະໂອກາດ	-13548
▁ຂໍ້ກໍານົດ	-13549
▁ຂໍ້ຕົກລົງ	-13550
▁ຜູ້ປະທ້ວງ	-13551
▁ລວມທັງການ	-13552
▁ເມື່ອຂ້ອຍ	-13553
▁ໄດ້ບອກກັບ	-13554
ຈັດຈໍາຫນ່າຍ	-13555
ຈາກລັດຖະບານ	-13556
ຊາວອາເມລິກາ	-13557
ທີ່ບໍ່ມີການ	-13558
ວ່າການກະຊວງ	-13559
▁blockchain	-13560
▁ສະມາຊິກຂອງ	-13561
ຂອງພວກເຮົາໃນ	-13562
ຖົງຂີ້ເຫຍື້ອ	-13563
ສ່ວນທີ່ເຫຼືອ	-13564
ໃນອິນເຕີເນັດ	-13565
▁Corporation	-13566
▁ບັນດາຜູ້ແທນ	-13567
▁ແລະນັ້ນແມ່ນ	-13568
ກົງກັນຂ້າມກັບ	-13569
ຂອງການພັດທະນາ	-13570
ແລະຄ່າໃຊ້ຈ່າຍ	-13571
ໃນເດືອນມັງກອນ	-13572
▁ຖະຫນົນຫົນທາງ	-13573
▁ເນັ້ນຫນັກວ່າ	-13574
ກ່ຽວກັບວິທີການ	-13575
▁ການດໍາເນີນງານ	-13576
▁ຄາສິໂນອອນໄລນ໌	-13577
▁ສໍາລັບເດັກຍິງ	-13578
ທີ່ມີປະສິດທິຜົນ	-13579
▁ດໍາເນີນທຸລະກິດ	-13580
ສະແດງຄວາມຄິດເຫັນ	-13581
,2	-13582
93	-13583
AU	-13584
De	-13585
FA	-13586
GT	-13587
Le	-13588
MN	-13589
OK	-13590
RI	-13591
TY	-13592
cb	-13593
my	-13594
ຄິ	-13595
ຜາ	-13596
ໂຢ	-13597
10)	-13598
ERS	-13599
IDE	-13600
gro	-13601
men	-13602
oir	-13603
rey	-13604
rud	-13605
ule	-13606
ກ່ວ	-13607
ຂຸນ	-13608
ຄວບ	-13609
ຊືມ	-13610
ຕຸຍ	-13611
ຜົງ	-13612
ຝືກ	-13613
ມໍ່	-13614
▁CM	-13615
▁DB	-13616
▁Di	-13617
▁Do	-13618
▁EA	-13619
▁FL	-13620
▁HY	-13621
▁NC	-13622
▁SA	-13623
▁pu	-13624
▁ກຸ	-13625
▁ແດ	-13626
▁ໄຈ	-13627
▁ໄຫ	-13628
Cola	-13629
chun	-13630
html	-13631
ines	-13632
ough	-13633
rane	-13634
ຂວາຍ	-13635
ຊູເອ	-13636
ທ່ຽງ	-13637
ນເລດ	-13638
ລ້ວນ	-13639
ຫນອມ	-13640
ຫມັນ	-13641
ອຟແວ	-13642
ເນລະ	-13643
ເຣັກ	-13644
ເລັມ	-13645
ໃຊ້ນ	-13646
▁121	-13647
▁280	-13648
▁737	-13649
▁777	-13650
▁BCH	-13651
▁Bai	-13652
▁DMC	-13653
▁ECN	-13654
▁GMT	-13655
▁Kar	-13656
▁Lap	-13657
▁Mob	-13658
▁NEW	-13659
▁OFF	-13660
▁Pad	-13661
▁Pvc	-13662
▁Run	-13663
▁Sin	-13664
▁Syn	-13665
▁Tan	-13666
▁Tom	-13667
▁VIP	-13668
▁imp	-13669
▁our	-13670
▁ຊົດ	-13671
▁ດີໆ	-13672
▁ບຽດ	-13673
▁ພໍ້	-13674
▁ລານ	-13675
▁ຫີບ	-13676
▁ເກີ	-13677
▁ໄຂ່	-13678
,000.	-13679
ennis	-13680
hydro	-13681
ptide	-13682
ຝລັ່ງ	-13683
ລັດທະ	-13684
ິນຕັນ	-13685
ເຂົ່າ	-13686
ເທິ່ງ	-13687
ໃນແງ່	-13688
ໄຊແອນ	-13689
▁1950	-13690
▁ASTM	-13691
▁Ball	-13692
▁Bldg	-13693
▁CANN	-13694
▁Chen	-13695
▁Cost	-13696
▁Jiao	-13697
▁Join	-13698
▁Mand	-13699
▁Ping	-13700
▁Rome	-13701
▁Stan	-13702
▁Stop	-13703
▁Tong	-13704
▁view	-13705
▁ປັ໊ມ	-13706
▁ສະກ໊	-13707
▁ຫຍໍ້	-13708
▁ອ່າວ	-13709
▁ເກືອ	-13710
▁ເບັດ	-13711
▁ເບັນ	-13712
▁ເພັດ	-13713
▁ເອັກ	-13714
abolic	-13715
loride	-13716
ການຕັດ	-13717
ການປູກ	-13718
ຂຶ້ນໃນ	-13719
ຄົນຂັບ	-13720
ຊື່ຂອງ	-13721
ຕົວກັນ	-13722
ທີມຊາດ	-13723
ທໍານາຍ	-13724
ປົກຄຸມ	-13725
ອິນເຕີ	-13726
ເຕັມໄປ	-13727
ເສຍດາຍ	-13728
ແບກແດດ	-13729
ແຜນທີ່	-13730
ແລະໃຫ້	-13731
ໂຕຣເຈນ	-13732
ໄນເຕັດ	-13733
▁2014,	-13734
▁Huafu	-13735
▁Jinan	-13736
▁drone	-13737
▁hover	-13738
▁silic	-13739
▁smart	-13740
▁stero	-13741
▁ປະການ	-13742
▁ຫນື່ງ	-13743
▁ເລກທີ	-13744
Pirater	-13745
odegrad	-13746
ຄວາມຍາວ	-13747
ຈາກຄວາມ	-13748
ທຸກໆມື້	-13749
ທ່າມກາງ	-13750
ນິວເຄຣຍ	-13751
ມີບັນຫາ	-13752
ລະບຸໄວ້	-13753
ລະປະທານ	-13754
ວ່ານັ້ນ	-13755
ສັ່ງໃຫ້	-13756
ສານເຄມີ	-13757
ສຸພາສິດ	-13758
ຫລົບຫນີ	-13759
ອຸປະຖໍາ	-13760
ຮູບແຕ້ມ	-13761
ເສັ້ນໄຍ	-13762
ແມ່ນໍ້າ	-13763
▁50,000	-13764
▁Canber	-13765
▁Coffee	-13766
▁Domain	-13767
▁Rabies	-13768
▁Virgin	-13769
▁unlock	-13770
▁wallet	-13771
▁ຊູແອັດ	-13772
▁ນັກຮົບ	-13773
▁ປະເພນີ	-13774
▁ມັນກໍ່	-13775
▁ລາວກໍ່	-13776
▁ລໍາໂພງ	-13777
▁ສະຫຼຸບ	-13778
▁ຫມໍ້ໄຟ	-13779
▁ເຮົາກໍ	-13780
▁ແລະລາວ	-13781
▁ໃນທ້າຍ	-13782
endering	-13783
ກໍາປູເຈຍ	-13784
ທີ່ຈະໃຫ້	-13785
ນິລັນດອນ	-13786
ປະກົດການ	-13787
ຝັ່ງທະເລ	-13788
ມີອໍານາດ	-13789
ລົນນະລົງ	-13790
ເນເທີແລນ	-13791
ແລະບໍ່ມີ	-13792
▁Gratuit	-13793
▁Tianjin	-13794
▁ຂ້ອຍຢາກ	-13795
▁ຄົນອື່ນ	-13796
▁ຕ່ໍາສຸດ	-13797
▁ທ້ອງຟ້າ	-13798
▁ວິກິນິວ	-13799
▁ສະໂມສອນ	-13800
▁ເຄັດລັບ	-13801
▁ເນື້ອໃນ	-13802
▁ແທ້ໆທີ່	-13803
ຂ້ອຍສາມາດ	-13804
ຕິດຕໍ່ກັບ	-13805
ພິພິທະພັນ	-13806
ສົງຄາມໂລກ	-13807
ອັນດັບສອງ	-13808
ແມ້ກະທັ້ງ	-13809
▁Coinbase	-13810
▁Compress	-13811
▁Internet	-13812
▁Machines	-13813
▁download	-13814
▁ethereum	-13815
▁ຄົ້ນຄວ້າ	-13816
▁ຊາວຫນຸ່ມ	-13817
▁ໄດ້ເຂົ້າ	-13818
ການປະຕິວັດ	-13819
ທັງຫມົດທີ່	-13820
ທີ່ກໍາຫນົດ	-13821
ປະຈໍາເດືອນ	-13822
ພາລະບົດບາດ	-13823
ຢູ່ໃນສະພາບ	-13824
ຢ່າງສົມບູນ	-13825
ວ່າດ້ວຍການ	-13826
ສໍາລັບຄວາມ	-13827
ສໍາເລັດຂອງ	-13828
ອິດສະຣາເອນ	-13829
▁ການສູນເສຍ	-13830
▁ຄວາມໄວສູງ	-13831
▁ຢືນຢັນວ່າ	-13832
▁ວັນອັງຄານ	-13833
▁ແມ່ນຢູ່ໃນ	-13834
ifunctional	-13835
odegradable	-13836
ບົບໄຮໂດຼລິກ	-13837
ເພື່ອສະຫນອງ	-13838
▁Genotropin	-13839
▁ກອງທັບເຮືອ	-13840
▁ບ່ອນຈອດລົດ	-13841
▁ບໍລິສັດແລະ	-13842
▁ຜູ້ກໍ່ຕັ້ງ	-13843
▁ໄດ້ກາຍເປັນ	-13844
ການຂະຫຍາຍຕົວ	-13845
ການເກັບຮັກສາ	-13846
ທາງວິທະຍາສາດ	-13847
ເປັນອັນຕະລາຍ	-13848
ໄດ້ເພີ່ມຂຶ້ນ	-13849
▁ແລະການຜະລິດ	-13850
ຢ່າງເລິກເຊິ່ງ	-13851
ເງິນຂອງບັນທຶກ	-13852
ໍລິສັດເຮືອບິນ	-13853
▁testosterone	-13854
▁ກັບຄືນໄປບ່ອນ	-13855
▁ທີ່ຢູ່ຕິດຕໍ່	-13856
▁ເນື່ອງຈາກການ	-13857
ການປິ່ນປົວດ້ວຍ	-13858
ຖືກນໍາໃຊ້ເພື່ອ	-13859
ເຊິ່ງກັນແລະກັນ	-13860
▁ການປົກຫຸ້ມຂອງ	-13861
▁ຖົງການກັ່ນຕອງ	-13862
▁ເຫຼົ່ານີ້ແມ່ນ	-13863
ກ້າວຫນ້າທາງດ້ານ	-13864
ຢ່າງກວ້າງຂວາງໃນ	-13865
ແລະສະຫນັບສະຫນູນ	-13866
▁ຄໍາທີ່ກ່ຽວຂ້ອງ	-13867
?’	-13868
MI	-13869
Wh	-13870
fg	-13871
fr	-13872
vy	-13873
ຖາ	-13874
ັຊ	-13875
-07	-13876
-22	-13877
.34	-13878
.91	-13879
AME	-13880
INA	-13881
PCS	-13882
che	-13883
ges	-13884
iki	-13885
ita	-13886
uel	-13887
ງ່ນ	-13888
ຕົມ	-13889
ຖະລ	-13890
ຖັກ	-13891
ທອມ	-13892
ສີນ	-13893
ອິສ	-13894
ຮື້	-13895
ູກາ	-13896
ົວະ	-13897
ໃຫມ	-13898
▁"[	-13899
▁ES	-13900
▁MA	-13901
▁Mo	-13902
▁ep	-13903
▁py	-13904
▁ຄຼ	-13905
.201	-13906
Free	-13907
angu	-13908
ards	-13909
comm	-13910
emon	-13911
erry	-13912
ious	-13913
oria	-13914
tube	-13915
umen	-13916
wind	-13917
ຈົ່ມ	-13918
ຊະນາ	-13919
ຊິນີ	-13920
ດຸ່ນ	-13921
ຕົວະ	-13922
ບ໊ອກ	-13923
ປົ່ງ	-13924
ສະກ໊	-13925
ສະເປ	-13926
ຫຼົກ	-13927
ຸກົມ	-13928
▁0.3	-13929
▁10.	-13930
▁128	-13931
▁14:	-13932
▁4.5	-13933
▁CCN	-13934
▁Cab	-13935
▁Deb	-13936
▁Dev	-13937
▁Gem	-13938
▁Get	-13939
▁Ken	-13940
▁LCD	-13941
▁Lan	-13942
▁Sky	-13943
▁Sok	-13944
▁TOP	-13945
▁Tai	-13946
▁Ten	-13947
▁emb	-13948
▁mil	-13949
▁pix	-13950
▁ຄັງ	-13951
▁ຊີດ	-13952
▁ບຶດ	-13953
▁ປືນ	-13954
▁ພິກ	-13955
▁ຮວມ	-13956
▁ໂຄມ	-13957
▁ໂຊມ	-13958
ators	-13959
chool	-13960
craft	-13961
icken	-13962
phere	-13963
riday	-13964
water	-13965
ກະປົກ	-13966
ຈີເລຍ	-13967
ຢູໂຣບ	-13968
ລະນຶກ	-13969
ລັດທິ	-13970
ສັດຕະ	-13971
ຮາດແວ	-13972
ືອບັນ	-13973
ແຄ້ວນ	-13974
ໂຄມໄຟ	-13975
ໂດຍມີ	-13976
ໃນວົງ	-13977
ໄປຮອດ	-13978
▁Aust	-13979
▁BCHT	-13980
▁Cand	-13981
▁Cine	-13982
▁Circ	-13983
▁Disk	-13984
▁Ever	-13985
▁Head	-13986
▁Lake	-13987
▁NEMA	-13988
▁Town	-13989
▁WIFI	-13990
▁Xbox	-13991
▁post	-13992
▁tent	-13993
▁tube	-13994
▁ກ້ຽງ	-13995
▁ສະມາ	-13996
▁ຫມູນ	-13997
▁ເຄົາ	-13998
▁ເພນີ	-13999
▁ເສີຍ	-14000
amping	-14001
androl	-14002
ionate	-14003
roller	-14004
ການທູດ	-14005
ຂາດແຄນ	-14006
ຄອບຄຸມ	-14007
ຕຸຍການ	-14008
ຕໍ່ລອງ	-14009
ບຸກລຸກ	-14010
ລ່າຊ້າ	-14011
ລ່າສັດ	-14012
ຮ້ອຍລະ	-14013
ເຫຍື່ອ	-14014
ເຫຼັ້ມ	-14015
ແນວທາງ	-14016
ໃນນາທີ	-14017
ໃນສະພາ	-14018
ໄບເບິນ	-14019
▁Covid	-14020
▁Grade	-14021
▁Patch	-14022
▁Tours	-14023
▁ປະຫານ	-14024
▁ຫມິ່ນ	-14025
▁ຫວັ່ນ	-14026
▁ຫາກໍ່	-14027
▁ເຄວິນ	-14028
▁ເບີໂທ	-14029
itecoin	-14030
ກາງແຈ້ງ	-14031
ການສິ່ງ	-14032
ຂອງແຂວງ	-14033
ຕຸນິຍົມ	-14034
ທັງຫລາຍ	-14035
ນາຍຈ້າງ	-14036
ນິວເຄຼຍ	-14037
ສັງກະສີ	-14038
ອມມູນິດ	-14039
ຮ້ອງເພງ	-14040
▁Boiler	-14041
▁George	-14042
▁Heroes	-14043
▁Safety	-14044
▁Sensor	-14045
▁Valley	-14046
▁ຄົນໄດ້	-14047
▁ຕໍາຫນິ	-14048
▁ນັກບິນ	-14049
▁ບັນຍາຍ	-14050
▁ປາຍທາງ	-14051
▁ຜູ້ໃຊ້	-14052
▁ວິເຄາະ	-14053
▁ວ່າມັນ	-14054
▁ສະຖິຕິ	-14055
▁ສະຫນິດ	-14056
▁ອົບຮົມ	-14057
▁ແມ່ຂອງ	-14058
▁ແລະຖ້າ	-14059
ການກຸສົນ	-14060
ກິໂລແມັດ	-14061
ທາງອີເມວ	-14062
ປ່ຽນເປັນ	-14063
ຢູ່ນະຄອນ	-14064
ຢູ່ເຮືອນ	-14065
ຢ່າງຫລາຍ	-14066
ສັນຍາກັບ	-14067
ເຈົ້າພາບ	-14068
ເຮັດດ້ວຍ	-14069
ໂປໂມຊັ່ນ	-14070
ໄລຍະສັ້ນ	-14071
▁192.168	-14072
▁Optical	-14073
▁Remover	-14074
▁Scooter	-14075
▁desktop	-14076
▁stretch	-14077
▁ກໍາເນີດ	-14078
▁ຄວາມຮູ້	-14079
▁ຈະມີການ	-14080
▁ທ່ານໄດ້	-14081
▁ປະຊາກອນ	-14082
▁ສິ້ນສຸດ	-14083
▁ເປັນນິດ	-14084
▁ແລກປ່ຽນ	-14085
ການຕັດສິນ	-14086
ຂອງຜູ້ຊາຍ	-14087
ຍາກລໍາບາກ	-14088
ທະຫານເຮືອ	-14089
ບຸລິມະສິດ	-14090
ພາຍໃຕ້ການ	-14091
ລະດູໃບໄມ້	-14092
ສະກ໊ອດແລນ	-14093
ຮຽນຮູ້ຈາກ	-14094
ເປັນປະທານ	-14095
ເຫດລະເບີດ	-14096
ເຮັດຄະແນນ	-14097
ເຮືອນແກ້ວ	-14098
ແຜ່ຂະຫຍາຍ	-14099
ແລະຂໍ້ມູນ	-14100
▁Canberra	-14101
▁Longgang	-14102
▁ກວດເບິ່ງ	-14103
▁ການເມືອງ	-14104
▁ມີພຽງແຕ່	-14105
▁ສະແຫວງຫາ	-14106
▁ເຈົ້າຢູ່	-14107
▁ໂມງເຊົ້າ	-14108
▁ໃນນັ້ນມີ	-14109
ຂໍ້ຂັດແຍ່ງ	-14110
ຄວາມສໍາຄັນ	-14111
ຊີວະວິທະຍາ	-14112
ທັງສອງຝ່າຍ	-14113
ບໍລິຫານຂອງ	-14114
ບໍ່ຕ້ອງການ	-14115
ລະຫວ່າງການ	-14116
ຫນ້າເສຍດາຍ	-14117
ໂອກາດທີ່ຈະ	-14118
ໃຊ້ອຸປະກອນ	-14119
▁corrosion	-14120
▁jailbreak	-14121
▁ການພົວພັນ	-14122
▁ຄ່າທໍານຽມ	-14123
▁ທົນທານຕໍ່	-14124
▁ລາວໄດ້ຮັບ	-14125
▁ວິກິພີເດຍ	-14126
▁ແລະເຄື່ອງ	-14127
ຈະເປັນແນວໃດ	-14128
ທາງສາດສະຫນາ	-14129
ເອເລັກໂຕນິກ	-14130
▁ແຜ່ນດິນໄຫວ	-14131
ຂ້າພະເຈົ້າຈະ	-14132
ທີ່ເຂົາເຈົ້າ	-14133
ປະດິດຄິດສ້າງ	-14134
ພາກຕາເວັນຕົກ	-14135
ລະເບີດຝັງດິນ	-14136
▁Refinecolor	-14137
▁ການຕັດສິນໃຈ	-14138
▁ຄວາມເຂົ້າໃຈ	-14139
▁ຫົວຫນ້າຄະນະ	-14140
ພວກເຮົາມີຄວາມ	-14141
ສໍາລັບທຸລະກິດ	-14142
ເງື່ອນໄຂສະດວກ	-14143
▁Instrumental	-14144
▁Precipitator	-14145
▁ການເຂົ້າເຖິງ	-14146
▁ສະພາບແວດລ້ອມ	-14147
▁ຫຼາຍກວ່ານັ້ນ	-14148
ຊັບສິນທາງປັນຍາ	-14149
▁ດ້ວຍຫົວຂໍ້ວ່າ	-14150
▁ລາວໄດ້ກ່າວວ່າ	-14151
▁ຫນັງສືຜ່ານແດນ	-14152
ການເຄື່ອນໄຫວຂອງ	-14153
ທີ່ສະຫນັບສະຫນູນ	-14154
ທີ່ໃຫຍ່ທີ່ສຸດໃນ	-14155
ຮຽກຮ້ອງໃຫ້ມີການ	-14156
▁ຍິ່ງໄປກວ່ານັ້ນ	-14157
ສະຫນອງການບໍລິການ	-14158
▁ຕາມເວລາທ້ອງຖິ່ນ	-14159
!"	-14160
CT	-14161
DB	-14162
Fe	-14163
PO	-14164
VA	-14165
py	-14166
zo	-14167
ທຣ	-14168
ົົ	-14169
112	-14170
15)	-14171
199	-14172
="4	-14173
ART	-14174
OWN	-14175
bro	-14176
don	-14177
ema	-14178
igg	-14179
lad	-14180
oma	-14181
put	-14182
spa	-14183
ກອດ	-14184
ຂວດ	-14185
ຂົມ	-14186
ຄາບ	-14187
ຕົບ	-14188
ປູນ	-14189
ຟອງ	-14190
ຫາມ	-14191
ອອດ	-14192
ອຽນ	-14193
ຶດງ	-14194
ເອລ	-14195
ໂພດ	-14196
▁71	-14197
▁82	-14198
▁HS	-14199
▁TO	-14200
▁VI	-14201
.6.4	-14202
acen	-14203
aner	-14204
apor	-14205
ette	-14206
igan	-14207
ilin	-14208
ique	-14209
izza	-14210
kers	-14211
nice	-14212
ogen	-14213
oles	-14214
ozer	-14215
pers	-14216
unic	-14217
wall	-14218
ຕິ້ງ	-14219
ມາມີ	-14220
ມື້ວ	-14221
ລິໂອ	-14222
ວິທະ	-14223
ະລົກ	-14224
ເພືອ	-14225
ໂຈມຕ	-14226
▁31,	-14227
▁40,	-14228
▁6.0	-14229
▁8.2	-14230
▁90%	-14231
▁93;	-14232
▁DMF	-14233
▁Ess	-14234
▁FOB	-14235
▁Hou	-14236
▁Lor	-14237
▁Mem	-14238
▁Toy	-14239
▁Veg	-14240
▁Wet	-14241
▁Wol	-14242
▁non	-14243
▁van	-14244
▁ຕາບ	-14245
▁ບົວ	-14246
▁ລຶບ	-14247
▁ວຸດ	-14248
▁ວຽນ	-14249
▁ສອກ	-14250
ector	-14251
hacks	-14252
merce	-14253
otion	-14254
ource	-14255
stock	-14256
tdown	-14257
velop	-14258
ຈູງໃຈ	-14259
ນາວຸດ	-14260
ພັນທຸ	-14261
ລັງສີ	-14262
ອອກໃນ	-14263
ຸກເກີ	-14264
ໃນສອງ	-14265
ໄປກັບ	-14266
▁0.15	-14267
▁1998	-14268
▁95%.	-14269
▁Band	-14270
▁Bish	-14271
▁Bush	-14272
▁Cour	-14273
▁Dark	-14274
▁Drop	-14275
▁FIFA	-14276
▁Golf	-14277
▁Qing	-14278
▁Tang	-14279
▁This	-14280
▁Wuxi	-14281
▁cool	-14282
▁mill	-14283
▁tank	-14284
▁ຂ່າຍ	-14285
▁ຈິ້ງ	-14286
▁ຖ້ວຍ	-14287
▁ບ່າຍ	-14288
▁ພະຍາ	-14289
▁ພ່ອງ	-14290
▁ມ້ຽນ	-14291
▁ວ່ອງ	-14292
▁ຫຍາບ	-14293
▁ອີ່ມ	-14294
▁ເຊັດ	-14295
▁ເສືອ	-14296
▁ແຫວນ	-14297
▁ໄຮໂດ	-14298
affeta	-14299
tattoo	-14300
ຄູ່ກັບ	-14301
ຈາກຈີນ	-14302
ຈໍາແນກ	-14303
ຕອບວ່າ	-14304
ຕາຍຂອງ	-14305
ຖານທັບ	-14306
ທີ່ຄວນ	-14307
ນັບແຕ່	-14308
ປິດລົງ	-14309
ພີກເຊລ	-14310
ລຶກລັບ	-14311
ວັນພຸດ	-14312
ວານນີ້	-14313
ັບຢັ້ງ	-14314
ເມື່ອງ	-14315
ເສື່ອມ	-14316
ແຕ່ວ່າ	-14317
ແບັກທີ	-14318
ໂທຣນິກ	-14319
ໃຊ້ວຽກ	-14320
ໃບສັ່ງ	-14321
ໄລຍະໄກ	-14322
▁2009.	-14323
▁2010.	-14324
▁Grill	-14325
▁Medic	-14326
▁Texas	-14327
▁Trade	-14328
▁miles	-14329
▁nylon	-14330
▁sight	-14331
▁ກິດຈະ	-14332
▁ກໍາໄລ	-14333
▁ຄືກັນ	-14334
▁ຈະໄດ້	-14335
▁ຈຸນລະ	-14336
▁ປີສາດ	-14337
▁ສະເປນ	-14338
▁ສາຫັດ	-14339
▁ແລະຈະ	-14340
agnetic	-14341
ການເກັບ	-14342
ຂາເປົ່າ	-14343
ຂ້າມຟາກ	-14344
ຄຸ້ມກັນ	-14345
ຈ້າງງານ	-14346
ຍ້ອນການ	-14347
ທາງອາຍາ	-14348
ປະນາວຸດ	-14349
ຢ່າງດຽວ	-14350
ລະຫ່ວາງ	-14351
ສັບຊ້ອນ	-14352
ຫຼາຍແລະ	-14353
ອະວະກາດ	-14354
ອິສະລາມ	-14355
ເທັກຊັດ	-14356
ແມ່ນຢູ່	-14357
ໂຕ້ແຍ້ງ	-14358
ໃຫຍ່ຂອງ	-14359
ໄອຍະການ	-14360
▁(2010)	-14361
▁Cooler	-14362
▁Cotton	-14363
▁Jacket	-14364
▁Report	-14365
▁Sludge	-14366
▁Yamaha	-14367
▁ຕັ້ງໃຈ	-14368
▁ທຽນຈິນ	-14369
▁ນັ້ນຈະ	-14370
▁ນໍາທິດ	-14371
▁ນໍ້າໃຈ	-14372
▁ຜົນງານ	-14373
▁ແລະບໍ່	-14374
▁ໃນກຸ່ມ	-14375
volution	-14376
ກ່ອນຫນ້າ	-14377
ຄົນທີ່ມີ	-14378
ທີ່ປະສົບ	-14379
ຜູ້ທີ່ມີ	-14380
ສະແດງໃຫ້	-14381
ສ່ວນແບ່ງ	-14382
ຫົວຫນ່ວຍ	-14383
ອອກໄປຈາກ	-14384
ອາດຈະບໍ່	-14385
ອິດສະລາມ	-14386
ືອບັນທຸກ	-14387
ົານໍາໃຊ້	-14388
ເຂົ້າຊົມ	-14389
ເມັກຊິໂກ	-14390
ເສື້ອຜ້າ	-14391
ໃນຕະຫລາດ	-14392
ໃນເຫດການ	-14393
▁Angeles	-14394
▁Mubarak	-14395
▁Saracen	-14396
▁Spotify	-14397
▁ຕົກແຕ່ງ	-14398
▁ທີ່ຂ້ອຍ	-14399
▁ນັກຮ້ອງ	-14400
▁ບົກພ່ອງ	-14401
▁ຫມາຍເຫດ	-14402
▁ຫວັງວ່າ	-14403
▁ຫຼ້າສຸດ	-14404
▁ເອກະພົບ	-14405
▁ໃນຊີວິດ	-14406
ການສົນທະນ	-14407
ຂອງລາວທີ່	-14408
ຄະນະລັດຖະ	-14409
ຕໍ່ກັບການ	-14410
ຖືວ່າເປັນ	-14411
ທີ່ທ່ານຈະ	-14412
ບໍ່ຈໍາກັດ	-14413
ປະລິນຍາຕີ	-14414
ປີທີ່ແລ້ວ	-14415
ວັນນະຄະດີ	-14416
ວິທະຍາໄລກ	-14417
ສະຖານະພາບ	-14418
ສາມາດເປັນ	-14419
ຫນັກຫນ່ວງ	-14420
ອາລູມິນຽມ	-14421
ອຸຕຸນິຍົມ	-14422
ຮ້ອງຂໍໃຫ້	-14423
ແນະນໍາວ່າ	-14424
ໃຫ້ນັກຮຽນ	-14425
ໃຫ້ບຸກຄົນ	-14426
▁Airlines	-14427
▁Business	-14428
▁LinkedIn	-14429
▁interior	-14430
▁terminal	-14431
▁ພວກເຈົ້າ	-14432
▁ເມື່ອລາວ	-14433
▁ໃນວັນທີ່	-14434
ການສໍາຫລວດ	-14435
ຕົ້ນຕໍແມ່ນ	-14436
ທີ່ພັກອາໄສ	-14437
ພັດທະນາໂດຍ	-14438
ສໍາຫລັບການ	-14439
ຫຼາຍເກີນໄປ	-14440
ອິດສະລະເອວ	-14441
ເພື່ອຮັກສາ	-14442
ແລະພວກເຮົາ	-14443
ແລະວິຊາຊີບ	-14444
▁Community	-14445
▁Packaging	-14446
▁ການຕະຫຼາດ	-14447
▁ການເຕີບໂຕ	-14448
▁ຖືກນໍາໃຊ້	-14449
▁ທີ່ແທ້ຈິງ	-14450
▁ແລະໄດ້ຮັບ	-14451
ຂອງກອງປະຊຸມ	-14452
ຄວາມເຈັບປວດ	-14453
ດັ່ງກ່າວຖືກ	-14454
ນັກທ່ອງທ່ຽວ	-14455
ສະແດງສິລະປະ	-14456
ສາມາດຄວບຄຸມ	-14457
ເຮລິຄອບເຕີ້	-14458
ເຮັດຫນ້າທີ່	-14459
▁Compressor	-14460
▁Microfiber	-14461
▁ຄັ້ງທໍາອິດ	-14462
▁ຈິນຕະນາການ	-14463
▁ເຄື່ອງນຸ່ງ	-14464
▁ແຕ່ພວກເຂົາ	-14465
▁ໃນຕອນເຊົ້າ	-14466
ທີ່ສໍາຄັນຂອງ	-14467
ນັກວິທະຍາສາດ	-14468
ເຮັດວຽກຢູ່ໃນ	-14469
ເຮັດໃຫ້ປະລາດ	-14470
ແນ່ໃຈວ່າທ່ານ	-14471
▁ການທ່ອງທ່ຽວ	-14472
▁ລະຫັດສິນຄ້າ	-14473
▁ຮູບຊົງກະບອກ	-14474
ການປົກຫຸ້ມຂອງ	-14475
ຂົນສົ່ງສິນຄ້າ	-14476
ເຮັດຄວາມສະອາດ	-14477
▁ກະລຸນາຕິດຕໍ່	-14478
▁ສໍາລັບການຂາຍ	-14479
ທີ່ມີຄວາມສາມາດ	-14480
ເສັ້ນຜ່າສູນກາງ	-14481
▁ປະເພດຖົງປະເພດ	-14482
▁ສ້າງແບບຈໍາລອງ	-14483
▁ເພື່ອຮັບປະກັນ	-14484
▁ແຕ່ຫນ້າເສຍດາຍ	-14485
▁ເປັນບໍລິສັດທີ່	-14486
ທີ່ຂ້າພະເຈົ້າໄດ້	-14487
▁ທີ່ຢູ່ຕິດຕໍ່ທັງ	-14488
02	-14489
DI	-14490
KT	-14491
OH	-14492
Ph	-14493
ຮິ	-14494
ຸສ	-14495
ແຫ	-14496
▁”	-14497
-09	-14498
-26	-14499
-99	-14500
.07	-14501
/11	-14502
25,	-14503
360	-14504
3]:	-14505
485	-14506
:30	-14507
ENT	-14508
MLE	-14509
OND	-14510
amm	-14511
cor	-14512
gow	-14513
hui	-14514
iol	-14515
itz	-14516
jan	-14517
leg	-14518
lux	-14519
rie	-14520
roz	-14521
tic	-14522
ຈະນ	-14523
ຈູດ	-14524
ຊີວ	-14525
ຖູກ	-14526
ປຶກ	-14527
ຟຸດ	-14528
ລາບ	-14529
ອາກ	-14530
ຮັງ	-14531
ານິ	-14532
ົ້ງ	-14533
ເທກ	-14534
ເວສ	-14535
▁AI	-14536
▁GA	-14537
▁GS	-14538
▁ON	-14539
▁Oh	-14540
▁my	-14541
▁ຕື	-14542
JIAN	-14543
atab	-14544
cent	-14545
cing	-14546
etic	-14547
ills	-14548
mann	-14549
pple	-14550
roit	-14551
ຊື້ນ	-14552
ຕານາ	-14553
ບິດາ	-14554
ຫຍາບ	-14555
ຫນວກ	-14556
ຫນາມ	-14557
ຫາປາ	-14558
ເຈີ້	-14559
ເວີ້	-14560
ເອຊີ	-14561
ແຍ່ງ	-14562
ໂທນີ	-14563
▁210	-14564
▁270	-14565
▁4.3	-14566
▁5.5	-14567
▁DNA	-14568
▁Exp	-14569
▁GDP	-14570
▁Kit	-14571
▁Lat	-14572
▁Nav	-14573
▁Yes	-14574
▁hel	-14575
▁kil	-14576
▁mel	-14577
▁pen	-14578
▁ຕະລ	-14579
▁ບຽບ	-14580
▁ຜັນ	-14581
▁ພົມ	-14582
▁ຟອດ	-14583
▁ລວດ	-14584
▁ອາມ	-14585
▁ຮັນ	-14586
▁ເກນ	-14587
▁ແຊບ	-14588
▁ແຊມ	-14589
▁ໂຍງ	-14590
aceut	-14591
antic	-14592
istic	-14593
onald	-14594
uitar	-14595
vious	-14596
ຂົນຕາ	-14597
ຕະກອນ	-14598
ພົບໃນ	-14599
ມືປືນ	-14600
ສະດຸກ	-14601
ອາດີດ	-14602
ັດທາຍ	-14603
ຶດງໍ້	-14604
ເຜີ້ງ	-14605
ໂຕເອງ	-14606
ໃນແບບ	-14607
▁1100	-14608
▁1997	-14609
▁Brit	-14610
▁Cash	-14611
▁Cell	-14612
▁Demo	-14613
▁Down	-14614
▁Duct	-14615
▁Jose	-14616
▁Ryan	-14617
▁Snow	-14618
▁Time	-14619
▁Yong	-14620
▁arch	-14621
▁gold	-14622
▁huge	-14623
▁more	-14624
▁tape	-14625
▁tatt	-14626
▁work	-14627
▁ກົ້ມ	-14628
▁ຂ້ຽນ	-14629
▁ນ້ອມ	-14630
▁ບ້ວງ	-14631
▁ມືຖື	-14632
▁ຫລອມ	-14633
▁ຫລຽນ	-14634
▁ເອັບ	-14635
▁ແທ່ນ	-14636
ential	-14637
eroean	-14638
ission	-14639
online	-14640
rolley	-14641
ກາງຂອງ	-14642
ຕົວກັບ	-14643
ບົດຂຽນ	-14644
ພັນກັບ	-14645
ລັກລອບ	-14646
ສານພິດ	-14647
ສາບສູນ	-14648
ຮອງຮັບ	-14649
ັບປິ້ງ	-14650
ໃນຄະດີ	-14651
ໄປທົ່ວ	-14652
▁2008,	-14653
▁April	-14654
▁Break	-14655
▁CPTPP	-14656
▁Cisco	-14657
▁Class	-14658
▁Cross	-14659
▁Franc	-14660
▁Khark	-14661
▁Music	-14662
▁Stone	-14663
▁Watch	-14664
▁Watts	-14665
▁hacks	-14666
▁ກົນໄກ	-14667
▁ທາງຕາ	-14668
▁ນໍາໄປ	-14669
▁ປະກັນ	-14670
▁ມາຈາກ	-14671
▁ຫມັ່ນ	-14672
▁ຫມ່ໍາ	-14673
▁ໄປສູ່	-14674
Unthank	-14675
acquard	-14676
ensions	-14677
ການເປີດ	-14678
ກຸ່ມຜູ້	-14679
ກ່ອນທີ່	-14680
ຄລິກໃສ່	-14681
ຄ່າຈ້າງ	-14682
ຈະບໍ່ມີ	-14683
ທຸກບ່ອນ	-14684
ປັດສະວະ	-14685
ພື້ນດິນ	-14686
ມາທິການ	-14687
ລ້ຽງສັດ	-14688
ວ່າຂ້ອຍ	-14689
ສາມາດມີ	-14690
ຫຼາຍຂອງ	-14691
ອ່ອນໄຫວ	-14692
ເຮັດຕາມ	-14693
ແຂ່ງລົດ	-14694
ແຕ້ມຮູບ	-14695
ແຜນຮ່າງ	-14696
ໃນທັນທີ	-14697
▁Cutter	-14698
▁Foshan	-14699
▁Letter	-14700
▁Orange	-14701
▁Sodium	-14702
▁guitar	-14703
▁ກະດ້າງ	-14704
▁ຄໍາສັບ	-14705
▁ຈອນສັນ	-14706
▁ດຽວກັນ	-14707
▁ທີ່ການ	-14708
▁ທີ່ລາວ	-14709
▁ທີ່ໃຊ້	-14710
▁ທໍ້ຖອຍ	-14711
▁ນ້ໍາຕາ	-14712
▁ມະເຮັງ	-14713
▁ສອງສາມ	-14714
▁ສັດປ່າ	-14715
▁ຫລັງຄາ	-14716
▁ອຸປະມາ	-14717
▁ແມ່ນບໍ	-14718
▁ແຫວງຫາ	-14719
ກອມມູນິດ	-14720
ກະທໍາຜິດ	-14721
ກິນອາຫານ	-14722
ຂອງກະຊວງ	-14723
ຊານເມືອງ	-14724
ຊິ້ນສ່ວນ	-14725
ຕ່າງໆແລະ	-14726
ຕໍ່າກວ່າ	-14727
ນັ້ນແລ້ວ	-14728
ບັນດາມາດ	-14729
ປຸກລະດົມ	-14730
ມີພຽງແຕ່	-14731
ມູນເຊື້ອ	-14732
ສະກອດແລນ	-14733
ຫລາຍຄັ້ງ	-14734
ອະໄວຍະວະ	-14735
ອ້າຍນ້ອງ	-14736
ເນັ້ນວ່າ	-14737
ເປັນຕົ້ນ	-14738
ໂຄງປະກອບ	-14739
▁Chicken	-14740
▁Climate	-14741
▁Horizon	-14742
▁Medical	-14743
▁ຄະນະນັກ	-14744
▁ຈະສາມາດ	-14745
▁ຊັບຊ້ອນ	-14746
▁ຊຶ່ງຢູ່	-14747
▁ຕ້ານທານ	-14748
▁ທີ່ຫນ້າ	-14749
▁ທີ່ເຮົາ	-14750
▁ປັກກິ່ງ	-14751
▁ພາຍຫລັງ	-14752
▁ວັນເສົາ	-14753
▁ວິຕາມິນ	-14754
▁ຫລັກສູດ	-14755
▁ໄພພິບັດ	-14756
aceutical	-14757
ຂອງໂຮງຮຽນ	-14758
ຄວາມເຊື່ອ	-14759
ດາວນ໌ໂຫລດ	-14760
ທາງການທູດ	-14761
ຜູ້ຊົມໃຊ້	-14762
ຢູ່ໃກ້ກັບ	-14763
ຢ່າງປອດໄພ	-14764
ຮັກສາປະຕູ	-14765
ເຂດຊາຍແດນ	-14766
ເຂັ້ມຂົ້ນ	-14767
ເຄື່ອນທີ່	-14768
ເລື່ອງຂອງ	-14769
ເລື່ອງລາວ	-14770
ແລະການຄ້າ	-14771
ແລະປັບປຸງ	-14772
▁Virginia	-14773
▁ກະທັນຫັນ	-14774
▁ປາດຖະຫນາ	-14775
▁ປີຜ່ານມາ	-14776
▁ພາດສະຕິກ	-14777
▁ເຂດແຄ້ວນ	-14778
▁ເຈົ້າກັບ	-14779
▁ເຮົາຕ້ອງ	-14780
ກ່ຽວກັບມັນ	-14781
ຄວາມຮັບຮູ້	-14782
ທີ່ງ່າຍດາຍ	-14783
ບຸກຄະລາກອນ	-14784
ມີຄວາມຫມາຍ	-14785
ຫຼີ້ນຫຼີ້ນ	-14786
ອາຍຸສູງສຸດ	-14787
ອາດຊະຍາກໍາ	-14788
ເຂົ້າໃຈວ່າ	-14789
ເມື່ອວັນທີ	-14790
ແມ່ນພຽງແຕ່	-14791
ໃນອາເມລິກາ	-14792
▁Mountains	-14793
▁Separator	-14794
▁halloween	-14795
▁polyester	-14796
▁ເຊັ່ນນັ້ນ	-14797
▁ແຕ່ບໍ່ໄດ້	-14798
ຄຸນນະພາບຂອງ	-14799
ຕ້ອນຮັບທ່ານ	-14800
ທີ່ຈົດທະບຽນ	-14801
ປະເທດອັງກິດ	-14802
ພັກການເມືອງ	-14803
ວາງແຜນທີ່ຈະ	-14804
ສະຫະສະມາຄົມ	-14805
ສາຍການຜະລິດ	-14806
ສາທາລະນະຊົນ	-14807
ອັນໃຫຍ່ຫຼວງ	-14808
ັບປິ້ງມໍເຕີ	-14809
ເປັນສະມາຊິກ	-14810
ໃນເດືອນມີນາ	-14811
▁ຊັບພະຍາກອນ	-14812
▁ທີ່ພວກເຮົາ	-14813
▁ທ່ານກໍາລັງ	-14814
▁ນີ້ບໍ່ແມ່ນ	-14815
▁ປະຕິບັດການ	-14816
▁ຜູ້ທີ່ເປັນ	-14817
▁ລາວໄດ້ກ່າວ	-14818
▁ອາຟຣິກາໃຕ້	-14819
▁ເຄື່ອງດື່ມ	-14820
▁ເຈົ້າສາມາດ	-14821
▁ແລະວິທີການ	-14822
▁ໃນກອງປະຊຸມ	-14823
▁ໃຫ້ບໍລິການ	-14824
ການເລີ່ມຕົ້ນ	-14825
ຄວາມຫນາແຫນ້ນ	-14826
ຖືກກ່າວຫາວ່າ	-14827
ຜູ້ຕ້ອງສົງໄສ	-14828
ສະນະແມ່ເຫຼັກ	-14829
ຮັບຜິດຊອບຕໍ່	-14830
ໃນການກໍ່ສ້າງ	-14831
▁ທີ່ກອງປະຊຸມ	-14832
▁ວິທະຍາໄລຂອງ	-14833
▁ເລືອກຂະຫນາດ	-14834
▁ໄດ້ປະກາດວ່າ	-14835
ຂະຫຍາຍຕົວຢ່າງ	-14836
ທັກສະດ້ານໄອທີ	-14837
ທີ່ມີຄວາມຫມາຍ	-14838
ປະສິດທິພາບສູງ	-14839
▁DavidUnthank	-14840
▁ຕິດຕໍ່ພົວພັນ	-14841
▁ຕໍ່ໄປນີ້ແມ່ນ	-14842
ການລົງຄະແນນສຽງ	-14843
ປະຕິບັດຫນ້າທີ່	-14844
▁ສະເຫຼີມສະຫຼອງ	-14845
ຊະອານາຈັກອັງກິດ	-14846
▁ວັນເດືອນປີເກີດ	-14847
ເພື່ອຄວາມຕ້ອງການ	-14848
▁ຄວາມເປັນສ່ວນຕົວ	-14849
',	-14850
))	-14851
/-	-14852
09	-14853
Nm	-14854
PL	-14855
Su	-14856
UP	-14857
bu	-14858
do	-14859
iu	-14860
໊ບ	-14861
.17	-14862
.70	-14863
202	-14864
ALL	-14865
ENS	-14866
ICK	-14867
ONG	-14868
bot	-14869
edy	-14870
ern	-14871
fix	-14872
inh	-14873
mal	-14874
oli	-14875
ກົກ	-14876
ຈຽງ	-14877
ຍັກ	-14878
ບັກ	-14879
ຟັນ	-14880
ວິສ	-14881
ສວດ	-14882
ຫວະ	-14883
ອຽງ	-14884
ະຕິ	-14885
າກາ	-14886
ເຊບ	-14887
ເຟຍ	-14888
▁-1	-14889
▁4-	-14890
▁84	-14891
▁97	-14892
▁CY	-14893
▁EL	-14894
▁Ev	-14895
▁LO	-14896
▁Of	-14897
▁Ze	-14898
▁ma	-14899
▁vn	-14900
▁ກັ	-14901
▁ໂຖ	-14902
-300	-14903
.0.1	-14904
Land	-14905
acth	-14906
amps	-14907
icol	-14908
iral	-14909
lots	-14910
ocol	-14911
ocon	-14912
oose	-14913
phen	-14914
uary	-14915
umma	-14916
ຄຣິສ	-14917
ຍິ້ມ	-14918
ດູດນ	-14919
ຕິນາ	-14920
ຖີ້ມ	-14921
ຖົ່ວ	-14922
ຖ້ອຍ	-14923
ຜ່ອງ	-14924
ສາລີ	-14925
ຫມໍ້	-14926
ອິ້ງ	-14927
ອີໂອ	-14928
ອຸດິ	-14929
ີກັນ	-14930
ເຊີ້	-14931
ເຣັດ	-14932
ເຫີຍ	-14933
ໂຄ້ງ	-14934
▁(18	-14935
▁2.7	-14936
▁ABC	-14937
▁ALL	-14938
▁Dut	-14939
▁Ear	-14940
▁Gra	-14941
▁Had	-14942
▁IEC	-14943
▁Ins	-14944
▁JPG	-14945
▁Jia	-14946
▁Jon	-14947
▁Nac	-14948
▁Raw	-14949
▁Rok	-14950
▁Shi	-14951
▁Ton	-14952
▁imm	-14953
▁org	-14954
▁red	-14955
▁soc	-14956
▁ທູນ	-14957
▁ບົນ	-14958
▁ປຶກ	-14959
▁ຟິນ	-14960
▁ຫວນ	-14961
▁ອຽດ	-14962
▁ເກຍ	-14963
▁ເຊວ	-14964
▁ເບກ	-14965
apter	-14966
ering	-14967
ersey	-14968
itter	-14969
redit	-14970
ustry	-14971
ງ່າຍໆ	-14972
ຍາກາດ	-14973
ດີງາມ	-14974
ດຸ່ນດ	-14975
ຕາດອກ	-14976
ຕາບອດ	-14977
ປັດຕະ	-14978
ພິພິດ	-14979
ມິນນິ	-14980
ອິນຊີ	-14981
ອີຣານ	-14982
້ອາໄລ	-14983
▁1914	-14984
▁Gate	-14985
▁Meth	-14986
▁lady	-14987
▁prev	-14988
▁tric	-14989
▁ຄຸ້ນ	-14990
▁ຈື່ງ	-14991
▁ຖ້ຽວ	-14992
▁ຟ້ອງ	-14993
▁ລັອກ	-14994
▁ຫຍິບ	-14995
▁ເຊີຍ	-14996
▁ແຈັກ	-14997
▁ແປ້ງ	-14998
▁ໂທຫາ	-14999
▁ໂປໂລ	-15000
▁ໄຫລ່	-15001
Sphere	-15002
olding	-15003
ຂອງວົງ	-15004
ຄວນຮູ້	-15005
ຈະສ້າງ	-15006
ດີເລີດ	-15007
ຖະລົ່ມ	-15008
ນີ້ຍັງ	-15009
ຝົນຕົກ	-15010
ພັນຂອງ	-15011
ລາວວ່າ	-15012
ອາດຖືກ	-15013
ອີເລັກ	-15014
ຮຸກຮານ	-15015
ໄດ້ຈັດ	-15016
ໆມານີ້	-15017
▁Great	-15018
▁Initi	-15019
▁Istan	-15020
▁PROMO	-15021
▁Solid	-15022
▁Spool	-15023
▁TRUST	-15024
▁Vinyl	-15025
▁prote	-15026
▁ຊໍາລະ	-15027
▁ລານີ້	-15028
▁ອິນຊີ	-15029
▁ເຄືອງ	-15030
▁ໃນລັດ	-15031
shopify	-15032
ຄວາມງາມ	-15033
ຄິດເຫັນ	-15034
ຈໍາເລີຍ	-15035
ຕົ້ນຂອງ	-15036
ຖິ່ນຖານ	-15037
ນາຍຫນ້າ	-15038
ປົດປ່ອຍ	-15039
ຜິດຫວັງ	-15040
ຟື້ນຕົວ	-15041
ຫລັກສູດ	-15042
ຮົ່ວໄຫລ	-15043
ເປັນຜົນ	-15044
ເປັນພຽງ	-15045
ແຈ້ງໃຫ້	-15046
▁0086-1	-15047
▁Friday	-15048
▁Resort	-15049
▁exacth	-15050
▁powder	-15051
▁ການບໍ່	-15052
▁ການວາງ	-15053
▁ຂອບເຂດ	-15054
▁ຂົງເຂດ	-15055
▁ຄົນແລະ	-15056
▁ງຶດງໍ້	-15057
▁ດິນແດນ	-15058
▁ຕີລາຄາ	-15059
▁ທີ່ວ່າ	-15060
▁ສອງຄົນ	-15061
▁ສະແຫວງ	-15062
▁ໃຫ້ກັບ	-15063
ກວດເບິ່ງ	-15064
ຍອດນິຍົມ	-15065
ຍັງຢູ່ໃນ	-15066
ຕອນເຊົ້າ	-15067
ຕ່າງໆທີ່	-15068
ບັນຫານີ້	-15069
ປະຈໍາຕົວ	-15070
ພາບປະກອບ	-15071
ພໍສົມຄວນ	-15072
ລ້ານໂດລາ	-15073
ສະຫວັດດີ	-15074
ສະແຫວງຫາ	-15075
ຫລຸດຜ່ອນ	-15076
ອົກຊີເຈນ	-15077
ີກ່າວວ່າ	-15078
ເກົ່າແກ່	-15079
ເຂົ້າຮອບ	-15080
ເບົາຫວານ	-15081
ໂຮງລະຄອນ	-15082
ໄມໂຄຊ໊ອບ	-15083
▁Battery	-15084
▁Beroean	-15085
▁Florida	-15086
▁Pickets	-15087
▁Venturi	-15088
▁android	-15089
▁scratch	-15090
▁ການປ່ຽນ	-15091
▁ຄຸນະພາບ	-15092
▁ຈຸດຫມາຍ	-15093
▁ທຸກຢ່າງ	-15094
▁ປະກອບມີ	-15095
▁ປະຕິທິນ	-15096
▁ລວມເຖິງ	-15097
▁ສໍາຫຼວດ	-15098
▁ຮ່ອງກົງ	-15099
▁ເສລີພາບ	-15100
▁ແຕ່ເຮົາ	-15101
▁ແມ່ນໍ້າ	-15102
▁ໂດຍທ່ານ	-15103
androlone	-15104
propylene	-15105
ການສິດສອນ	-15106
ຈະກາຍເປັນ	-15107
ຕົ້ນຕໍຂອງ	-15108
ທາດໂປຼຕີນ	-15109
ທີ່ຍາວນານ	-15110
ປຽບທຽບກັບ	-15111
ປ່ອຍອອກມາ	-15112
ມິນນິໂຊຕາ	-15113
ລາວກໍາລັງ	-15114
ວິກິພິເດຍ	-15115
ສະເຫມີພາບ	-15116
ສໍາພາດກັບ	-15117
ອອກແບບໂດຍ	-15118
ເຍົາວະຊົນ	-15119
ເພດສໍາພັນ	-15120
ແມ່ນມາຈາກ	-15121
ໂລຫະປະສົມ	-15122
▁American	-15123
▁Electric	-15124
▁Istanbul	-15125
▁Knitting	-15126
▁Previous	-15127
▁ກອງທະຫານ	-15128
▁ການຮັກສາ	-15129
▁ນໍາເຂົ້າ	-15130
▁ປອກເປືອກ	-15131
▁ມາດຕະການ	-15132
▁ວັນພະຫັດ	-15133
▁ສະເຕນເລດ	-15134
ການຕໍ່ຕ້ານ	-15135
ການຢັ້ງຢືນ	-15136
ຂໍ້ເທັດຈິງ	-15137
ຈາກບໍລິສັດ	-15138
ຕົວຈິງແລ້ວ	-15139
ທາງໂທລະສັບ	-15140
ປະຈໍາປີຂອງ	-15141
ປະສິດຕິພາບ	-15142
ມະນຸດສະທໍາ	-15143
ສະຫນາມກິລາ	-15144
ສາດສະດາຈານ	-15145
ອາຫານເຊົ້າ	-15146
ເສັ້ນເລືອດ	-15147
ແອັນໂທໂລຈີ	-15148
ໃຫ້ເຫັນວ່າ	-15149
ໄດ້ດໍາເນີນ	-15150
▁Changchun	-15151
▁Container	-15152
▁Marketing	-15153
▁Rendering	-15154
▁ການຜ່າຕັດ	-15155
▁ການສໍາພາດ	-15156
▁ຄຣິດສະມັດ	-15157
▁ຄວາມສົນໃຈ	-15158
▁ຕ່າງປະເທດ	-15159
▁ບໍ່ມີຄວາມ	-15160
▁ລະຫັດເງິນ	-15161
▁ເພື່ອເຮັດ	-15162
▁ແນ່ນອນວ່າ	-15163
refinecolor	-15164
ຈົບການສຶກສາ	-15165
ຈໍານວນຫນ້ອຍ	-15166
ຕະຫຼອດຊີວິດ	-15167
ທີ່ຈະມາເຖິງ	-15168
ບໍ່ດັ່ງນັ້ນ	-15169
ສັງເກດເບິ່ງ	-15170
ສໍາຄັນໃນການ	-15171
ອາວຸດນິວເຄຍ	-15172
ເຂົ້າຮ່ວມໃນ	-15173
ໂດຍລັດຖະບານ	-15174
▁exacthacks	-15175
▁ພວກເຮົາບໍ່	-15176
ການເຊື່ອມໂຍງ	-15177
ຄວາມອາດສາມາດ	-15178
ປະຕິເສດທີ່ຈະ	-15179
ປະເທດຍີ່ປຸ່ນ	-15180
ສໍາຄັນທີ່ສຸດ	-15181
▁ການປະມວນຜົນ	-15182
▁ຕົວຫນ່ຽວນໍາ	-15183
▁ນອກເຫນືອຈາກ	-15184
▁ນັກທ່ອງທ່ຽວ	-15185
▁ປົກກະຕິແລ້ວ	-15186
▁ຫມາຍຄວາມວ່າ	-15187
▁ເດືອນຕົ້ນປີ	-15188
ການກໍ່ການຮ້າຍ	-15189
ການດໍາເນີນງານ	-15190
ຂອງພົນລະເມືອງ	-15191
ທີ່ມີຄວາມສ່ຽງ	-15192
▁ຂ້າພະເຈົ້າຂໍ	-15193
▁ຕາເວັນອອກກາງ	-15194
▁ໄດ້ສະແດງຄວາມ	-15195
ຈັດຕັ້ງປະຕິບັດ	-15196
ຊ່ວຍໃຫ້ພວກເຮົາ	-15197
ເກີດອຸບັດຕິເຫດ	-15198
ເຄື່ອງນຸ່ງຫົ່ມ	-15199
ເດືອນທີ່ຜ່ານມາ	-15200
▁ທະຫານເສຍອົງຄະ	-15201
▁ນອກເຫນືອໄປຈາກ	-15202
▁ພວກເຮົາທຸກຄົນ	-15203
▁ເປັນທີ່ຮູ້ຈັກ	-15204
▁ໄດ້ຮັບບາດເຈັບ	-15205
ພວກເຮົາຈະທົດແທນ	-15206
ວິທະຍາໄລກ່ຽວກັບ	-15207
ໃຫ້ການຝຶກອົບຮົມ	-15208
▁ຖ້າທ່ານຕ້ອງການ	-15209
▁ສາມາດໄດ້ຮັບການ	-15210
ຂ້າພະເຈົ້າຄິດວ່າ	-15211
ທີ່ດີທີ່ສຸດທີ່ຈະ	-15212
ຢ່າງມີປະສິດທິຜົນ	-15213
ສະຫະລາດຊະອານາຈັກ	-15214
ສະແຕນເລດສະແຕນເລດ	-15215
!,	-15216
/3	-15217
4-	-15218
5%	-15219
Ad	-15220
As	-15221
En	-15222
GI	-15223
He	-15224
JD	-15225
LD	-15226
ME	-15227
Up	-15228
fs	-15229
nm	-15230
ty	-15231
ງູ	-15232
ຜີ	-15233
ພຸ	-15234
-70	-15235
.01	-15236
.50	-15237
169	-15238
AND	-15239
ado	-15240
awa	-15241
hib	-15242
htt	-15243
ira	-15244
kin	-15245
luj	-15246
mar	-15247
mil	-15248
olo	-15249
riv	-15250
tek	-15251
viv	-15252
yed	-15253
yun	-15254
ກອກ	-15255
ງໍາ	-15256
ມິວ	-15257
ມີນ	-15258
ຢວນ	-15259
ຣາວ	-15260
ລັສ	-15261
ວກໍ	-15262
ຫອງ	-15263
ຫຸງ	-15264
ອາຟ	-15265
ເທວ	-15266
ແຕະ	-15267
ແມວ	-15268
▁",	-15269
▁#6	-15270
▁DW	-15271
▁LF	-15272
▁SC	-15273
▁ບິ	-15274
▁ຝີ	-15275
▁ສ໌	-15276
▁ໄຖ	-15277
Fran	-15278
aces	-15279
ahoo	-15280
book	-15281
elle	-15282
esis	-15283
opro	-15284
ກະລາ	-15285
ດ່າງ	-15286
ນິລະ	-15287
ປ້ຽນ	-15288
ຫມວກ	-15289
ຮ່ອມ	-15290
ະນຶກ	-15291
ເຖີງ	-15292
ເລົາ	-15293
ແຂວນ	-15294
▁1.3	-15295
▁304	-15296
▁330	-15297
▁7.4	-15298
▁Bin	-15299
▁Flu	-15300
▁Hex	-15301
▁III	-15302
▁Laz	-15303
▁Leg	-15304
▁Low	-15305
▁May	-15306
▁Not	-15307
▁Put	-15308
▁Rij	-15309
▁WPC	-15310
▁don	-15311
▁eng	-15312
▁log	-15313
▁rad	-15314
▁ref	-15315
▁sex	-15316
▁ກຸນ	-15317
▁ຂົມ	-15318
▁ຊາບ	-15319
▁ດຸນ	-15320
▁ປູ່	-15321
▁ເຄີ	-15322
▁ແປວ	-15323
Haber	-15324
ORDER	-15325
arian	-15326
arket	-15327
attle	-15328
crypt	-15329
icket	-15330
inson	-15331
inton	-15332
isure	-15333
loads	-15334
onder	-15335
ongee	-15336
ooder	-15337
paper	-15338
ptine	-15339
rifug	-15340
river	-15341
stone	-15342
under	-15343
ກະທູ້	-15344
ຕະລຶງ	-15345
ທະຍານ	-15346
ນີ້ໃນ	-15347
ຟີຊິກ	-15348
ມາທີ່	-15349
ລາຄານ	-15350
ລິເມດ	-15351
ລີ້ໄພ	-15352
ວກ່ອນ	-15353
ວີຊ່າ	-15354
ສະລັດ	-15355
ສະເຫລ	-15356
ຫາຍາກ	-15357
ຫຼືໄປ	-15358
ເກສອນ	-15359
ເຮືອດ	-15360
ໃດກໍ່	-15361
▁0.00	-15362
▁1050	-15363
▁1400	-15364
▁1988	-15365
▁1995	-15366
▁Buck	-15367
▁Carl	-15368
▁Coal	-15369
▁Ital	-15370
▁Meta	-15371
▁Patt	-15372
▁Pill	-15373
▁Porn	-15374
▁Quan	-15375
▁Shot	-15376
▁Tran	-15377
▁bead	-15378
▁qual	-15379
▁tips	-15380
▁ຄລິບ	-15381
▁ຊ້ອມ	-15382
▁ຕັ່ງ	-15383
▁ທຸລະ	-15384
▁ສ້ອຍ	-15385
▁ຫມໍ້	-15386
▁ແຫນ່	-15387
▁ໂທນີ	-15388
▁ໄມເຄ	-15389
acetam	-15390
atcher	-15391
ishing	-15392
ophone	-15393
ormone	-15394
ytnice	-15395
ການຈັດ	-15396
ຈຸດທີ່	-15397
ຕິດກັບ	-15398
ທອນພົດ	-15399
ມາດ້ວຍ	-15400
ວີເດັນ	-15401
ສິບສອງ	-15402
ສູນຫາຍ	-15403
ອັກເສບ	-15404
ັບເລັດ	-15405
ເປື່ອຍ	-15406
ເຫນືອກ	-15407
ແບບບໍ່	-15408
ແມ່ພິມ	-15409
ໃນນັ້ນ	-15410
ໃນແຂວງ	-15411
ໄຕ່ສວນ	-15412
ໆນ້ອຍໆ	-15413
▁2012,	-15414
▁2016)	-15415
▁Check	-15416
▁Ferry	-15417
▁Flute	-15418
▁Magic	-15419
▁Ninja	-15420
▁Trust	-15421
▁Ultra	-15422
▁Under	-15423
▁Wales	-15424
▁Zhang	-15425
▁trans	-15426
▁valve	-15427
▁ຄູຝຶກ	-15428
▁ຈໍເຈຍ	-15429
▁ນະລົກ	-15430
▁ລັດທິ	-15431
▁ສາທິດ	-15432
▁ອິສຣາ	-15433
▁ແນໃສ່	-15434
▁ໂບນັດ	-15435
Changes	-15436
atabase	-15437
opamine	-15438
ການສັ່ງ	-15439
ຂອງປ່ຽງ	-15440
ຂົ້ວໂລກ	-15441
ຄອນເສີດ	-15442
ຊັ້ນສູງ	-15443
ຕາລີບັນ	-15444
ຕຸລາການ	-15445
ທາງເທີງ	-15446
ນ້ໍາແລະ	-15447
ບັນຫຍັດ	-15448
ບົກຜ່ອງ	-15449
ປະສິດຕິ	-15450
ປາສະຈາກ	-15451
ຫລາຍພັນ	-15452
ອານຸພາກ	-15453
ເທັກນິກ	-15454
ເຮົາໄດ້	-15455
ແມ່ນຜູ້	-15456
ໂດຍກຸ່ມ	-15457
ໃນສະພາບ	-15458
▁BORDER	-15459
▁Equina	-15460
▁Forums	-15461
▁Rooder	-15462
▁Switch	-15463
▁Travel	-15464
▁pixels	-15465
▁rotary	-15466
▁ກະປ໋ອງ	-15467
▁ການແພດ	-15468
▁ຂອງມັນ	-15469
▁ຂັບລົດ	-15470
▁ຍ້ອງຍໍ	-15471
▁ບັນດາກ	-15472
▁ວັນພຸດ	-15473
▁ອັບເດດ	-15474
cription	-15475
ກົນລະຍຸດ	-15476
ຂອງພະຍາດ	-15477
ຈັດພີມມາ	-15478
ຕໍ່ອາທິດ	-15479
ທາງຈິດໃຈ	-15480
ບໍ່ວ່າຈະ	-15481
ປະເພດຖົງ	-15482
ຢູ່ພາຍໃນ	-15483
ເວົ້າກັບ	-15484
▁Acrylic	-15485
▁Drifter	-15486
▁Dusting	-15487
▁TRUSTED	-15488
▁Therapy	-15489
▁Vietnam	-15490
▁Wenzhou	-15491
▁Yinzhou	-15492
▁discuss	-15493
▁ກາງແຈ້ງ	-15494
▁ການເງິນ	-15495
▁ປະໂລຫິດ	-15496
▁ຜູ້ຊ່ວຍ	-15497
▁ມືອາຊີບ	-15498
▁ວ່າຄວາມ	-15499
▁ວ່າເປັນ	-15500
▁ຫນ້ານີ້	-15501
▁ອຸດສາຫະ	-15502
▁ໄດ້ຊະນະ	-15503
Changeset	-15504
ການວິເຄາະ	-15505
ການເຈລະຈາ	-15506
ຂອງບຸກຄົນ	-15507
ຂອງລາວໄດ້	-15508
ຊື້ເຄື່ອງ	-15509
ຕີລາຄາສູງ	-15510
ທີ່ນໍາໃຊ້	-15511
ທີ່ແນະນໍາ	-15512
ທຸກຄົນທີ່	-15513
ພອນສະຫວັນ	-15514
ພັກແຮງງານ	-15515
ມໍ່ໆມານີ້	-15516
ວິດເຊີແລນ	-15517
ຫ່າງໄກສອກ	-15518
ອອກຈາກການ	-15519
ຮັບຮູ້ວ່າ	-15520
ເຄື່ອງຕັດ	-15521
ແອບຟິລິກາ	-15522
ໃນຄັ້ງນີ້	-15523
ໃຫ້ການຂອງ	-15524
▁Material	-15525
▁RayHaber	-15526
▁ຂອງປະເທດ	-15527
▁ຜົນຜະລິດ	-15528
▁ມິນລິເມດ	-15529
▁ສ່ວນຮ້ອຍ	-15530
▁ໂດຍບໍ່ມີ	-15531
ທີ່ສູງຂຶ້ນ	-15532
ບັນນາທິການ	-15533
ລັບສັບຊ້ອນ	-15534
ວ່າມັນແມ່ນ	-15535
ສະຫະລັດແລະ	-15536
ຮັບຮອງເອົາ	-15537
[...]
